{
  "version": "1.0",
  "truncation": null,
  "padding": null,
  "added_tokens": [
    {
      "id": 0,
      "content": "[pad]",
      "single_word": false,
      "lstrip": false,
      "rstrip": false,
      "normalized": false,
      "special": true
    },
    {
      "id": 1,
      "content": "[seq]",
      "single_word": false,
      "lstrip": false,
      "rstrip": false,
      "normalized": false,
      "special": true
    },
    {
      "id": 2,
      "content": "[/seq]",
      "single_word": false,
      "lstrip": false,
      "rstrip": false,
      "normalized": false,
      "special": true
    },
    {
      "id": 3,
      "content": "[unk]",
      "single_word": false,
      "lstrip": false,
      "rstrip": false,
      "normalized": false,
      "special": true
    },
    {
      "id": 4,
      "content": "[mask]",
      "single_word": false,
      "lstrip": false,
      "rstrip": false,
      "normalized": false,
      "special": true
    }
  ],
  "normalizer": {
    "type": "Sequence",
    "normalizers": [
      {
        "type": "NFD"
      },
      {
        "type": "Lowercase"
      },
      {
        "type": "Strip",
        "strip_left": true,
        "strip_right": true
      },
      {
        "type": "StripAccents"
      }
    ]
  },
  "pre_tokenizer": {
    "type": "Sequence",
    "pretokenizers": [
      {
        "type": "Whitespace"
      },
      {
        "type": "Digits",
        "individual_digits": true
      }
    ]
  },
  "post_processor": {
    "type": "TemplateProcessing",
    "single": [
      {
        "SpecialToken": {
          "id": "[seq]",
          "type_id": 0
        }
      },
      {
        "Sequence": {
          "id": "A",
          "type_id": 0
        }
      },
      {
        "SpecialToken": {
          "id": "[/seq]",
          "type_id": 0
        }
      }
    ],
    "pair": [
      {
        "Sequence": {
          "id": "A",
          "type_id": 0
        }
      },
      {
        "Sequence": {
          "id": "B",
          "type_id": 1
        }
      }
    ],
    "special_tokens": {
      "[/seq]": {
        "id": "[/seq]",
        "ids": [
          2
        ],
        "tokens": [
          "[/seq]"
        ]
      },
      "[seq]": {
        "id": "[seq]",
        "ids": [
          1
        ],
        "tokens": [
          "[seq]"
        ]
      }
    }
  },
  "decoder": null,
  "model": {
    "type": "WordPiece",
    "unk_token": "[unk]",
    "continuing_subword_prefix": "##",
    "max_input_chars_per_word": 100,
    "vocab": {
      "[pad]": 0,
      "[seq]": 1,
      "[/seq]": 2,
      "[unk]": 3,
      "[mask]": 4,
      "!": 5,
      "\"": 6,
      "#": 7,
      "$": 8,
      "%": 9,
      "&": 10,
      "'": 11,
      "(": 12,
      ")": 13,
      "*": 14,
      "+": 15,
      ",": 16,
      "-": 17,
      ".": 18,
      "/": 19,
      "0": 20,
      "1": 21,
      "2": 22,
      "3": 23,
      "4": 24,
      "5": 25,
      "6": 26,
      "7": 27,
      "8": 28,
      "9": 29,
      ":": 30,
      ";": 31,
      "<": 32,
      "=": 33,
      ">": 34,
      "?": 35,
      "@": 36,
      "[": 37,
      "\\": 38,
      "]": 39,
      "^": 40,
      "_": 41,
      "`": 42,
      "a": 43,
      "b": 44,
      "c": 45,
      "d": 46,
      "e": 47,
      "f": 48,
      "g": 49,
      "h": 50,
      "i": 51,
      "j": 52,
      "k": 53,
      "l": 54,
      "m": 55,
      "n": 56,
      "o": 57,
      "p": 58,
      "q": 59,
      "r": 60,
      "s": 61,
      "t": 62,
      "u": 63,
      "v": 64,
      "w": 65,
      "x": 66,
      "y": 67,
      "z": 68,
      "{": 69,
      "|": 70,
      "}": 71,
      "~": 72,
      "": 73,
      "": 74,
      "": 75,
      "": 76,
      "": 77,
      "": 78,
      "": 79,
      "": 80,
      "": 81,
      "": 82,
      "": 83,
      "": 84,
      "": 85,
      "": 86,
      "": 87,
      "": 88,
      "": 89,
      "": 90,
      "": 91,
      "": 92,
      "": 93,
      "": 94,
      "": 95,
      "": 96,
      "": 97,
      "": 98,
      "": 99,
      "": 100,
      "": 101,
      "¡": 102,
      "¢": 103,
      "£": 104,
      "¤": 105,
      "¥": 106,
      "¦": 107,
      "§": 108,
      "¨": 109,
      "©": 110,
      "ª": 111,
      "«": 112,
      "¬": 113,
      "­": 114,
      "®": 115,
      "¯": 116,
      "°": 117,
      "±": 118,
      "²": 119,
      "³": 120,
      "´": 121,
      "µ": 122,
      "¶": 123,
      "·": 124,
      "¸": 125,
      "¹": 126,
      "º": 127,
      "»": 128,
      "¼": 129,
      "½": 130,
      "¾": 131,
      "¿": 132,
      "×": 133,
      "ß": 134,
      "æ": 135,
      "ð": 136,
      "÷": 137,
      "ø": 138,
      "þ": 139,
      "ı": 140,
      "ĸ": 141,
      "ł": 142,
      "œ": 143,
      "ƒ": 144,
      "ɛ": 145,
      "ʻ": 146,
      "ˇ": 147,
      "˚": 148,
      "˜": 149,
      "ˮ": 150,
      "΄": 151,
      "α": 152,
      "β": 153,
      "γ": 154,
      "δ": 155,
      "ε": 156,
      "ζ": 157,
      "η": 158,
      "θ": 159,
      "ι": 160,
      "κ": 161,
      "λ": 162,
      "μ": 163,
      "ν": 164,
      "ξ": 165,
      "ο": 166,
      "π": 167,
      "ρ": 168,
      "ς": 169,
      "σ": 170,
      "τ": 171,
      "υ": 172,
      "φ": 173,
      "χ": 174,
      "ψ": 175,
      "ω": 176,
      "а": 177,
      "б": 178,
      "в": 179,
      "е": 180,
      "и": 181,
      "к": 182,
      "м": 183,
      "о": 184,
      "р": 185,
      "с": 186,
      "т": 187,
      "ю": 188,
      "є": 189,
      "ҫ": 190,
      "ב": 191,
      "ד": 192,
      "ᄀ": 193,
      "ᄂ": 194,
      "ᄃ": 195,
      "ᄅ": 196,
      "ᄆ": 197,
      "ᄇ": 198,
      "ᄉ": 199,
      "ᄋ": 200,
      "ᄌ": 201,
      "ᄎ": 202,
      "ᄐ": 203,
      "ᄑ": 204,
      "ᄒ": 205,
      "ᅡ": 206,
      "ᅥ": 207,
      "ᅧ": 208,
      "ᅩ": 209,
      "ᅪ": 210,
      "ᅬ": 211,
      "ᅭ": 212,
      "ᅮ": 213,
      "ᅯ": 214,
      "ᅳ": 215,
      "ᅵ": 216,
      "ᆨ": 217,
      "ᆫ": 218,
      "ᆯ": 219,
      "ᆸ": 220,
      "ᆼ": 221,
      "ᴇ": 222,
      "​": 223,
      "‌": 224,
      "‍": 225,
      "‎": 226,
      "‐": 227,
      "‑": 228,
      "‒": 229,
      "–": 230,
      "—": 231,
      "―": 232,
      "‘": 233,
      "’": 234,
      "‚": 235,
      "“": 236,
      "”": 237,
      "„": 238,
      "‟": 239,
      "†": 240,
      "‡": 241,
      "•": 242,
      "…": 243,
      "‪": 244,
      "‬": 245,
      "‭": 246,
      "‰": 247,
      "′": 248,
      "″": 249,
      "‹": 250,
      "›": 251,
      "※": 252,
      "⁄": 253,
      "⁠": 254,
      "⁣": 255,
      "⁰": 256,
      "⁴": 257,
      "⁷": 258,
      "⁸": 259,
      "₂": 260,
      "₄": 261,
      "₤": 262,
      "₩": 263,
      "₪": 264,
      "€": 265,
      "₱": 266,
      "₵": 267,
      "₹": 268,
      "₽": 269,
      "℠": 270,
      "™": 271,
      "⅓": 272,
      "⅛": 273,
      "⅜": 274,
      "⅝": 275,
      "⅞": 276,
      "←": 277,
      "→": 278,
      "↓": 279,
      "⇩": 280,
      "−": 281,
      "∝": 282,
      "≈": 283,
      "≤": 284,
      "≥": 285,
      "─": 286,
      "│": 287,
      "■": 288,
      "▪": 289,
      "▶": 290,
      "▷": 291,
      "►": 292,
      "○": 293,
      "◎": 294,
      "●": 295,
      "◦": 296,
      "◼": 297,
      "✓": 298,
      "✔": 299,
      "、": 300,
      "。": 301,
      "「": 302,
      "」": 303,
      "あ": 304,
      "い": 305,
      "う": 306,
      "え": 307,
      "お": 308,
      "か": 309,
      "き": 310,
      "く": 311,
      "け": 312,
      "こ": 313,
      "さ": 314,
      "し": 315,
      "す": 316,
      "そ": 317,
      "た": 318,
      "ち": 319,
      "っ": 320,
      "つ": 321,
      "て": 322,
      "と": 323,
      "な": 324,
      "に": 325,
      "の": 326,
      "は": 327,
      "ひ": 328,
      "ふ": 329,
      "へ": 330,
      "ほ": 331,
      "ま": 332,
      "み": 333,
      "む": 334,
      "め": 335,
      "も": 336,
      "や": 337,
      "よ": 338,
      "ら": 339,
      "り": 340,
      "る": 341,
      "れ": 342,
      "わ": 343,
      "を": 344,
      "ん": 345,
      "ア": 346,
      "ィ": 347,
      "イ": 348,
      "ウ": 349,
      "ェ": 350,
      "エ": 351,
      "ォ": 352,
      "オ": 353,
      "カ": 354,
      "キ": 355,
      "ク": 356,
      "ケ": 357,
      "コ": 358,
      "サ": 359,
      "シ": 360,
      "ス": 361,
      "セ": 362,
      "ソ": 363,
      "タ": 364,
      "チ": 365,
      "ッ": 366,
      "ツ": 367,
      "テ": 368,
      "ト": 369,
      "ナ": 370,
      "ニ": 371,
      "ヌ": 372,
      "ネ": 373,
      "ノ": 374,
      "ハ": 375,
      "ヒ": 376,
      "フ": 377,
      "ヘ": 378,
      "ホ": 379,
      "マ": 380,
      "ミ": 381,
      "ム": 382,
      "メ": 383,
      "モ": 384,
      "ャ": 385,
      "ヤ": 386,
      "ュ": 387,
      "ユ": 388,
      "ヨ": 389,
      "ラ": 390,
      "リ": 391,
      "ル": 392,
      "レ": 393,
      "ロ": 394,
      "ワ": 395,
      "ン": 396,
      "・": 397,
      "ー": 398,
      "一": 399,
      "丁": 400,
      "七": 401,
      "万": 402,
      "三": 403,
      "上": 404,
      "下": 405,
      "不": 406,
      "且": 407,
      "世": 408,
      "並": 409,
      "中": 410,
      "主": 411,
      "之": 412,
      "乎": 413,
      "乏": 414,
      "九": 415,
      "也": 416,
      "了": 417,
      "予": 418,
      "事": 419,
      "二": 420,
      "于": 421,
      "互": 422,
      "五": 423,
      "些": 424,
      "亞": 425,
      "交": 426,
      "亦": 427,
      "京": 428,
      "人": 429,
      "今": 430,
      "介": 431,
      "仍": 432,
      "他": 433,
      "付": 434,
      "代": 435,
      "令": 436,
      "以": 437,
      "件": 438,
      "任": 439,
      "份": 440,
      "企": 441,
      "伏": 442,
      "休": 443,
      "会": 444,
      "伝": 445,
      "伯": 446,
      "估": 447,
      "伴": 448,
      "伶": 449,
      "伸": 450,
      "似": 451,
      "但": 452,
      "佈": 453,
      "位": 454,
      "低": 455,
      "住": 456,
      "体": 457,
      "佔": 458,
      "作": 459,
      "佳": 460,
      "併": 461,
      "使": 462,
      "來": 463,
      "供": 464,
      "価": 465,
      "便": 466,
      "係": 467,
      "保": 468,
      "信": 469,
      "修": 470,
      "個": 471,
      "們": 472,
      "候": 473,
      "値": 474,
      "倫": 475,
      "值": 476,
      "假": 477,
      "偏": 478,
      "停": 479,
      "傑": 480,
      "備": 481,
      "傳": 482,
      "債": 483,
      "僅": 484,
      "僑": 485,
      "價": 486,
      "儀": 487,
      "億": 488,
      "償": 489,
      "優": 490,
      "元": 491,
      "兆": 492,
      "先": 493,
      "光": 494,
      "克": 495,
      "兌": 496,
      "入": 497,
      "內": 498,
      "全": 499,
      "兩": 500,
      "公": 501,
      "六": 502,
      "其": 503,
      "内": 504,
      "再": 505,
      "冠": 506,
      "冬": 507,
      "凈": 508,
      "出": 509,
      "分": 510,
      "切": 511,
      "初": 512,
      "判": 513,
      "別": 514,
      "利": 515,
      "到": 516,
      "制": 517,
      "券": 518,
      "刺": 519,
      "則": 520,
      "削": 521,
      "前": 522,
      "副": 523,
      "創": 524,
      "劃": 525,
      "力": 526,
      "加": 527,
      "助": 528,
      "努": 529,
      "勁": 530,
      "勒": 531,
      "動": 532,
      "務": 533,
      "勢": 534,
      "勵": 535,
      "包": 536,
      "化": 537,
      "北": 538,
      "匯": 539,
      "医": 540,
      "區": 541,
      "十": 542,
      "升": 543,
      "午": 544,
      "半": 545,
      "協": 546,
      "南": 547,
      "印": 548,
      "即": 549,
      "却": 550,
      "原": 551,
      "去": 552,
      "参": 553,
      "參": 554,
      "又": 555,
      "及": 556,
      "友": 557,
      "反": 558,
      "取": 559,
      "受": 560,
      "口": 561,
      "另": 562,
      "召": 563,
      "可": 564,
      "台": 565,
      "右": 566,
      "号": 567,
      "司": 568,
      "各": 569,
      "合": 570,
      "吉": 571,
      "同": 572,
      "名": 573,
      "吐": 574,
      "向": 575,
      "否": 576,
      "含": 577,
      "吸": 578,
      "呈": 579,
      "告": 580,
      "周": 581,
      "和": 582,
      "咨": 583,
      "品": 584,
      "員": 585,
      "哥": 586,
      "售": 587,
      "商": 588,
      "問": 589,
      "善": 590,
      "喬": 591,
      "單": 592,
      "営": 593,
      "器": 594,
      "噸": 595,
      "四": 596,
      "回": 597,
      "因": 598,
      "困": 599,
      "国": 600,
      "國": 601,
      "圓": 602,
      "圖": 603,
      "土": 604,
      "圧": 605,
      "在": 606,
      "圭": 607,
      "地": 608,
      "圳": 609,
      "均": 610,
      "坡": 611,
      "型": 612,
      "城": 613,
      "域": 614,
      "執": 615,
      "基": 616,
      "堅": 617,
      "堪": 618,
      "報": 619,
      "場": 620,
      "境": 621,
      "増": 622,
      "增": 623,
      "壓": 624,
      "壞": 625,
      "士": 626,
      "売": 627,
      "変": 628,
      "外": 629,
      "多": 630,
      "大": 631,
      "天": 632,
      "太": 633,
      "夫": 634,
      "央": 635,
      "失": 636,
      "契": 637,
      "奔": 638,
      "奕": 639,
      "奧": 640,
      "奮": 641,
      "好": 642,
      "如": 643,
      "始": 644,
      "委": 645,
      "威": 646,
      "媒": 647,
      "嫌": 648,
      "子": 649,
      "存": 650,
      "季": 651,
      "学": 652,
      "宇": 653,
      "守": 654,
      "安": 655,
      "完": 656,
      "宕": 657,
      "官": 658,
      "定": 659,
      "宜": 660,
      "実": 661,
      "客": 662,
      "宣": 663,
      "室": 664,
      "家": 665,
      "容": 666,
      "富": 667,
      "察": 668,
      "實": 669,
      "審": 670,
      "対": 671,
      "將": 672,
      "尋": 673,
      "對": 674,
      "導": 675,
      "小": 676,
      "少": 677,
      "尚": 678,
      "就": 679,
      "尼": 680,
      "尾": 681,
      "局": 682,
      "展": 683,
      "屬": 684,
      "峽": 685,
      "川": 686,
      "州": 687,
      "工": 688,
      "左": 689,
      "巨": 690,
      "差": 691,
      "已": 692,
      "巴": 693,
      "市": 694,
      "布": 695,
      "希": 696,
      "師": 697,
      "帶": 698,
      "常": 699,
      "幅": 700,
      "幣": 701,
      "干": 702,
      "平": 703,
      "年": 704,
      "并": 705,
      "広": 706,
      "底": 707,
      "店": 708,
      "府": 709,
      "度": 710,
      "庫": 711,
      "庭": 712,
      "廠": 713,
      "延": 714,
      "廷": 715,
      "建": 716,
      "弊": 717,
      "式": 718,
      "引": 719,
      "弱": 720,
      "張": 721,
      "強": 722,
      "弾": 723,
      "彈": 724,
      "当": 725,
      "形": 726,
      "彩": 727,
      "影": 728,
      "往": 729,
      "征": 730,
      "待": 731,
      "很": 732,
      "徊": 733,
      "後": 734,
      "得": 735,
      "徘": 736,
      "從": 737,
      "復": 738,
      "微": 739,
      "徵": 740,
      "德": 741,
      "心": 742,
      "志": 743,
      "応": 744,
      "念": 745,
      "怕": 746,
      "急": 747,
      "性": 748,
      "恐": 749,
      "息": 750,
      "悉": 751,
      "情": 752,
      "意": 753,
      "感": 754,
      "愿": 755,
      "態": 756,
      "慎": 757,
      "慮": 758,
      "憂": 759,
      "憑": 760,
      "憶": 761,
      "應": 762,
      "懸": 763,
      "成": 764,
      "我": 765,
      "戒": 766,
      "或": 767,
      "戚": 768,
      "戰": 769,
      "戴": 770,
      "戶": 771,
      "戻": 772,
      "房": 773,
      "所": 774,
      "手": 775,
      "打": 776,
      "扣": 777,
      "扭": 778,
      "扳": 779,
      "扶": 780,
      "批": 781,
      "找": 782,
      "技": 783,
      "把": 784,
      "抑": 785,
      "投": 786,
      "押": 787,
      "担": 788,
      "拉": 789,
      "拋": 790,
      "拖": 791,
      "括": 792,
      "拿": 793,
      "持": 794,
      "指": 795,
      "挫": 796,
      "振": 797,
      "捧": 798,
      "捲": 799,
      "掀": 800,
      "掃": 801,
      "掛": 802,
      "採": 803,
      "探": 804,
      "接": 805,
      "推": 806,
      "措": 807,
      "提": 808,
      "揚": 809,
      "援": 810,
      "損": 811,
      "搬": 812,
      "搶": 813,
      "摘": 814,
      "摩": 815,
      "撐": 816,
      "擁": 817,
      "擇": 818,
      "擊": 819,
      "擔": 820,
      "擘": 821,
      "據": 822,
      "擷": 823,
      "支": 824,
      "收": 825,
      "改": 826,
      "放": 827,
      "政": 828,
      "教": 829,
      "散": 830,
      "敦": 831,
      "数": 832,
      "整": 833,
      "數": 834,
      "文": 835,
      "料": 836,
      "斯": 837,
      "新": 838,
      "斷": 839,
      "方": 840,
      "於": 841,
      "施": 842,
      "旗": 843,
      "日": 844,
      "旦": 845,
      "早": 846,
      "昇": 847,
      "昊": 848,
      "明": 849,
      "易": 850,
      "星": 851,
      "映": 852,
      "春": 853,
      "昨": 854,
      "昭": 855,
      "是": 856,
      "時": 857,
      "普": 858,
      "景": 859,
      "晶": 860,
      "智": 861,
      "暗": 862,
      "暫": 863,
      "更": 864,
      "書": 865,
      "曾": 866,
      "替": 867,
      "最": 868,
      "會": 869,
      "月": 870,
      "有": 871,
      "服": 872,
      "望": 873,
      "期": 874,
      "未": 875,
      "本": 876,
      "札": 877,
      "材": 878,
      "杜": 879,
      "束": 880,
      "来": 881,
      "東": 882,
      "析": 883,
      "林": 884,
      "柄": 885,
      "染": 886,
      "查": 887,
      "柳": 888,
      "査": 889,
      "校": 890,
      "株": 891,
      "根": 892,
      "格": 893,
      "案": 894,
      "森": 895,
      "検": 896,
      "楊": 897,
      "業": 898,
      "概": 899,
      "構": 900,
      "標": 901,
      "模": 902,
      "樣": 903,
      "横": 904,
      "機": 905,
      "檔": 906,
      "權": 907,
      "次": 908,
      "欧": 909,
      "欲": 910,
      "款": 911,
      "歇": 912,
      "歐": 913,
      "止": 914,
      "正": 915,
      "此": 916,
      "步": 917,
      "歷": 918,
      "歸": 919,
      "殖": 920,
      "段": 921,
      "每": 922,
      "比": 923,
      "氏": 924,
      "民": 925,
      "気": 926,
      "氣": 927,
      "水": 928,
      "永": 929,
      "求": 930,
      "污": 931,
      "決": 932,
      "沒": 933,
      "河": 934,
      "油": 935,
      "況": 936,
      "泉": 937,
      "法": 938,
      "波": 939,
      "注": 940,
      "洲": 941,
      "活": 942,
      "流": 943,
      "浮": 944,
      "海": 945,
      "消": 946,
      "淡": 947,
      "深": 948,
      "清": 949,
      "済": 950,
      "減": 951,
      "測": 952,
      "港": 953,
      "游": 954,
      "源": 955,
      "準": 956,
      "溫": 957,
      "滑": 958,
      "漢": 959,
      "漲": 960,
      "澤": 961,
      "澳": 962,
      "激": 963,
      "濟": 964,
      "濤": 965,
      "瀏": 966,
      "灣": 967,
      "点": 968,
      "為": 969,
      "烏": 970,
      "無": 971,
      "然": 972,
      "煌": 973,
      "照": 974,
      "熱": 975,
      "營": 976,
      "爆": 977,
      "爭": 978,
      "爾": 979,
      "版": 980,
      "牌": 981,
      "物": 982,
      "特": 983,
      "狀": 984,
      "獲": 985,
      "獻": 986,
      "率": 987,
      "玉": 988,
      "王": 989,
      "現": 990,
      "球": 991,
      "理": 992,
      "琪": 993,
      "瑞": 994,
      "環": 995,
      "瓊": 996,
      "生": 997,
      "產": 998,
      "産": 999,
      "甦": 1000,
      "用": 1001,
      "由": 1002,
      "申": 1003,
      "画": 1004,
      "界": 1005,
      "略": 1006,
      "番": 1007,
      "畫": 1008,
      "疑": 1009,
      "疲": 1010,
      "療": 1011,
      "発": 1012,
      "發": 1013,
      "白": 1014,
      "百": 1015,
      "的": 1016,
      "盈": 1017,
      "益": 1018,
      "盎": 1019,
      "盛": 1020,
      "盡": 1021,
      "盤": 1022,
      "盪": 1023,
      "目": 1024,
      "直": 1025,
      "相": 1026,
      "省": 1027,
      "看": 1028,
      "真": 1029,
      "眼": 1030,
      "眾": 1031,
      "睞": 1032,
      "知": 1033,
      "石": 1034,
      "研": 1035,
      "破": 1036,
      "硬": 1037,
      "確": 1038,
      "磊": 1039,
      "示": 1040,
      "社": 1041,
      "票": 1042,
      "祭": 1043,
      "科": 1044,
      "移": 1045,
      "稍": 1046,
      "種": 1047,
      "稱": 1048,
      "稿": 1049,
      "積": 1050,
      "穩": 1051,
      "究": 1052,
      "空": 1053,
      "窄": 1054,
      "立": 1055,
      "競": 1056,
      "第": 1057,
      "等": 1058,
      "筋": 1059,
      "策": 1060,
      "算": 1061,
      "管": 1062,
      "節": 1063,
      "範": 1064,
      "籌": 1065,
      "米": 1066,
      "紀": 1067,
      "約": 1068,
      "紅": 1069,
      "納": 1070,
      "紐": 1071,
      "純": 1072,
      "紙": 1073,
      "級": 1074,
      "紛": 1075,
      "素": 1076,
      "索": 1077,
      "累": 1078,
      "細": 1079,
      "終": 1080,
      "絆": 1081,
      "経": 1082,
      "結": 1083,
      "絡": 1084,
      "給": 1085,
      "統": 1086,
      "經": 1087,
      "続": 1088,
      "綜": 1089,
      "維": 1090,
      "網": 1091,
      "総": 1092,
      "線": 1093,
      "編": 1094,
      "緩": 1095,
      "縮": 1096,
      "總": 1097,
      "績": 1098,
      "織": 1099,
      "繼": 1100,
      "續": 1101,
      "缺": 1102,
      "羈": 1103,
      "美": 1104,
      "翰": 1105,
      "翻": 1106,
      "考": 1107,
      "者": 1108,
      "而": 1109,
      "耶": 1110,
      "聞": 1111,
      "聯": 1112,
      "聲": 1113,
      "職": 1114,
      "股": 1115,
      "背": 1116,
      "能": 1117,
      "脅": 1118,
      "脫": 1119,
      "腦": 1120,
      "腳": 1121,
      "膨": 1122,
      "膽": 1123,
      "臆": 1124,
      "臣": 1125,
      "臨": 1126,
      "自": 1127,
      "至": 1128,
      "致": 1129,
      "與": 1130,
      "興": 1131,
      "舉": 1132,
      "舞": 1133,
      "良": 1134,
      "艷": 1135,
      "芝": 1136,
      "芳": 1137,
      "若": 1138,
      "英": 1139,
      "荻": 1140,
      "菁": 1141,
      "華": 1142,
      "萍": 1143,
      "萬": 1144,
      "落": 1145,
      "董": 1146,
      "薩": 1147,
      "薪": 1148,
      "蘇": 1149,
      "處": 1150,
      "虧": 1151,
      "融": 1152,
      "行": 1153,
      "術": 1154,
      "衛": 1155,
      "表": 1156,
      "衰": 1157,
      "被": 1158,
      "裁": 1159,
      "補": 1160,
      "裝": 1161,
      "製": 1162,
      "複": 1163,
      "西": 1164,
      "要": 1165,
      "見": 1166,
      "規": 1167,
      "視": 1168,
      "覧": 1169,
      "覽": 1170,
      "觀": 1171,
      "角": 1172,
      "觸": 1173,
      "言": 1174,
      "計": 1175,
      "託": 1176,
      "記": 1177,
      "訪": 1178,
      "設": 1179,
      "許": 1180,
      "証": 1181,
      "評": 1182,
      "詢": 1183,
      "試": 1184,
      "話": 1185,
      "該": 1186,
      "詳": 1187,
      "認": 1188,
      "誕": 1189,
      "語": 1190,
      "說": 1191,
      "調": 1192,
      "談": 1193,
      "請": 1194,
      "論": 1195,
      "謂": 1196,
      "講": 1197,
      "謹": 1198,
      "證": 1199,
      "警": 1200,
      "譯": 1201,
      "議": 1202,
      "護": 1203,
      "變": 1204,
      "象": 1205,
      "貝": 1206,
      "財": 1207,
      "貢": 1208,
      "貨": 1209,
      "買": 1210,
      "費": 1211,
      "貿": 1212,
      "資": 1213,
      "賣": 1214,
      "質": 1215,
      "購": 1216,
      "赫": 1217,
      "走": 1218,
      "起": 1219,
      "超": 1220,
      "越": 1221,
      "趨": 1222,
      "足": 1223,
      "跌": 1224,
      "距": 1225,
      "跡": 1226,
      "路": 1227,
      "踏": 1228,
      "蹤": 1229,
      "躍": 1230,
      "車": 1231,
      "軟": 1232,
      "転": 1233,
      "較": 1234,
      "輕": 1235,
      "輝": 1236,
      "轉": 1237,
      "辦": 1238,
      "辭": 1239,
      "農": 1240,
      "込": 1241,
      "迄": 1242,
      "近": 1243,
      "述": 1244,
      "迷": 1245,
      "追": 1246,
      "退": 1247,
      "逆": 1248,
      "透": 1249,
      "這": 1250,
      "通": 1251,
      "速": 1252,
      "造": 1253,
      "逢": 1254,
      "連": 1255,
      "週": 1256,
      "進": 1257,
      "逾": 1258,
      "遅": 1259,
      "遇": 1260,
      "運": 1261,
      "過": 1262,
      "遏": 1263,
      "道": 1264,
      "達": 1265,
      "遠": 1266,
      "遭": 1267,
      "遷": 1268,
      "選": 1269,
      "避": 1270,
      "還": 1271,
      "邦": 1272,
      "邵": 1273,
      "郎": 1274,
      "部": 1275,
      "都": 1276,
      "配": 1277,
      "采": 1278,
      "里": 1279,
      "重": 1280,
      "量": 1281,
      "金": 1282,
      "鈀": 1283,
      "鈍": 1284,
      "鈞": 1285,
      "銀": 1286,
      "銅": 1287,
      "銘": 1288,
      "銷": 1289,
      "鋁": 1290,
      "鋼": 1291,
      "錄": 1292,
      "鎖": 1293,
      "鐵": 1294,
      "長": 1295,
      "門": 1296,
      "閉": 1297,
      "開": 1298,
      "閑": 1299,
      "間": 1300,
      "関": 1301,
      "閱": 1302,
      "關": 1303,
      "阻": 1304,
      "阿": 1305,
      "附": 1306,
      "降": 1307,
      "限": 1308,
      "院": 1309,
      "除": 1310,
      "陳": 1311,
      "陷": 1312,
      "陸": 1313,
      "隆": 1314,
      "階": 1315,
      "際": 1316,
      "隨": 1317,
      "險": 1318,
      "雅": 1319,
      "離": 1320,
      "難": 1321,
      "零": 1322,
      "雷": 1323,
      "電": 1324,
      "需": 1325,
      "震": 1326,
      "青": 1327,
      "靜": 1328,
      "非": 1329,
      "面": 1330,
      "革": 1331,
      "響": 1332,
      "預": 1333,
      "領": 1334,
      "頭": 1335,
      "題": 1336,
      "額": 1337,
      "類": 1338,
      "顧": 1339,
      "顯": 1340,
      "風": 1341,
      "飆": 1342,
      "首": 1343,
      "香": 1344,
      "馬": 1345,
      "驚": 1346,
      "體": 1347,
      "高": 1348,
      "鹽": 1349,
      "麗": 1350,
      "麟": 1351,
      "麥": 1352,
      "黃": 1353,
      "黎": 1354,
      "黑": 1355,
      "點": 1356,
      "鼓": 1357,
      "龔": 1358,
      "": 1359,
      "": 1360,
      "": 1361,
      "": 1362,
      "": 1363,
      "": 1364,
      "": 1365,
      "": 1366,
      "": 1367,
      "": 1368,
      "": 1369,
      "": 1370,
      "": 1371,
      "": 1372,
      "": 1373,
      "ﬀ": 1374,
      "ﬁ": 1375,
      "ﬂ": 1376,
      "ﬃ": 1377,
      "﻿": 1378,
      "％": 1379,
      "＆": 1380,
      "（": 1381,
      "）": 1382,
      "＋": 1383,
      "，": 1384,
      "．": 1385,
      "／": 1386,
      "０": 1387,
      "１": 1388,
      "２": 1389,
      "３": 1390,
      "４": 1391,
      "５": 1392,
      "６": 1393,
      "７": 1394,
      "８": 1395,
      "９": 1396,
      "：": 1397,
      "；": 1398,
      "＝": 1399,
      "＠": 1400,
      "［": 1401,
      "］": 1402,
      "ａ": 1403,
      "ｃ": 1404,
      "ｄ": 1405,
      "ｅ": 1406,
      "ｆ": 1407,
      "ｇ": 1408,
      "ｉ": 1409,
      "ｋ": 1410,
      "ｍ": 1411,
      "ｎ": 1412,
      "ｐ": 1413,
      "ｒ": 1414,
      "ｓ": 1415,
      "ｔ": 1416,
      "ｕ": 1417,
      "ｖ": 1418,
      "ｘ": 1419,
      "�": 1420,
      "##t": 1421,
      "##o": 1422,
      "##u": 1423,
      "##h": 1424,
      "##y": 1425,
      "##l": 1426,
      "##b": 1427,
      "##e": 1428,
      "##k": 1429,
      "##i": 1430,
      "##_": 1431,
      "##g": 1432,
      "##.": 1433,
      "##^": 1434,
      "##/": 1435,
      "##-": 1436,
      "##!": 1437,
      "##'": 1438,
      "##;": 1439,
      "##v": 1440,
      "##n": 1441,
      "##s": 1442,
      "##m": 1443,
      "##w": 1444,
      "##x": 1445,
      "##+": 1446,
      "##=": 1447,
      "##\"": 1448,
      "##$": 1449,
      "##`": 1450,
      "##@": 1451,
      "##q": 1452,
      "##>": 1453,
      "##%": 1454,
      "###": 1455,
      "##(": 1456,
      "##&": 1457,
      "##f": 1458,
      "##:": 1459,
      "##)": 1460,
      "##]": 1461,
      "##\\": 1462,
      "##[": 1463,
      "##<": 1464,
      "##,": 1465,
      "##*": 1466,
      "##c": 1467,
      "##p": 1468,
      "##d": 1469,
      "##a": 1470,
      "##?": 1471,
      "##j": 1472,
      "##z": 1473,
      "##r": 1474,
      "##股": 1475,
      "##普": 1476,
      "##通": 1477,
      "##上": 1478,
      "##か": 1479,
      "##り": 1480,
      "##幅": 1481,
      "##位": 1482,
      "##~": 1483,
      "##†": 1484,
      "##": 1485,
      "##盤": 1486,
      "##于": 1487,
      "##每": 1488,
      "##盎": 1489,
      "##司": 1490,
      "##画": 1491,
      "##の": 1492,
      "##実": 1493,
      "##施": 1494,
      "##は": 1495,
      "##}": 1496,
      "##將": 1497,
      "##出": 1498,
      "##售": 1499,
      "##保": 1500,
      "##險": 1501,
      "##部": 1502,
      "##門": 1503,
      "##而": 1504,
      "##受": 1505,
      "##投": 1506,
      "##資": 1507,
      "##者": 1508,
      "##追": 1509,
      "##捧": 1510,
      "##揚": 1511,
      "##金": 1512,
      "##交": 1513,
      "##淡": 1514,
      "##靜": 1515,
      "##中": 1516,
      "##銀": 1517,
      "##行": 1518,
      "##類": 1519,
      "##走": 1520,
      "##強": 1521,
      "##ﬃ": 1522,
      "##ø": 1523,
      "##£": 1524,
      "##​": 1525,
      "##畫": 1526,
      "##買": 1527,
      "##回": 1528,
      "##ε": 1529,
      "##τ": 1530,
      "##ο": 1531,
      "##χ": 1532,
      "##ς": 1533,
      "##|": 1534,
      "##�": 1535,
      "##æ": 1536,
      "##選": 1537,
      "##擇": 1538,
      "##績": 1539,
      "##優": 1540,
      "##’": 1541,
      "##ﬁ": 1542,
      "##η": 1543,
      "##σ": 1544,
      "##ﬂ": 1545,
      "##約": 1546,
      "##内": 1547,
      "##容": 1548,
      "##に": 1549,
      "##よ": 1550,
      "##っ": 1551,
      "##て": 1552,
      "##リ": 1553,
      "##株": 1554,
      "##式": 1555,
      "##市": 1556,
      "##場": 1557,
      "##ı": 1558,
      "##月": 1559,
      "##ふ": 1560,
      "##安": 1561,
      "##値": 1562,
      "##を": 1563,
      "##つ": 1564,
      "##け": 1565,
      "##た": 1566,
      "##{": 1567,
      "##●": 1568,
      "##¦": 1569,
      "##…": 1570,
      "##”": 1571,
      "##失": 1572,
      "##業": 1573,
      "##率": 1574,
      "##觸": 1575,
      "##及": 1576,
      "##七": 1577,
      "##年": 1578,
      "##半": 1579,
      "##高": 1580,
      "##點": 1581,
      "##テ": 1582,
      "##ィ": 1583,
      "##ッ": 1584,
      "##フ": 1585,
      "##¢": 1586,
      "##": 1587,
      "##": 1588,
      "##低": 1589,
      "##全": 1590,
      "##球": 1591,
      "##經": 1592,
      "##濟": 1593,
      "##成": 1594,
      "##長": 1595,
      "##預": 1596,
      "##估": 1597,
      "##的": 1598,
      "##消": 1599,
      "##息": 1600,
      "##未": 1601,
      "##立": 1602,
      "##即": 1603,
      "##作": 1604,
      "##反": 1605,
      "##應": 1606,
      "##υ": 1607,
      "##政": 1608,
      "##府": 1609,
      "##基": 1610,
      "##協": 1611,
      "##助": 1612,
      "##支": 1613,
      "##撐": 1614,
      "##台": 1615,
      "##積": 1616,
      "##電": 1617,
      "##本": 1618,
      "##與": 1619,
      "##周": 1620,
      "##四": 1621,
      "##紐": 1622,
      "##尾": 1623,
      "##持": 1624,
      "##平": 1625,
      "##ð": 1626,
      "##α": 1627,
      "##ß": 1628,
      "##イ": 1629,
      "##セ": 1630,
      "##メ": 1631,
      "##ン": 1632,
      "##ト": 1633,
      "##們": 1634,
      "##目": 1635,
      "##前": 1636,
      "##仍": 1637,
      "##然": 1638,
      "##處": 1639,
      "##在": 1640,
      "##風": 1641,
      "##偏": 1642,
      "##好": 1643,
      "##比": 1644,
      "##較": 1645,
      "##大": 1646,
      "##環": 1647,
      "##境": 1648,
      "##営": 1649,
      "##日": 1650,
      "##終": 1651,
      "##降": 1652,
      "##‘": 1653,
      "##紙": 1654,
      "##ｕ": 1655,
      "##ｖ": 1656,
      "##小": 1657,
      "##收": 1658,
      "##圓": 1659,
      "##五": 1660,
      "##早": 1661,
      "##脫": 1662,
      "##離": 1663,
      "##兩": 1664,
      "##易": 1665,
      "##商": 1666,
      "##指": 1667,
      "##分": 1668,
      "##歸": 1669,
      "##因": 1670,
      "##美": 1671,
      "##國": 1672,
      "##口": 1673,
      "##增": 1674,
      "##加": 1675,
      "##等": 1676,
      "##素": 1677,
      "##¡": 1678,
      "##給": 1679,
      "##予": 1680,
      "##以": 1681,
      "##漲": 1682,
      "##動": 1683,
      "##力": 1684,
      "##€": 1685,
      "##タ": 1686,
      "##ス": 1687,
      "##ー": 1688,
      "##オ": 1689,
      "##期": 1690,
      "##波": 1691,
      "##區": 1692,
      "##間": 1693,
      "##®": 1694,
      "##暫": 1695,
      "##緩": 1696,
      "##影": 1697,
      "##響": 1698,
      "##ᅩ": 1699,
      "##ᄋ": 1700,
      "##ᅵ": 1701,
      "##ᄐ": 1702,
      "##ᅥ": 1703,
      "##透": 1704,
      "##蘇": 1705,
      "##黎": 1706,
      "##世": 1707,
      "##с": 1708,
      "##方": 1709,
      "##媒": 1710,
      "##體": 1711,
      "##稍": 1712,
      "##報": 1713,
      "##導": 1714,
      "##佔": 1715,
      "##該": 1716,
      "##數": 1717,
      "##值": 1718,
      "##告": 1719,
      "##ヒ": 1720,
      "##ュ": 1721,
      "##シ": 1722,
      "##º": 1723,
      "##μ": 1724,
      "##ι": 1725,
      "##ω": 1726,
      "##ν": 1727,
      "##元": 1728,
      "##兌": 1729,
      "##瑞": 1730,
      "##郎": 1731,
      "##カ": 1732,
      "##ホ": 1733,
      "##ル": 1734,
      "##昇": 1735,
      "##し": 1736,
      "##下": 1737,
      "##相": 1738,
      "##信": 1739,
      "##原": 1740,
      "##文": 1741,
      "##已": 1742,
      "##超": 1743,
      "##過": 1744,
      "##空": 1745,
      "##頭": 1746,
      "##補": 1747,
      "##提": 1748,
      "##振": 1749,
      "##線": 1750,
      "##價": 1751,
      "##格": 1752,
      "##綜": 1753,
      "##合": 1754,
      "##滑": 1755,
      "##‎": 1756,
      "##型": 1757,
      "##權": 1758,
      "##ﬀ": 1759,
      "##ネ": 1760,
      "##‭": 1761,
      "##ʻ": 1762,
      "##麥": 1763,
      "##貨": 1764,
      "##–": 1765,
      "##κ": 1766,
      "##λ": 1767,
      "##γ": 1768,
      "##ρ": 1769,
      "##車": 1770,
      "##種": 1771,
      "##新": 1772,
      "##モ": 1773,
      "##開": 1774,
      "##発": 1775,
      "##止": 1776,
      "##あ": 1777,
      "##る": 1778,
      "##い": 1779,
      "##延": 1780,
      "##輝": 1781,
      "##煌": 1782,
      "##步": 1783,
      "##為": 1784,
      "##": 1785,
      "##地": 1786,
      "##時": 1787,
      "##決": 1788,
      "##算": 1789,
      "##増": 1790,
      "##益": 1791,
      "##と": 1792,
      "##な": 1793,
      "##こ": 1794,
      "##ら": 1795,
      "##灣": 1796,
      "##明": 1797,
      "##今": 1798,
      "##多": 1799,
      "##一": 1800,
      "##度": 1801,
      "##¥": 1802,
      "##ハ": 1803,
      "##升": 1804,
      "##還": 1805,
      "##‒": 1806,
      "##β": 1807,
      "##證": 1808,
      "##": 1809,
      "##": 1810,
      "##π": 1811,
      "##ζ": 1812,
      "##術": 1813,
      "##圖": 1814,
      "##形": 1815,
      "##顯": 1816,
      "##示": 1817,
      "##œ": 1818,
      "##關": 1819,
      "##閉": 1820,
      "##或": 1821,
      "##縮": 1822,
      "##減": 1823,
      "##拉": 1824,
      "##丁": 1825,
      "##洲": 1826,
      "##務": 1827,
      "##ξ": 1828,
      "##噸": 1829,
      "##見": 1830,
      "##北": 1831,
      "##京": 1832,
      "##氣": 1833,
      "##質": 1834,
      "##量": 1835,
      "##来": 1836,
      "##拿": 1837,
      "##統": 1838,
      "##計": 1839,
      "##局": 1840,
      "##三": 1841,
      "##公": 1842,
      "##布": 1843,
      "##至": 1844,
      "##午": 1845,
      "##™": 1846,
      "##對": 1847,
      "##盈": 1848,
      "##利": 1849,
      "##感": 1850,
      "##到": 1851,
      "##擔": 1852,
      "##憂": 1853,
      "##主": 1854,
      "##要": 1855,
      "##央": 1856,
      "##正": 1857,
      "##調": 1858,
      "##標": 1859,
      "##員": 1860,
      "##阻": 1861,
      "##う": 1862,
      "##さ": 1863,
      "##ま": 1864,
      "##す": 1865,
      "##閑": 1866,
      "##散": 1867,
      "##界": 1868,
      "##数": 1869,
      "##社": 1870,
      "##且": 1871,
      "##競": 1872,
      "##爭": 1873,
      "##手": 1874,
      "##產": 1875,
      "##現": 1876,
      "##問": 1877,
      "##題": 1878,
      "##人": 1879,
      "##民": 1880,
      "##先": 1881,
      "##物": 1882,
      "##き": 1883,
      "##推": 1884,
      "##移": 1885,
      "##彈": 1886,
      "##料": 1887,
      "##遭": 1888,
      "##遇": 1889,
      "##": 1890,
      "##ᅡ": 1891,
      "##ᆫ": 1892,
      "##ᄃ": 1893,
      "##ᆯ": 1894,
      "##ᄅ": 1895,
      "##券": 1896,
      "##所": 1897,
      "##富": 1898,
      "##深": 1899,
      "##析": 1900,
      "##師": 1901,
      "##連": 1902,
      "##続": 1903,
      "##鈍": 1904,
      "##化": 1905,
      "##純": 1906,
      "##δ": 1907,
      "##": 1908,
      "##蹤": 1909,
      "##債": 1910,
      "##也": 1911,
      "##不": 1912,
      "##可": 1913,
      "##能": 1914,
      "##重": 1915,
      "##‍": 1916,
      "##打": 1917,
      "##ち": 1918,
      "##遅": 1919,
      "##れ": 1920,
      "##め": 1921,
      "##く": 1922,
      "##懸": 1923,
      "##念": 1924,
      "##浮": 1925,
      "##理": 1926,
      "##由": 1927,
      "##紀": 1928,
      "##錄": 1929,
      "##‐": 1930,
      "##坡": 1931,
      "##二": 1932,
      "##瓊": 1933,
      "##工": 1934,
      "##跌": 1935,
      "##落": 1936,
      "##": 1937,
      "##副": 1938,
      "##陸": 1939,
      "##昊": 1940,
      "##稱": 1941,
      "##": 1942,
      "##官": 1943,
      "##講": 1944,
      "##話": 1945,
      "##後": 1946,
      "##自": 1947,
      "##ｅ": 1948,
      "##ｔ": 1949,
      "##ｍ": 1950,
      "##ｉ": 1951,
      "##事": 1952,
      "##王": 1953,
      "##令": 1954,
      "##麟": 1955,
      "##捲": 1956,
      "##入": 1957,
      "##土": 1958,
      "##弊": 1959,
      "##案": 1960,
      "##敦": 1961,
      "##屬": 1962,
      "##": 1963,
      "##": 1964,
      "##景": 1965,
      "##足": 1966,
      "##繼": 1967,
      "##續": 1968,
      "##鼓": 1969,
      "##舞": 1970,
      "##流": 1971,
      "##管": 1972,
      "##品": 1973,
      "##宕": 1974,
      "##起": 1975,
      "##伏": 1976,
      "##膽": 1977,
      "##戰": 1978,
      "##心": 1979,
      "##驚": 1980,
      "##擷": 1981,
      "##取": 1982,
      "##達": 1983,
      "##貿": 1984,
      "##逆": 1985,
      "##差": 1986,
      "##接": 1987,
      "##近": 1988,
      "##創": 1989,
      "##最": 1990,
      "##ᅮ": 1991,
      "##ᆸ": 1992,
      "##付": 1993,
      "##海": 1994,
      "##外": 1995,
      "##去": 1996,
      "##底": 1997,
      "##始": 1998,
      "##腦": 1999,
      "##面": 2000,
      "##器": 2001,
      "##製": 2002,
      "##造": 2003,
      "##活": 2004,
      "##躍": 2005,
      "##“": 2006,
      "##曾": 2007,
      "##測": 2008,
      "##試": 2009,
      "##難": 2010,
      "##ł": 2011,
      "##採": 2012,
      "##納": 2013,
      "##聲": 2014,
      "##請": 2015,
      "##羈": 2016,
      "##押": 2017,
      "##ד": 2018,
      "##冠": 2019,
      "##­": 2020,
      "##休": 2021,
      "##：": 2022,
      "##速": 2023,
      "##⁠": 2024,
      "##ｃ": 2025,
      "##內": 2026,
      "##φ": 2027,
      "##詳": 2028,
      "##細": 2029,
      "##據": 2030,
      "##聯": 2031,
      "##邦": 2032,
      "##準": 2033,
      "##備": 2034,
      "##會": 2035,
      "##份": 2036,
      "##歷": 2037,
      "##了": 2038,
      "##昨": 2039,
      "##勢": 2040,
      "##鋼": 2041,
      "##認": 2042,
      "##": 2043,
      "##ᅬ": 2044,
      "##ᅧ": 2045,
      "##ᆼ": 2046,
      "##把": 2047,
      "##從": 2048,
      "##‑": 2049,
      "##": 2050,
      "##勁": 2051,
      "##萬": 2052,
      "##掛": 2053,
      "##有": 2054,
      "##停": 2055,
      "##損": 2056,
      "##單": 2057,
      "##": 2058,
      "##略": 2059,
      "##水": 2060,
      "##陷": 2061,
      "##整": 2062,
      "##•": 2063,
      "##ア": 2064,
      "##軟": 2065,
      "##油": 2066,
      "##良": 2067,
      "##銘": 2068,
      "##柄": 2069,
      "##角": 2070,
      "##わ": 2071,
      "##堅": 2072,
      "##θ": 2073,
      "##用": 2074,
      "##子": 2075,
      "##ォ": 2076,
      "##ワ": 2077,
      "##対": 2078,
      "##広": 2079,
      "##範": 2080,
      "##米": 2081,
      "##服": 2082,
      "##巴": 2083,
      "##西": 2084,
      "##擁": 2085,
      "##聞": 2086,
      "##芳": 2087,
      "##；": 2088,
      "##牌": 2089,
      "##ｐ": 2090,
      "##費": 2091,
      "##進": 2092,
      "##獲": 2093,
      "##結": 2094,
      "##匯": 2095,
      "##技": 2096,
      "##看": 2097,
      "##法": 2098,
      "##跡": 2099,
      "##象": 2100,
      "##放": 2101,
      "##ƒ": 2102,
      "##融": 2103,
      "##＋": 2104,
      "##士": 2105,
      "##尋": 2106,
      "##找": 2107,
      "##引": 2108,
      "##判": 2109,
      "##來": 2110,
      "##趨": 2111,
      "##香": 2112,
      "##港": 2113,
      "##次": 2114,
      "##記": 2115,
      "##ヤ": 2116,
      "##教": 2117,
      "##祭": 2118,
      "##同": 2119,
      "##研": 2120,
      "##究": 2121,
      "##是": 2122,
      "##舉": 2123,
      "##辦": 2124,
      "##ᄎ": 2125,
      "##恐": 2126,
      "##怕": 2127,
      "##掀": 2128,
      "##如": 2129,
      "##源": 2130,
      "##飆": 2131,
      "##呈": 2132,
      "##常": 2133,
      "##憶": 2134,
      "##廠": 2135,
      "##華": 2136,
      "##限": 2137,
      "##鎖": 2138,
      "##住": 2139,
      "##再": 2140,
      "##ひ": 2141,
      "##沒": 2142,
      "##確": 2143,
      "##ヘ": 2144,
      "##濤": 2145,
      "##ク": 2146,
      "##萍": 2147,
      "##戻": 2148,
      "##ᄌ": 2149,
      "##他": 2150,
      "##此": 2151,
      "##奔": 2152,
      "##向": 2153,
      "##避": 2154,
      "##表": 2155,
      "##ム": 2156,
      "##ラ": 2157,
      "##背": 2158,
      "##初": 2159,
      "##峽": 2160,
      "##累": 2161,
      "##更": 2162,
      "##青": 2163,
      "##睞": 2164,
      "##興": 2165,
      "##非": 2166,
      "##發": 2167,
      "##代": 2168,
      "##概": 2169,
      "##体": 2170,
      "##ｓ": 2171,
      "##マ": 2172,
      "##ロ": 2173,
      "##エ": 2174,
      "##レ": 2175,
      "##ニ": 2176,
      "##傳": 2177,
      "##言": 2178,
      "##溫": 2179,
      "##機": 2180,
      "##構": 2181,
      "##拋": 2182,
      "##版": 2183,
      "##和": 2184,
      "##樣": 2185,
      "##—": 2186,
      "##ェ": 2187,
      "##キ": 2188,
      "##太": 2189,
      "##僅": 2190,
      "##天": 2191,
      "##科": 2192,
      "##賣": 2193,
      "##壓": 2194,
      "##家": 2195,
      "##之": 2196,
      "##斷": 2197,
      "##※": 2198,
      "##需": 2199,
      "##段": 2200,
      "##©": 2201,
      "##都": 2202,
      "##票": 2203,
      "##証": 2204,
      "##委": 2205,
      "##会": 2206,
      "##変": 2207,
      "##總": 2208,
      "##財": 2209,
      "##游": 2210,
      "##克": 2211,
      "##路": 2212,
      "##訪": 2213,
      "##圭": 2214,
      "##銷": 2215,
      "##宣": 2216,
      "##佈": 2217,
      "##際": 2218,
      "##幣": 2219,
      "##絡": 2220,
      "##附": 2221,
      "##亦": 2222,
      "##ｆ": 2223,
      "##使": 2224,
      "##注": 2225,
      "##歐": 2226,
      "##檔": 2227,
      "##得": 2228,
      "##求": 2229,
      "##総": 2230,
      "##若": 2231,
      "##琪": 2232,
      "##、": 2233,
      "##譯": 2234,
      "##轉": 2235,
      "##˜": 2236,
      "##說": 2237,
      "##劃": 2238,
      "##首": 2239,
      "##污": 2240,
      "##染": 2241,
      "##戶": 2242,
      "##介": 2243,
      "##へ": 2244,
      "##警": 2245,
      "##戒": 2246,
      "##個": 2247,
      "##查": 2248,
      "##逾": 2249,
      "##別": 2250,
      "##）": 2251,
      "##旦": 2252,
      "##假": 2253,
      "##ソ": 2254,
      "##級": 2255,
      "##復": 2256,
      "##甦": 2257,
      "##織": 2258,
      "##込": 2259,
      "##む": 2260,
      "##努": 2261,
      "##森": 2262,
      "##河": 2263,
      "##鐵": 2264,
      "##南": 2265,
      "##亞": 2266,
      "##百": 2267,
      "##е": 2268,
      "##扶": 2269,
      "##修": 2270,
      "##這": 2271,
      "##些": 2272,
      "##存": 2273,
      "##款": 2274,
      "##コ": 2275,
      "##規": 2276,
      "##や": 2277,
      "##生": 2278,
      "##産": 2279,
      "##迷": 2280,
      "##於": 2281,
      "##盛": 2282,
      "##鋁": 2283,
      "##含": 2284,
      "##ん": 2285,
      "##お": 2286,
      "##則": 2287,
      "##": 2288,
      "##均": 2289,
      "##ノ": 2290,
      "##ª": 2291,
      "##点": 2292,
      "##検": 2293,
      "##も": 2294,
      "##": 2295,
      "##伸": 2296,
      "##±": 2297,
      "##ャ": 2298,
      "##挫": 2299,
      "##階": 2300,
      "##並": 2301,
      "##関": 2302,
      "##情": 2303,
      "##董": 2304,
      "##ᄒ": 2305,
      "##ᅪ": 2306,
      "##悉": 2307,
      "##尼": 2308,
      "##国": 2309,
      "##震": 2310,
      "##盪": 2311,
      "##缺": 2312,
      "##乏": 2313,
      "##材": 2314,
      "##阿": 2315,
      "##根": 2316,
      "##廷": 2317,
      "##語": 2318,
      "##ᆨ": 2319,
      "##ᅳ": 2320,
      "##凈": 2321,
      "##狀": 2322,
      "##態": 2323,
      "##貢": 2324,
      "##獻": 2325,
      "##査": 2326,
      "##ナ": 2327,
      "##營": 2328,
      "##佳": 2329,
      "##擊": 2330,
      "##掃": 2331,
      "##黑": 2332,
      "##氏": 2333,
      "##о": 2334,
      "##週": 2335,
      "##圧": 2336,
      "##¨": 2337,
      "##─": 2338,
      "##微": 2339,
      "##札": 2340,
      "##売": 2341,
      "##却": 2342,
      "##荻": 2343,
      "##切": 2344,
      "##踏": 2345,
      "##み": 2346,
      "##節": 2347,
      "##尚": 2348,
      "##無": 2349,
      "##¬": 2350,
      "##視": 2351,
      "##柳": 2352,
      "##澤": 2353,
      "##伯": 2354,
      "##夫": 2355,
      "##改": 2356,
      "##革": 2357,
      "##絆": 2358,
      "##腳": 2359,
      "##石": 2360,
      "##係": 2361,
      "##筋": 2362,
      "##考": 2363,
      "##え": 2364,
      "##購": 2365,
      "##德": 2366,
      "##候": 2367,
      "##「": 2368,
      "##顧": 2369,
      "##鈞": 2370,
      "##第": 2371,
      "##六": 2372,
      "##哥": 2373,
      "##謹": 2374,
      "##慎": 2375,
      "##転": 2376,
      "##₤": 2377,
      "##覧": 2378,
      "##歇": 2379,
      "##ｘ": 2380,
      "##ａ": 2381,
      "##ツ": 2382,
      "##策": 2383,
      "##維": 2384,
      "##参": 2385,
      "##照": 2386,
      "##番": 2387,
      "##号": 2388,
      "##。": 2389,
      "##к": 2390,
      "##в": 2391,
      "##ᅭ": 2392,
      "##ᄉ": 2393,
      "##域": 2394,
      "##替": 2395,
      "##チ": 2396,
      "##¸": 2397,
      "##城": 2398,
      "##ｒ": 2399,
      "##里": 2400,
      "##省": 2401,
      "##搬": 2402,
      "##遷": 2403,
      "##宜": 2404,
      "##季": 2405,
      "##穩": 2406,
      "##越": 2407,
      "##其": 2408,
      "##就": 2409,
      "##謂": 2410,
      "##紅": 2411,
      "##籌": 2412,
      "##特": 2413,
      "##任": 2414,
      "##臣": 2415,
      "##慮": 2416,
      "##辭": 2417,
      "##職": 2418,
      "##欲": 2419,
      "##參": 2420,
      "##真": 2421,
      "##議": 2422,
      "##銅": 2423,
      "##索": 2424,
      "##設": 2425,
      "##定": 2426,
      "##（": 2427,
      "##託": 2428,
      "##憑": 2429,
      "##窄": 2430,
      "##院": 2431,
      "##扣": 2432,
      "##少": 2433,
      "##§": 2434,
      "##ҫ": 2435,
      "##ᴇ": 2436,
      "##裁": 2437,
      "##杜": 2438,
      "##貝": 2439,
      "##赫": 2440,
      "##望": 2441,
      "##併": 2442,
      "##奧": 2443,
      "##運": 2444,
      "##善": 2445,
      "##瀏": 2446,
      "##覽": 2447,
      "##泉": 2448,
      "##變": 2449,
      "##臆": 2450,
      "##": 2451,
      "##и": 2452,
      "##т": 2453,
      "##м": 2454,
      "##а": 2455,
      "##述": 2456,
      "##吐": 2457,
      "##帶": 2458,
      "##僑": 2459,
      "##徘": 2460,
      "##徊": 2461,
      "##性": 2462,
      "##巨": 2463,
      "##擘": 2464,
      "##熱": 2465,
      "##ᅯ": 2466,
      "##包": 2467,
      "##括": 2468,
      "##又": 2469,
      "##欧": 2470,
      "##州": 2471,
      "##直": 2472,
      "##ケ": 2473,
      "##ミ": 2474,
      "##経": 2475,
      "##逢": 2476,
      "##稿": 2477,
      "##校": 2478,
      "##圳": 2479,
      "##嫌": 2480,
      "##気": 2481,
      "##﻿": 2482,
      "##光": 2483,
      "##扳": 2484,
      "##爾": 2485,
      "##摩": 2486,
      "##書": 2487,
      "##倫": 2488,
      "##吸": 2489,
      "##映": 2490,
      "##英": 2491,
      "##衰": 2492,
      "##批": 2493,
      "##旗": 2494,
      "##網": 2495,
      "##陳": 2496,
      "##漢": 2497,
      "##þ": 2498,
      "##觀": 2499,
      "##艷": 2500,
      "##室": 2501,
      "##似": 2502,
      "##宇": 2503,
      "##彩": 2504,
      "##晶": 2505,
      "##衛": 2506,
      "##星": 2507,
      "##サ": 2508,
      "##抑": 2509,
      "##制": 2510,
      "##価": 2511,
      "##紛": 2512,
      "##九": 2513,
      "##供": 2514,
      "##額": 2515,
      "##農": 2516,
      "##−": 2517,
      "##執": 2518,
      "##退": 2519,
      "##膨": 2520,
      "##輕": 2521,
      "##建": 2522,
      "##ᄂ": 2523,
      "##ᄇ": 2524,
      "##ב": 2525,
      "##ˇ": 2526,
      "##互": 2527,
      "##堪": 2528,
      "##薩": 2529,
      "##斯": 2530,
      "##，": 2531,
      "##評": 2532,
      "##⁣": 2533,
      "##閱": 2534,
      "##林": 2535,
      "##昭": 2536,
      "##儀": 2537,
      "##乎": 2538,
      "##破": 2539,
      "##": 2540,
      "##‡": 2541,
      "##探": 2542,
      "##·": 2543,
      "##希": 2544,
      "##企": 2545,
      "##店": 2546,
      "##ｄ": 2547,
      "##": 2548,
      "##伝": 2549,
      "##待": 2550,
      "##裝": 2551,
      "##零": 2552,
      "##意": 2553,
      "##愿": 2554,
      "##并": 2555,
      "##弱": 2556,
      "##薪": 2557,
      "##實": 2558,
      "##庭": 2559,
      "##医": 2560,
      "##療": 2561,
      "##当": 2562,
      "##志": 2563,
      "##兆": 2564,
      "##ヨ": 2565,
      "##征": 2566,
      "##談": 2567,
      "##論": 2568,
      "##況": 2569,
      "##威": 2570,
      "##脅": 2571,
      "##疑": 2572,
      "##疲": 2573,
      "##拖": 2574,
      "##各": 2575,
      "##": 2576,
      "##奕": 2577,
      "##伶": 2578,
      "##爆": 2579,
      "##弾": 2580,
      "##件": 2581,
      "##済": 2582,
      "##ウ": 2583,
      "##鹽": 2584,
      "##川": 2585,
      "##十": 2586,
      "##ᄆ": 2587,
      "##ユ": 2588,
      "##察": 2589,
      "##そ": 2590,
      "##麗": 2591,
      "##ほ": 2592,
      "##横": 2593,
      "##徵": 2594,
      "##束": 2595,
      "##ю": 2596,
      "##р": 2597,
      "##吉": 2598,
      "##隆": 2599,
      "##援": 2600,
      "##左": 2601,
      "##右": 2602,
      "##東": 2603,
      "##展": 2604,
      "##摘": 2605,
      "##模": 2606,
      "##致": 2607,
      "##│": 2608,
      "##否": 2609,
      "##采": 2610,
      "##刺": 2611,
      "##激": 2612,
      "##措": 2613,
      "##房": 2614,
      "##応": 2615,
      "##耶": 2616,
      "##誕": 2617,
      "##臨": 2618,
      "##虧": 2619,
      "##春": 2620,
      "##申": 2621,
      "##清": 2622,
      "##償": 2623,
      "##護": 2624,
      "##‰": 2625,
      "##¿": 2626,
      "##玉": 2627,
      "##冬": 2628,
      "##削": 2629,
      "##很": 2630,
      "##搶": 2631,
      "##雷": 2632,
      "##勒": 2633,
      "##ｎ": 2634,
      "##磊": 2635,
      "##咨": 2636,
      "##詢": 2637,
      "##暗": 2638,
      "##ᄀ": 2639,
      "##距": 2640,
      "##": 2641,
      "##隨": 2642,
      "##領": 2643,
      "##勵": 2644,
      "##≤": 2645,
      "##雅": 2646,
      "##菁": 2647,
      "##被": 2648,
      "##壞": 2649,
      "##干": 2650,
      "##遏": 2651,
      "##ψ": 2652,
      "##庫": 2653,
      "##往": 2654,
      "##学": 2655,
      "##眾": 2656,
      "##急": 2657,
      "##担": 2658,
      "##er": 2659,
      "th": 2660,
      "##on": 2661,
      "##ti": 2662,
      "##es": 2663,
      "##en": 2664,
      "the": 2665,
      "##in": 2666,
      "##ed": 2667,
      "##an": 2668,
      "in": 2669,
      "##or": 2670,
      "##ar": 2671,
      "##al": 2672,
      "an": 2673,
      "of": 2674,
      "##at": 2675,
      "##ur": 2676,
      "and": 2677,
      "to": 2678,
      "##tion": 2679,
      "##om": 2680,
      "##ent": 2681,
      "##ec": 2682,
      "##it": 2683,
      "##ing": 2684,
      "##as": 2685,
      "re": 2686,
      "##ic": 2687,
      "##is": 2688,
      "##il": 2689,
      "##ro": 2690,
      "##re": 2691,
      "##ment": 2692,
      "com": 2693,
      "##ts": 2694,
      "##ation": 2695,
      "##ou": 2696,
      "##ve": 2697,
      "for": 2698,
      "as": 2699,
      "##et": 2700,
      "ex": 2701,
      "st": 2702,
      "##ly": 2703,
      "##le": 2704,
      "##st": 2705,
      "##ate": 2706,
      "con": 2707,
      "##li": 2708,
      "##--": 2709,
      "##ter": 2710,
      "on": 2711,
      "##ce": 2712,
      "we": 2713,
      "comp": 2714,
      "##th": 2715,
      "pro": 2716,
      "inc": 2717,
      "##tin": 2718,
      "##ch": 2719,
      "our": 2720,
      "##id": 2721,
      "or": 2722,
      "##ol": 2723,
      "##ir": 2724,
      "##os": 2725,
      "ac": 2726,
      "be": 2727,
      "##..": 2728,
      "##ay": 2729,
      "##em": 2730,
      "##ab": 2731,
      "is": 2732,
      "##ers": 2733,
      "##ac": 2734,
      "##ting": 2735,
      "##ul": 2736,
      "no": 2737,
      "##ge": 2738,
      "that": 2739,
      "##ess": 2740,
      "su": 2741,
      "##nd": 2742,
      "##ith": 2743,
      "##ect": 2744,
      "de": 2745,
      "##ated": 2746,
      "##lo": 2747,
      "pr": 2748,
      "##est": 2749,
      "##qu": 2750,
      "##ci": 2751,
      "##ig": 2752,
      "with": 2753,
      "sh": 2754,
      "wh": 2755,
      "##ver": 2756,
      "##ity": 2757,
      "##ments": 2758,
      "##any": 2759,
      "##por": 2760,
      "##ain": 2761,
      "##im": 2762,
      "by": 2763,
      "##se": 2764,
      "##per": 2765,
      "##ber": 2766,
      "##iti": 2767,
      "are": 2768,
      "##ut": 2769,
      "per": 2770,
      "company": 2771,
      "ad": 2772,
      "fr": 2773,
      "res": 2774,
      "##ue": 2775,
      "at": 2776,
      "##----": 2777,
      "##us": 2778,
      "al": 2779,
      "##ear": 2780,
      "##ad": 2781,
      "ch": 2782,
      "##oc": 2783,
      "##ant": 2784,
      "##ud": 2785,
      "not": 2786,
      "mar": 2787,
      "exp": 2788,
      "##tive": 2789,
      "##ance": 2790,
      "##ust": 2791,
      "##tr": 2792,
      "##el": 2793,
      "##able": 2794,
      "##uc": 2795,
      "##illi": 2796,
      "fin": 2797,
      "##ations": 2798,
      "##ther": 2799,
      "##illion": 2800,
      "##ap": 2801,
      "from": 2802,
      "##ities": 2803,
      "sec": 2804,
      "##ere": 2805,
      "##oun": 2806,
      "##od": 2807,
      "##um": 2808,
      "comm": 2809,
      "##ition": 2810,
      "tr": 2811,
      "##ff": 2812,
      "year": 2813,
      "##pp": 2814,
      "##cial": 2815,
      "qu": 2816,
      "##....": 2817,
      "##ember": 2818,
      "##end": 2819,
      "oper": 2820,
      "##iv": 2821,
      "##ase": 2822,
      "##ome": 2823,
      "un": 2824,
      "##and": 2825,
      "million": 2826,
      "finan": 2827,
      "shar": 2828,
      "other": 2829,
      "lo": 2830,
      "dec": 2831,
      "##ib": 2832,
      "##mp": 2833,
      "##ion": 2834,
      "##age": 2835,
      "##for": 2836,
      "it": 2837,
      "am": 2838,
      "ne": 2839,
      "##ill": 2840,
      "##fic": 2841,
      "##ock": 2842,
      "##ard": 2843,
      "rec": 2844,
      "se": 2845,
      "inter": 2846,
      "ag": 2847,
      "financial": 2848,
      "ha": 2849,
      "stock": 2850,
      "##ure": 2851,
      "acc": 2852,
      "##am": 2853,
      "##lud": 2854,
      "mark": 2855,
      "##ich": 2856,
      "##so": 2857,
      "##ld": 2858,
      "par": 2859,
      "en": 2860,
      "##__": 2861,
      "##ans": 2862,
      "this": 2863,
      "state": 2864,
      "##low": 2865,
      "app": 2866,
      "dis": 2867,
      "reg": 2868,
      "net": 2869,
      "##ens": 2870,
      "have": 2871,
      "##igh": 2872,
      "inv": 2873,
      "ta": 2874,
      "us": 2875,
      "ind": 2876,
      "##port": 2877,
      "##tain": 2878,
      "may": 2879,
      "which": 2880,
      "##act": 2881,
      "le": 2882,
      "und": 2883,
      "was": 2884,
      "##erm": 2885,
      "pl": 2886,
      "includ": 2887,
      "##ies": 2888,
      "##ally": 2889,
      "##ary": 2890,
      "li": 2891,
      "##un": 2892,
      "##ree": 2893,
      "##ould": 2894,
      "##tions": 2895,
      "##fer": 2896,
      "co": 2897,
      "##duc": 2898,
      "##iz": 2899,
      "##arter": 2900,
      "will": 2901,
      "##form": 2902,
      "any": 2903,
      "##ange": 2904,
      "under": 2905,
      "##ating": 2906,
      "##red": 2907,
      "##ow": 2908,
      "##old": 2909,
      "##ors": 2910,
      "sub": 2911,
      "##ased": 2912,
      "its": 2913,
      "income": 2914,
      "##ven": 2915,
      "##su": 2916,
      "##ign": 2917,
      "ab": 2918,
      "secur": 2919,
      "resul": 2920,
      "##ates": 2921,
      "pur": 2922,
      "quarter": 2923,
      "cl": 2924,
      "--": 2925,
      "cas": 2926,
      "december": 2927,
      "##iness": 2928,
      "bus": 2929,
      "##ip": 2930,
      "go": 2931,
      "business": 2932,
      "##erv": 2933,
      "produc": 2934,
      "gro": 2935,
      "##dition": 2936,
      "val": 2937,
      "end": 2938,
      "imp": 2939,
      "rel": 2940,
      "man": 2941,
      "int": 2942,
      "tax": 2943,
      "cash": 2944,
      "##ank": 2945,
      "##ted": 2946,
      "new": 2947,
      "##urr": 2948,
      "invest": 2949,
      "prov": 2950,
      "you": 2951,
      "##ility": 2952,
      "so": 2953,
      "##--------": 2954,
      "##oss": 2955,
      "##all": 2956,
      "equ": 2957,
      "up": 2958,
      "##ings": 2959,
      "term": 2960,
      "pre": 2961,
      "sp": 2962,
      "sal": 2963,
      "me": 2964,
      "statements": 2965,
      "share": 2966,
      "cap": 2967,
      "##ese": 2968,
      "##ice": 2969,
      "##ty": 2970,
      "incre": 2971,
      "securities": 2972,
      "market": 2973,
      "mor": 2974,
      "##==": 2975,
      "such": 2976,
      "##ke": 2977,
      "##pr": 2978,
      "act": 2979,
      "interest": 2980,
      "##gh": 2981,
      "serv": 2982,
      "##ents": 2983,
      "##ll": 2984,
      "if": 2985,
      "curr": 2986,
      "has": 2987,
      "op": 2988,
      "ass": 2989,
      "##air": 2990,
      "cons": 2991,
      "loss": 2992,
      "sa": 2993,
      "##sets": 2994,
      "##ail": 2995,
      "bo": 2996,
      "##ong": 2997,
      "assets": 2998,
      "these": 2999,
      "report": 3000,
      "##ence": 3001,
      "requ": 3002,
      "mat": 3003,
      "over": 3004,
      "all": 3005,
      "##tal": 3006,
      "##og": 3007,
      "agree": 3008,
      "##ial": 3009,
      "appro": 3010,
      "##ual": 3011,
      "##ous": 3012,
      "##ine": 3013,
      "eff": 3014,
      "reven": 3015,
      "total": 3016,
      "##ef": 3017,
      "shares": 3018,
      "##ord": 3019,
      "form": 3020,
      "value": 3021,
      "po": 3022,
      "##ital": 3023,
      "cor": 3024,
      "accoun": 3025,
      "##........": 3026,
      "mon": 3027,
      "non": 3028,
      "##ices": 3029,
      "##its": 3030,
      "##our": 3031,
      "##ang": 3032,
      "##ok": 3033,
      "tim": 3034,
      "pay": 3035,
      "gen": 3036,
      "##ertain": 3037,
      "##ose": 3038,
      "exch": 3039,
      "trans": 3040,
      "common": 3041,
      "operations": 3042,
      "##ru": 3043,
      "operating": 3044,
      "were": 3045,
      "ear": 3046,
      "##lid": 3047,
      "##ag": 3048,
      "fil": 3049,
      "cont": 3050,
      "##ific": 3051,
      "##tic": 3052,
      "there": 3053,
      "##iod": 3054,
      "ob": 3055,
      "exchange": 3056,
      "##ective": 3057,
      "ended": 3058,
      "provid": 3059,
      "period": 3060,
      "##uring": 3061,
      "disc": 3062,
      "fe": 3063,
      "##istr": 3064,
      "##irect": 3065,
      "gener": 3066,
      "##cent": 3067,
      "ma": 3068,
      "addition": 3069,
      "##ward": 3070,
      "##ures": 3071,
      "str": 3072,
      "##ast": 3073,
      "capital": 3074,
      "contin": 3075,
      "current": 3076,
      "##cip": 3077,
      "##und": 3078,
      "related": 3079,
      "bank": 3080,
      "##ited": 3081,
      "##pt": 3082,
      "##out": 3083,
      "results": 3084,
      "##ative": 3085,
      "##lic": 3086,
      "direct": 3087,
      "including": 3088,
      "offic": 3089,
      "##ach": 3090,
      "##____": 3091,
      "##ond": 3092,
      "##ized": 3093,
      "##op": 3094,
      "percent": 3095,
      "based": 3096,
      "amoun": 3097,
      "manage": 3098,
      "agreement": 3099,
      "fir": 3100,
      "##tiv": 3101,
      "##ected": 3102,
      "acqu": 3103,
      "ris": 3104,
      "more": 3105,
      "##ties": 3106,
      "##ia": 3107,
      "ev": 3108,
      "##solid": 3109,
      "part": 3110,
      "##enti": 3111,
      "also": 3112,
      "resp": 3113,
      "##ive": 3114,
      "sign": 3115,
      "sales": 3116,
      "can": 3117,
      "could": 3118,
      "##tim": 3119,
      "##ior": 3120,
      "do": 3121,
      "grow": 3122,
      "##ters": 3123,
      "##ense": 3124,
      "##ory": 3125,
      "cos": 3126,
      "time": 3127,
      "consolid": 3128,
      "cust": 3129,
      "es": 3130,
      "issu": 3131,
      "ann": 3132,
      "##ilities": 3133,
      "custom": 3134,
      "but": 3135,
      "mo": 3136,
      "certain": 3137,
      "costs": 3138,
      "##ces": 3139,
      "##ire": 3140,
      "##hold": 3141,
      "contr": 3142,
      "high": 3143,
      "liab": 3144,
      "date": 3145,
      "##gr": 3146,
      "management": 3147,
      "cred": 3148,
      "fut": 3149,
      "rate": 3150,
      "pres": 3151,
      "##oll": 3152,
      "##formation": 3153,
      "ga": 3154,
      "fol": 3155,
      "he": 3156,
      "##velo": 3157,
      "##if": 3158,
      "information": 3159,
      "risk": 3160,
      "follow": 3161,
      "##velop": 3162,
      "##bt": 3163,
      "##ell": 3164,
      "##ee": 3165,
      "than": 3166,
      "plan": 3167,
      "##ie": 3168,
      "##rou": 3169,
      "##ot": 3170,
      "consolidated": 3171,
      "##loy": 3172,
      "month": 3173,
      "develop": 3174,
      "##aw": 3175,
      "revenue": 3176,
      "ben": 3177,
      "pursu": 3178,
      "credit": 3179,
      "equity": 3180,
      "di": 3181,
      "##ex": 3182,
      "##pos": 3183,
      "##erg": 3184,
      "years": 3185,
      "regul": 3186,
      "adv": 3187,
      "bas": 3188,
      "been": 3189,
      "would": 3190,
      "registr": 3191,
      "##ork": 3192,
      "item": 3193,
      "exec": 3194,
      "pursuant": 3195,
      "##rough": 3196,
      "mater": 3197,
      "future": 3198,
      "##iss": 3199,
      "##ately": 3200,
      "adj": 3201,
      "##cess": 3202,
      "gaap": 3203,
      "emp": 3204,
      "##ack": 3205,
      "##ues": 3206,
      "##wn": 3207,
      "##ical": 3208,
      "perform": 3209,
      "fair": 3210,
      "##ision": 3211,
      "during": 3212,
      "##uts": 3213,
      "earn": 3214,
      "one": 3215,
      "see": 3216,
      "num": 3217,
      "look": 3218,
      "first": 3219,
      "##ied": 3220,
      "products": 3221,
      "pa": 3222,
      "growth": 3223,
      "##cal": 3224,
      "##are": 3225,
      "##ired": 3226,
      "##hn": 3227,
      "af": 3228,
      "##ight": 3229,
      "##ry": 3230,
      "through": 3231,
      "employ": 3232,
      "services": 3233,
      "##enses": 3234,
      "adjust": 3235,
      "corpor": 3236,
      "about": 3237,
      "##ort": 3238,
      "##au": 3239,
      "proper": 3240,
      "red": 3241,
      "debt": 3242,
      "gu": 3243,
      "into": 3244,
      "due": 3245,
      "##ferred": 3246,
      "##ject": 3247,
      "marke": 3248,
      "purch": 3249,
      "their": 3250,
      "rest": 3251,
      "##verage": 3252,
      "repor": 3253,
      "##ist": 3254,
      "##lig": 3255,
      "execu": 3256,
      "price": 3257,
      "expense": 3258,
      "rece": 3259,
      "##hib": 3260,
      "##xim": 3261,
      "##ined": 3262,
      "au": 3263,
      "##ame": 3264,
      "##ise": 3265,
      "trad": 3266,
      "##cy": 3267,
      "estim": 3268,
      "aff": 3269,
      "well": 3270,
      "des": 3271,
      "ar": 3272,
      "expenses": 3273,
      "cost": 3274,
      "chang": 3275,
      "##gin": 3276,
      "##eth": 3277,
      "##ric": 3278,
      "said": 3279,
      "av": 3280,
      "compar": 3281,
      "br": 3282,
      "increase": 3283,
      "ins": 3284,
      "contro": 3285,
      "own": 3286,
      "##ass": 3287,
      "out": 3288,
      "##ub": 3289,
      "det": 3290,
      "fund": 3291,
      "##uters": 3292,
      "##hip": 3293,
      "number": 3294,
      "notes": 3295,
      "##trib": 3296,
      "##own": 3297,
      "rem": 3298,
      "##ink": 3299,
      "##``": 3300,
      "oc": 3301,
      "##day": 3302,
      "intern": 3303,
      "some": 3304,
      "##con": 3305,
      "##arg": 3306,
      "##urn": 3307,
      "exhib": 3308,
      "after": 3309,
      "##ix": 3310,
      "signific": 3311,
      "##isition": 3312,
      "accounting": 3313,
      "acquisition": 3314,
      "significant": 3315,
      "##ious": 3316,
      "subs": 3317,
      "def": 3318,
      "investment": 3319,
      "gr": 3320,
      "sy": 3321,
      "forward": 3322,
      "earnings": 3323,
      "fac": 3324,
      "div": 3325,
      "##holders": 3326,
      "##vel": 3327,
      "##====": 3328,
      "\")": 3329,
      "each": 3330,
      "liabilities": 3331,
      "##up": 3332,
      "spec": 3333,
      "following": 3334,
      "hold": 3335,
      "fis": 3336,
      "bal": 3337,
      "eur": 3338,
      "benef": 3339,
      "require": 3340,
      "executive": 3341,
      "##ants": 3342,
      "approxim": 3343,
      "##itt": 3344,
      "amount": 3345,
      "compens": 3346,
      "activ": 3347,
      "##ace": 3348,
      "dr": 3349,
      "##olog": 3350,
      "tec": 3351,
      "outs": 3352,
      "condition": 3353,
      "##ite": 3354,
      "##anding": 3355,
      "##ily": 3356,
      "tw": 3357,
      "material": 3358,
      "fiscal": 3359,
      "##da": 3360,
      "rev": 3361,
      "those": 3362,
      "##ced": 3363,
      "prin": 3364,
      "lim": 3365,
      "##ey": 3366,
      "oblig": 3367,
      "##ission": 3368,
      "##ish": 3369,
      "el": 3370,
      "additional": 3371,
      "registrant": 3372,
      "ret": 3373,
      "control": 3374,
      "impact": 3375,
      "##ata": 3376,
      "transac": 3377,
      ",\"": 3378,
      "loans": 3379,
      "##----------------": 3380,
      "low": 3381,
      "compensation": 3382,
      "reuters": 3383,
      "##cr": 3384,
      "approximately": 3385,
      "bec": 3386,
      "performance": 3387,
      "result": 3388,
      "long": 3389,
      "subject": 3390,
      "##eral": 3391,
      "##eld": 3392,
      "basis": 3393,
      "rep": 3394,
      "##ss": 3395,
      "diff": 3396,
      "loan": 3397,
      "##ection": 3398,
      "flow": 3399,
      "##ational": 3400,
      "##ended": 3401,
      "prim": 3402,
      "jun": 3403,
      "princip": 3404,
      "##tit": 3405,
      "fact": 3406,
      "real": 3407,
      "partn": 3408,
      "techn": 3409,
      "##ference": 3410,
      "had": 3411,
      "product": 3412,
      "thir": 3413,
      "meas": 3414,
      "ph": 3415,
      "good": 3416,
      "##ases": 3417,
      "##ause": 3418,
      "changes": 3419,
      "think": 3420,
      "avail": 3421,
      "section": 3422,
      "data": 3423,
      "##les": 3424,
      "##ak": 3425,
      "off": 3426,
      "ll": 3427,
      "prof": 3428,
      "gain": 3429,
      "board": 3430,
      "looking": 3431,
      "third": 3432,
      "##ible": 3433,
      "directors": 3434,
      "car": 3435,
      "##**": 3436,
      "prior": 3437,
      "record": 3438,
      "march": 3439,
      "ref": 3440,
      "customers": 3441,
      "##ects": 3442,
      "annual": 3443,
      "continu": 3444,
      "development": 3445,
      "pos": 3446,
      "they": 3447,
      "average": 3448,
      "expect": 3449,
      "##av": 3450,
      "bet": 3451,
      "level": 3452,
      "##ency": 3453,
      "id": 3454,
      "bu": 3455,
      "reporting": 3456,
      "##lease": 3457,
      "june": 3458,
      "##ule": 3459,
      "##idi": 3460,
      "##ide": 3461,
      "markets": 3462,
      "progr": 3463,
      "incor": 3464,
      "##int": 3465,
      "##ution": 3466,
      "mr": 3467,
      "),": 3468,
      "applic": 3469,
      "receiv": 3470,
      "##ning": 3471,
      "##urance": 3472,
      "use": 3473,
      "##ile": 3474,
      "when": 3475,
      "jo": 3476,
      "rates": 3477,
      "indust": 3478,
      "beli": 3479,
      "pub": 3480,
      "incorpor": 3481,
      "subsidi": 3482,
      "##ys": 3483,
      "##ticip": 3484,
      "##ified": 3485,
      "##ogn": 3486,
      ").": 3487,
      "officer": 3488,
      "balance": 3489,
      "##ential": 3490,
      "est": 3491,
      "##ade": 3492,
      "expected": 3493,
      "set": 3494,
      "months": 3495,
      "issued": 3496,
      "general": 3497,
      "##uly": 3498,
      "##par": 3499,
      "main": 3500,
      "second": 3501,
      "day": 3502,
      "here": 3503,
      "exhibit": 3504,
      "sept": 3505,
      "note": 3506,
      "outst": 3507,
      "##one": 3508,
      "##ceed": 3509,
      "##fo": 3510,
      "required": 3511,
      "outstanding": 3512,
      "##ership": 3513,
      "min": 3514,
      "##ectively": 3515,
      "compared": 3516,
      "how": 3517,
      "increased": 3518,
      "supp": 3519,
      "##ateg": 3520,
      "terms": 3521,
      "##to": 3522,
      "##ination": 3523,
      "news": 3524,
      "##uct": 3525,
      "add": 3526,
      "last": 3527,
      "filed": 3528,
      "belie": 3529,
      "##ep": 3530,
      "im": 3531,
      "available": 3532,
      "losses": 3533,
      "revenues": 3534,
      "##we": 3535,
      "##erse": 3536,
      "offer": 3537,
      "distrib": 3538,
      "##ons": 3539,
      "##arily": 3540,
      "change": 3541,
      "property": 3542,
      "just": 3543,
      "##uted": 3544,
      "##member": 3545,
      "continue": 3546,
      "law": 3547,
      "table": 3548,
      "##________": 3549,
      "econ": 3550,
      "what": 3551,
      "##lement": 3552,
      "purchase": 3553,
      "recogn": 3554,
      "ve": 3555,
      "inst": 3556,
      "econom": 3557,
      "billion": 3558,
      "technolog": 3559,
      "))": 3560,
      "top": 3561,
      "september": 3562,
      "ra": 3563,
      "##reat": 3564,
      "enter": 3565,
      "determ": 3566,
      "##arge": 3567,
      "three": 3568,
      "ful": 3569,
      "public": 3570,
      "ro": 3571,
      "like": 3572,
      "states": 3573,
      "var": 3574,
      "commer": 3575,
      "##cing": 3576,
      "sale": 3577,
      "activities": 3578,
      "jan": 3579,
      "##stem": 3580,
      "##olic": 3581,
      "gover": 3582,
      "differ": 3583,
      "ii": 3584,
      "em": 3585,
      "upon": 3586,
      "##min": 3587,
      "##................": 3588,
      "provision": 3589,
      "##ved": 3590,
      "index": 3591,
      "##ief": 3592,
      "vol": 3593,
      "statement": 3594,
      "four": 3595,
      "##ian": 3596,
      "service": 3597,
      "##ery": 3598,
      "ext": 3599,
      "down": 3600,
      "##fr": 3601,
      "cr": 3602,
      "##ability": 3603,
      "included": 3604,
      "commission": 3605,
      "##ress": 3606,
      "##ands": 3607,
      "system": 3608,
      "adjusted": 3609,
      "united": 3610,
      "ability": 3611,
      "##fore": 3612,
      "##ident": 3613,
      "call": 3614,
      "seg": 3615,
      "corporation": 3616,
      "work": 3617,
      "te": 3618,
      "used": 3619,
      "##hh": 3620,
      "decre": 3621,
      "##tiz": 3622,
      "sell": 3623,
      "##ends": 3624,
      "factors": 3625,
      "fed": 3626,
      "asset": 3627,
      "##utions": 3628,
      "##ances": 3629,
      "program": 3630,
      "group": 3631,
      "present": 3632,
      "fore": 3633,
      "accord": 3634,
      "rule": 3635,
      "##iew": 3636,
      "consid": 3637,
      "class": 3638,
      "chief": 3639,
      "(\"": 3640,
      "##ason": 3641,
      "margin": 3642,
      "govern": 3643,
      "primarily": 3644,
      "divid": 3645,
      "##gan": 3646,
      "commercial": 3647,
      "include": 3648,
      "pers": 3649,
      "investments": 3650,
      "effective": 3651,
      "two": 3652,
      "remain": 3653,
      "requirements": 3654,
      "compan": 3655,
      "##thor": 3656,
      "principal": 3657,
      "##ortiz": 3658,
      "ques": 3659,
      ".,": 3660,
      "assum": 3661,
      "##los": 3662,
      "sim": 3663,
      "##ind": 3664,
      "now": 3665,
      "companies": 3666,
      "##ving": 3667,
      "##ful": 3668,
      "coun": 3669,
      "nor": 3670,
      "##row": 3671,
      "##aries": 3672,
      "coll": 3673,
      "allow": 3674,
      "##ees": 3675,
      "taxes": 3676,
      "commun": 3677,
      "loc": 3678,
      "##ult": 3679,
      "exc": 3680,
      "##iation": 3681,
      "amounts": 3682,
      "##uary": 3683,
      "provide": 3684,
      "##ope": 3685,
      "<.": 3686,
      "aud": 3687,
      "##%%": 3688,
      "qual": 3689,
      "impro": 3690,
      "january": 3691,
      "##atory": 3692,
      "again": 3693,
      "##very": 3694,
      "war": 3695,
      "##als": 3696,
      "contract": 3697,
      "med": 3698,
      "below": 3699,
      "deferred": 3700,
      "##uction": 3701,
      "comb": 3702,
      "##soci": 3703,
      "stand": 3704,
      "consider": 3705,
      "amortiz": 3706,
      "made": 3707,
      "##ble": 3708,
      "##xt": 3709,
      "##fe": 3710,
      "reference": 3711,
      "##ween": 3712,
      "author": 3713,
      "##tis": 3714,
      "adverse": 3715,
      "associ": 3716,
      "between": 3717,
      "higher": 3718,
      "##uss": 3719,
      "less": 3720,
      "##ollar": 3721,
      "position": 3722,
      "strateg": 3723,
      "mod": 3724,
      "reported": 3725,
      "effect": 3726,
      "dem": 3727,
      "ord": 3728,
      "repr": 3729,
      "compe": 3730,
      "cal": 3731,
      "federal": 3732,
      "##ether": 3733,
      "indic": 3734,
      "kn": 3735,
      "initi": 3736,
      "dollar": 3737,
      "prev": 3738,
      "bro": 3739,
      "within": 3740,
      "gas": 3741,
      "port": 3742,
      "##uf": 3743,
      "impair": 3744,
      "##aim": 3745,
      "your": 3746,
      "thank": 3747,
      "pot": 3748,
      "##erc": 3749,
      "repres": 3750,
      "provided": 3751,
      "lease": 3752,
      "dil": 3753,
      "where": 3754,
      "anal": 3755,
      "back": 3756,
      "foreign": 3757,
      "respectively": 3758,
      "because": 3759,
      "prices": 3760,
      "companys": 3761,
      "incorporated": 3762,
      "##ergy": 3763,
      "release": 3764,
      "##(\"": 3765,
      "going": 3766,
      "disclos": 3767,
      "very": 3768,
      "##ator": 3769,
      "then": 3770,
      "consum": 3771,
      "process": 3772,
      "##ft": 3773,
      "profit": 3774,
      "##king": 3775,
      "lower": 3776,
      "##foli": 3777,
      "clos": 3778,
      "proceed": 3779,
      "##til": 3780,
      "eb": 3781,
      "risks": 3782,
      "bor": 3783,
      "sen": 3784,
      "benefit": 3785,
      "acce": 3786,
      "president": 3787,
      "sm": 3788,
      "refl": 3789,
      "fl": 3790,
      "##ph": 3791,
      "##alth": 3792,
      "##dd": 3793,
      "customer": 3794,
      "sin": 3795,
      "restric": 3796,
      "portfoli": 3797,
      "press": 3798,
      "paid": 3799,
      "believe": 3800,
      "##acts": 3801,
      "##alu": 3802,
      "energy": 3803,
      "stockholders": 3804,
      "shall": 3805,
      "sch": 3806,
      "exper": 3807,
      "decl": 3808,
      "##let": 3809,
      "##tives": 3810,
      "claim": 3811,
      "next": 3812,
      "conditions": 3813,
      "line": 3814,
      "facility": 3815,
      "##isting": 3816,
      "polic": 3817,
      "options": 3818,
      "limited": 3819,
      "standard": 3820,
      "##ights": 3821,
      "##ipment": 3822,
      "enti": 3823,
      "##bs": 3824,
      "##ufact": 3825,
      "since": 3826,
      "make": 3827,
      "subsidiaries": 3828,
      "insurance": 3829,
      "manufact": 3830,
      "##alf": 3831,
      "generally": 3832,
      "fur": 3833,
      "borrow": 3834,
      "mu": 3835,
      "fees": 3836,
      "senior": 3837,
      "obligations": 3838,
      "europe": 3839,
      "strong": 3840,
      "##ick": 3841,
      "further": 3842,
      "warr": 3843,
      "feb": 3844,
      "wor": 3845,
      "##lob": 3846,
      "before": 3847,
      "accounts": 3848,
      "ser": 3849,
      "economic": 3850,
      "oil": 3851,
      "##ough": 3852,
      "both": 3853,
      "##pl": 3854,
      "applicable": 3855,
      "internal": 3856,
      "pe": 3857,
      "wr": 3858,
      "portfolio": 3859,
      "##man": 3860,
      "##iting": 3861,
      "##iate": 3862,
      "##eric": 3863,
      "grant": 3864,
      "recorded": 3865,
      "regard": 3866,
      "unc": 3867,
      "discuss": 3868,
      "##ines": 3869,
      "##go": 3870,
      "glob": 3871,
      "admin": 3872,
      "##ize": 3873,
      "corporate": 3874,
      "industry": 3875,
      "question": 3876,
      "most": 3877,
      "segment": 3878,
      "equipment": 3879,
      "conn": 3880,
      "flows": 3881,
      "plans": 3882,
      "gross": 3883,
      "nat": 3884,
      "payments": 3885,
      "deli": 3886,
      "party": 3887,
      "dep": 3888,
      "##`@": 3889,
      "##ound": 3890,
      "while": 3891,
      "##ore": 3892,
      "cent": 3893,
      "investors": 3894,
      "apr": 3895,
      "sup": 3896,
      "depos": 3897,
      "trust": 3898,
      "sw": 3899,
      "only": 3900,
      "transactions": 3901,
      "should": 3902,
      "regulatory": 3903,
      "government": 3904,
      "exce": 3905,
      "guid": 3906,
      "descr": 3907,
      "##ek": 3908,
      "ty": 3909,
      "technology": 3910,
      "ca": 3911,
      "rights": 3912,
      "key": 3913,
      "health": 3914,
      "occ": 3915,
      "leg": 3916,
      "return": 3917,
      "dated": 3918,
      "del": 3919,
      "##ption": 3920,
      "suc": 3921,
      "full": 3922,
      "fourth": 3923,
      "cod": 3924,
      "##ending": 3925,
      "april": 3926,
      "contain": 3927,
      "($": 3928,
      "award": 3929,
      "##led": 3930,
      "##reg": 3931,
      "agreements": 3932,
      "##ization": 3933,
      "pat": 3934,
      "exerc": 3935,
      "##mm": 3936,
      "communic": 3937,
      "der": 3938,
      "same": 3939,
      "##tg": 3940,
      "##ptions": 3941,
      "##sp": 3942,
      "##))": 3943,
      "reason": 3944,
      "estimated": 3945,
      "potential": 3946,
      "continued": 3947,
      "amended": 3948,
      "transaction": 3949,
      "##ruary": 3950,
      "thous": 3951,
      "amortization": 3952,
      "february": 3953,
      "##str": 3954,
      "right": 3955,
      "design": 3956,
      "complet": 3957,
      "americ": 3958,
      "##anti": 3959,
      "administr": 3960,
      "july": 3961,
      "##iven": 3962,
      "held": 3963,
      "evalu": 3964,
      "lead": 3965,
      "##lish": 3966,
      "##bb": 3967,
      "shareholders": 3968,
      "whether": 3969,
      "ebit": 3970,
      "production": 3971,
      "##^^": 3972,
      "liability": 3973,
      "##quid": 3974,
      "need": 3975,
      "financing": 3976,
      "identi": 3977,
      "success": 3978,
      "aug": 3979,
      "offs": 3980,
      "##fy": 3981,
      "##ints": 3982,
      "employees": 3983,
      "associated": 3984,
      "demand": 3985,
      "##earch": 3986,
      "##portun": 3987,
      "my": 3988,
      "units": 3989,
      "opportun": 3990,
      "uncertain": 3991,
      "global": 3992,
      "experi": 3993,
      "filing": 3994,
      "liquid": 3995,
      "lic": 3996,
      "##ured": 3997,
      "pow": 3998,
      "deriv": 3999,
      "elect": 4000,
      "subst": 4001,
      "currency": 4002,
      "previous": 4003,
      "person": 4004,
      "conc": 4005,
      "diluted": 4006,
      "director": 4007,
      "##esting": 4008,
      "option": 4009,
      "who": 4010,
      "sc": 4011,
      "##ild": 4012,
      "impairment": 4013,
      "against": 4014,
      "##ially": 4015,
      "name": 4016,
      "contracts": 4017,
      "##tober": 4018,
      "volum": 4019,
      "being": 4020,
      "##ici": 4021,
      "##ps": 4022,
      "##ute": 4023,
      "env": 4024,
      "october": 4025,
      "preferred": 4026,
      "##endent": 4027,
      "payment": 4028,
      "recognized": 4029,
      "##ield": 4030,
      "does": 4031,
      "maintain": 4032,
      "##ove": 4033,
      "##loc": 4034,
      "):": 4035,
      "benefits": 4036,
      "##ised": 4037,
      "estate": 4038,
      "##iron": 4039,
      "funds": 4040,
      "estimates": 4041,
      "great": 4042,
      "event": 4043,
      "llc": 4044,
      "##val": 4045,
      "properties": 4046,
      "points": 4047,
      "events": 4048,
      "respect": 4049,
      "environ": 4050,
      "exclud": 4051,
      "##tern": 4052,
      "##ensive": 4053,
      "includes": 4054,
      "affect": 4055,
      "##ister": 4056,
      "ebitda": 4057,
      "##ival": 4058,
      "officers": 4059,
      "##ark": 4060,
      "##arm": 4061,
      "improve": 4062,
      "mc": 4063,
      "competi": 4064,
      "announ": 4065,
      "%,": 4066,
      "committ": 4067,
      "bl": 4068,
      "cour": 4069,
      "##`\"": 4070,
      "##eng": 4071,
      "contents": 4072,
      "##ton": 4073,
      "##co": 4074,
      "##ural": 4075,
      "##her": 4076,
      "##ular": 4077,
      "thousands": 4078,
      "proj": 4079,
      "priv": 4080,
      "manag": 4081,
      "hist": 4082,
      "research": 4083,
      "##eck": 4084,
      "incur": 4085,
      "above": 4086,
      "currently": 4087,
      "relations": 4088,
      "environment": 4089,
      "particip": 4090,
      "laws": 4091,
      "accordance": 4092,
      "partnership": 4093,
      "defined": 4094,
      "##ium": 4095,
      "sol": 4096,
      "decrease": 4097,
      "valu": 4098,
      "##over": 4099,
      "##ocus": 4100,
      "mortg": 4101,
      "code": 4102,
      "##ew": 4103,
      "week": 4104,
      "power": 4105,
      "provisions": 4106,
      "##ves": 4107,
      "##ulated": 4108,
      "carry": 4109,
      "international": 4110,
      "met": 4111,
      "att": 4112,
      "por": 4113,
      "focus": 4114,
      "begin": 4115,
      "##vem": 4116,
      "existing": 4117,
      "##io": 4118,
      "star": 4119,
      "maj": 4120,
      "analys": 4121,
      "novem": 4122,
      "amend": 4123,
      "november": 4124,
      "##ral": 4125,
      "eng": 4126,
      "conver": 4127,
      "acquired": 4128,
      "connection": 4129,
      "among": 4130,
      "la": 4131,
      "obtain": 4132,
      "regarding": 4133,
      "##========": 4134,
      "communications": 4135,
      "obligation": 4136,
      "august": 4137,
      "support": 4138,
      "fo": 4139,
      "periods": 4140,
      "payable": 4141,
      "audit": 4142,
      "charg": 4143,
      "##ests": 4144,
      "operator": 4145,
      "depr": 4146,
      "merg": 4147,
      "fix": 4148,
      "indep": 4149,
      "weigh": 4150,
      "actual": 4151,
      "measures": 4152,
      "anticip": 4153,
      "recent": 4154,
      "##he": 4155,
      "claims": 4156,
      "measure": 4157,
      "owned": 4158,
      "guidance": 4159,
      "##ays": 4160,
      "##liance": 4161,
      "address": 4162,
      "##ater": 4163,
      "##eciation": 4164,
      "gains": 4165,
      "meth": 4166,
      "typ": 4167,
      "((": 4168,
      "major": 4169,
      "sever": 4170,
      "##ina": 4171,
      "committee": 4172,
      "distribution": 4173,
      "cfr": 4174,
      "using": 4175,
      "review": 4176,
      "bond": 4177,
      "instru": 4178,
      "_p": 4179,
      "today": 4180,
      "summ": 4181,
      "substanti": 4182,
      "trading": 4183,
      "##vers": 4184,
      "regulations": 4185,
      "firm": 4186,
      "short": 4187,
      "##ension": 4188,
      "file": 4189,
      "##mit": 4190,
      "ms": 4191,
      "commit": 4192,
      "equival": 4193,
      "specific": 4194,
      "ed": 4195,
      "ge": 4196,
      "##ever": 4197,
      "##ession": 4198,
      "##itive": 4199,
      "rati": 4200,
      "##`!": 4201,
      "check": 4202,
      "marketing": 4203,
      "##ically": 4204,
      "##ilar": 4205,
      "method": 4206,
      "contrib": 4207,
      "##icing": 4208,
      "##inical": 4209,
      "##ler": 4210,
      "##cies": 4211,
      "##te": 4212,
      "mi": 4213,
      "organ": 4214,
      "##ually": 4215,
      "she": 4216,
      "##ili": 4217,
      "ir": 4218,
      "security": 4219,
      "similar": 4220,
      "##greg": 4221,
      "invent": 4222,
      "##work": 4223,
      "systems": 4224,
      "mid": 4225,
      "##pa": 4226,
      "order": 4227,
      "various": 4228,
      "##son": 4229,
      "get": 4230,
      "world": 4231,
      "take": 4232,
      "account": 4233,
      "except": 4234,
      "mul": 4235,
      "mortgage": 4236,
      "##ablish": 4237,
      "mean": 4238,
      "##angible": 4239,
      "received": 4240,
      "arr": 4241,
      "establish": 4242,
      "sold": 4243,
      "aggreg": 4244,
      "resour": 4245,
      "##ages": 4246,
      "retail": 4247,
      "proceeds": 4248,
      "tre": 4249,
      "sett": 4250,
      "mm": 4251,
      "reduc": 4252,
      "##encies": 4253,
      "weighted": 4254,
      "##uce": 4255,
      "cli": 4256,
      "##asing": 4257,
      "stocks": 4258,
      "administrative": 4259,
      "earli": 4260,
      "facilities": 4261,
      "ok": 4262,
      "assess": 4263,
      "reports": 4264,
      "open": 4265,
      "conf": 4266,
      "standards": 4267,
      "fail": 4268,
      "=>": 4269,
      "sur": 4270,
      "m_": 4271,
      "histor": 4272,
      "unit": 4273,
      "able": 4274,
      "##ention": 4275,
      "fixed": 4276,
      "hel": 4277,
      "build": 4278,
      "assumptions": 4279,
      "independent": 4280,
      "dividends": 4281,
      "deal": 4282,
      "offset": 4283,
      "limit": 4284,
      "many": 4285,
      "restricted": 4286,
      "##ably": 4287,
      "##ware": 4288,
      "merger": 4289,
      "know": 4290,
      "depreciation": 4291,
      "##itig": 4292,
      "%.": 4293,
      "##egr": 4294,
      "really": 4295,
      ".\"": 4296,
      "##dic": 4297,
      "##round": 4298,
      "large": 4299,
      "sti": 4300,
      "inf": 4301,
      "them": 4302,
      "initial": 4303,
      "##istered": 4304,
      "##atives": 4305,
      "constr": 4306,
      "however": 4307,
      "ht": 4308,
      "turn": 4309,
      "##po": 4310,
      "portion": 4311,
      "offering": 4312,
      "clinical": 4313,
      "attrib": 4314,
      "represent": 4315,
      "base": 4316,
      "parties": 4317,
      "tal": 4318,
      "##quent": 4319,
      "natural": 4320,
      "accru": 4321,
      "trade": 4322,
      "##omes": 4323,
      "##tical": 4324,
      "integr": 4325,
      "days": 4326,
      "ww": 4327,
      "materially": 4328,
      "beh": 4329,
      "##tible": 4330,
      "industr": 4331,
      "mee": 4332,
      "adop": 4333,
      "##ness": 4334,
      "##omp": 4335,
      "##arant": 4336,
      "combination": 4337,
      "##wise": 4338,
      "sched": 4339,
      "aggregate": 4340,
      "stor": 4341,
      "prem": 4342,
      "##aud": 4343,
      "series": 4344,
      "duly": 4345,
      "issuance": 4346,
      "determined": 4347,
      "ach": 4348,
      "life": 4349,
      "did": 4350,
      "ste": 4351,
      "buy": 4352,
      "guarant": 4353,
      "private": 4354,
      "former": 4355,
      "---------": 4356,
      ")(": 4357,
      "quarterly": 4358,
      "acquisitions": 4359,
      "##(\"`@": 4360,
      "prot": 4361,
      "approval": 4362,
      "let": 4363,
      "##ross": 4364,
      "appropr": 4365,
      "ce": 4366,
      "consumer": 4367,
      "provides": 4368,
      "authorized": 4369,
      "vari": 4370,
      "otherwise": 4371,
      "adjustments": 4372,
      "reserv": 4373,
      "##ules": 4374,
      "lt": 4375,
      "yes": 4376,
      "doc": 4377,
      "##ecess": 4378,
      "deliver": 4379,
      "achie": 4380,
      "##--------------------------------": 4381,
      "upd": 4382,
      "items": 4383,
      "incen": 4384,
      "employee": 4385,
      "##ables": 4386,
      "satis": 4387,
      "##holder": 4388,
      "hed": 4389,
      "levels": 4390,
      "##less": 4391,
      "instruments": 4392,
      "herein": 4393,
      "closing": 4394,
      "dou": 4395,
      "##ety": 4396,
      "businesses": 4397,
      "sour": 4398,
      "without": 4399,
      "cer": 4400,
      "calc": 4401,
      "##reh": 4402,
      "##will": 4403,
      "allowance": 4404,
      "place": 4405,
      "disclosure": 4406,
      "forth": 4407,
      "##rehensive": 4408,
      "entered": 4409,
      "##poses": 4410,
      "post": 4411,
      "##ah": 4412,
      "##lation": 4413,
      "##tili": 4414,
      "##ier": 4415,
      "range": 4416,
      "cause": 4417,
      "sheet": 4418,
      "##anc": 4419,
      "accrued": 4420,
      "adversely": 4421,
      "discoun": 4422,
      "##urch": 4423,
      "point": 4424,
      "##lying": 4425,
      "purposes": 4426,
      "targ": 4427,
      "goodwill": 4428,
      "beginning": 4429,
      "invol": 4430,
      "meeting": 4431,
      "vice": 4432,
      "pati": 4433,
      "vo": 4434,
      "resources": 4435,
      "partic": 4436,
      "matur": 4437,
      "cy": 4438,
      "##utable": 4439,
      "mw": 4440,
      "##be": 4441,
      "subsidiary": 4442,
      "comprehensive": 4443,
      "##_p": 4444,
      "mk": 4445,
      "area": 4446,
      "legal": 4447,
      "european": 4448,
      "target": 4449,
      "##nel": 4450,
      "experience": 4451,
      "charges": 4452,
      "much": 4453,
      "volume": 4454,
      "##ker": 4455,
      "partners": 4456,
      "multi": 4457,
      "##tics": 4458,
      "neg": 4459,
      "appropriate": 4460,
      "particular": 4461,
      "until": 4462,
      "tele": 4463,
      "##ences": 4464,
      "arrange": 4465,
      "instit": 4466,
      "cre": 4467,
      "sel": 4468,
      "exercise": 4469,
      "##ane": 4470,
      "rent": 4471,
      "close": 4472,
      "docu": 4473,
      "registered": 4474,
      "gm": 4475,
      "##ibed": 4476,
      "cle": 4477,
      "##________________": 4478,
      "china": 4479,
      "special": 4480,
      "continuing": 4481,
      "compon": 4482,
      "##ax": 4483,
      "##bers": 4484,
      "orig": 4485,
      "##````": 4486,
      "litt": 4487,
      ">,": 4488,
      "leases": 4489,
      "emerg": 4490,
      "still": 4491,
      "policies": 4492,
      "proced": 4493,
      "prom": 4494,
      "kind": 4495,
      "repurch": 4496,
      "##read": 4497,
      "little": 4498,
      "percentage": 4499,
      "specified": 4500,
      "say": 4501,
      "incurred": 4502,
      "##iption": 4503,
      "five": 4504,
      "certi": 4505,
      "##urs": 4506,
      "md": 4507,
      "access": 4508,
      "vi": 4509,
      "soft": 4510,
      "previously": 4511,
      "local": 4512,
      "awards": 4513,
      "##ern": 4514,
      "##aging": 4515,
      "##inated": 4516,
      "help": 4517,
      "##uris": 4518,
      "mem": 4519,
      "sou": 4520,
      "ratio": 4521,
      "countr": 4522,
      "cir": 4523,
      "investor": 4524,
      "##ics": 4525,
      "##ict": 4526,
      "equivalents": 4527,
      "north": 4528,
      "comple": 4529,
      "utili": 4530,
      "##ai": 4531,
      "import": 4532,
      "expectations": 4533,
      "mg": 4534,
      "overall": 4535,
      "pricing": 4536,
      "things": 4537,
      "interests": 4538,
      "mv": 4539,
      "holdings": 4540,
      "amendment": 4541,
      "##ification": 4542,
      "warrants": 4543,
      "##(\"`@(\"`@": 4544,
      "##med": 4545,
      "ten": 4546,
      "manufacturing": 4547,
      "attributable": 4548,
      "valuation": 4549,
      "pc": 4550,
      "##ra": 4551,
      "##of": 4552,
      "col": 4553,
      "york": 4554,
      "capac": 4555,
      "don": 4556,
      "bbb": 4557,
      "##ten": 4558,
      "small": 4559,
      "his": 4560,
      "##ining": 4561,
      "supply": 4562,
      "air": 4563,
      "alloc": 4564,
      "##ins": 4565,
      "intangible": 4566,
      "exhibits": 4567,
      "poss": 4568,
      ".)": 4569,
      "circ": 4570,
      "propos": 4571,
      "necess": 4572,
      "early": 4573,
      "##ik": 4574,
      "##ov": 4575,
      "##ender": 4576,
      "##ligh": 4577,
      "around": 4578,
      "relationship": 4579,
      "broad": 4580,
      "##abor": 4581,
      "negative": 4582,
      "juris": 4583,
      "yield": 4584,
      "consist": 4585,
      "half": 4586,
      "##ions": 4587,
      "##ivid": 4588,
      "selling": 4589,
      "jurisdic": 4590,
      "aut": 4591,
      "##ires": 4592,
      "liquidity": 4593,
      "ther": 4594,
      "incentive": 4595,
      "sing": 4596,
      "model": 4597,
      "compliance": 4598,
      "trial": 4599,
      "##ington": 4600,
      "six": 4601,
      "conduc": 4602,
      "finance": 4603,
      "mn": 4604,
      "past": 4605,
      "(#": 4606,
      "forec": 4607,
      "ss": 4608,
      "national": 4609,
      "ren": 4610,
      "free": 4611,
      "receivable": 4612,
      "mx": 4613,
      "##ucture": 4614,
      "every": 4615,
      "##itten": 4616,
      "according": 4617,
      "mt": 4618,
      "##ither": 4619,
      "dividend": 4620,
      "approved": 4621,
      "network": 4622,
      "##ple": 4623,
      "##rug": 4624,
      "individ": 4625,
      "ownership": 4626,
      "##fied": 4627,
      "expend": 4628,
      "america": 4629,
      "banks": 4630,
      "strategy": 4631,
      "carrying": 4632,
      "supplement": 4633,
      "dig": 4634,
      ".................": 4635,
      "member": 4636,
      "activity": 4637,
      "stat": 4638,
      "deposits": 4639,
      "procedures": 4640,
      "head": 4641,
      "described": 4642,
      "__": 4643,
      "stre": 4644,
      "##xy": 4645,
      "mz": 4646,
      "relating": 4647,
      "express": 4648,
      "caus": 4649,
      "pen": 4650,
      "inventory": 4651,
      "matters": 4652,
      "corp": 4653,
      "charge": 4654,
      "larg": 4655,
      "##sue": 4656,
      "quality": 4657,
      "##ested": 4658,
      "sta": 4659,
      "stud": 4660,
      "bi": 4661,
      "construction": 4662,
      "##going": 4663,
      "mb": 4664,
      "##unc": 4665,
      "case": 4666,
      "##tility": 4667,
      "working": 4668,
      "uncertainties": 4669,
      "##enture": 4670,
      "##sequent": 4671,
      "##erve": 4672,
      "iii": 4673,
      "restr": 4674,
      "hhh": 4675,
      "reasonable": 4676,
      "recon": 4677,
      "even": 4678,
      "granted": 4679,
      "follows": 4680,
      "behalf": 4681,
      "acceler": 4682,
      "mh": 4683,
      "advis": 4684,
      "bit": 4685,
      "expendit": 4686,
      "mj": 4687,
      "##tire": 4688,
      "##nes": 4689,
      "mq": 4690,
      "convertible": 4691,
      "##anch": 4692,
      "bk": 4693,
      "##avor": 4694,
      "accum": 4695,
      "premium": 4696,
      "remaining": 4697,
      "conference": 4698,
      "ml": 4699,
      "##itigation": 4700,
      "##@`": 4701,
      "##py": 4702,
      "big": 4703,
      "\"),": 4704,
      "cover": 4705,
      "##fication": 4706,
      "written": 4707,
      "opportunities": 4708,
      "regulation": 4709,
      "please": 4710,
      "solutions": 4711,
      "bre": 4712,
      "dollars": 4713,
      "capacity": 4714,
      "historical": 4715,
      "completed": 4716,
      "bar": 4717,
      "likely": 4718,
      "office": 4719,
      "policy": 4720,
      "##ompany": 4721,
      "##head": 4722,
      "team": 4723,
      "##line": 4724,
      "##emed": 4725,
      "ul": 4726,
      "affili": 4727,
      "successful": 4728,
      "increases": 4729,
      "plus": 4730,
      "minim": 4731,
      "##ury": 4732,
      "##inal": 4733,
      "emerging": 4734,
      "##ecting": 4735,
      "##land": 4736,
      "holders": 4737,
      "receive": 4738,
      "##ms": 4739,
      "##udg": 4740,
      "##icient": 4741,
      "##az": 4742,
      "reserves": 4743,
      "different": 4744,
      "sect": 4745,
      "respons": 4746,
      "controls": 4747,
      "rating": 4748,
      "##not": 4749,
      "programs": 4750,
      "##ify": 4751,
      "analysis": 4752,
      "project": 4753,
      "reconc": 4754,
      "given": 4755,
      "hhhh": 4756,
      "resulting": 4757,
      "dispos": 4758,
      "##idential": 4759,
      "software": 4760,
      "intended": 4761,
      "##uel": 4762,
      "ny": 4763,
      "pred": 4764,
      "excluding": 4765,
      "gold": 4766,
      "sf": 4767,
      "joint": 4768,
      "indicate": 4769,
      "prepar": 4770,
      ":/": 4771,
      "litigation": 4772,
      "restruct": 4773,
      "extent": 4774,
      "registration": 4775,
      "nas": 4776,
      "home": 4777,
      "##ron": 4778,
      "accumulated": 4779,
      "employment": 4780,
      "thom": 4781,
      "hy": 4782,
      "treat": 4783,
      "##other": 4784,
      "derivative": 4785,
      "commence": 4786,
      "across": 4787,
      "vers": 4788,
      "er": 4789,
      "way": 4790,
      "##aph": 4791,
      "##ost": 4792,
      "##tice": 4793,
      "##audited": 4794,
      "competitive": 4795,
      "prosp": 4796,
      "fee": 4797,
      "@`": 4798,
      "unaudited": 4799,
      "##ibility": 4800,
      "reduce": 4801,
      "excess": 4802,
      "retain": 4803,
      "presentation": 4804,
      "iv": 4805,
      "drug": 4806,
      "www": 4807,
      "core": 4808,
      "announced": 4809,
      "want": 4810,
      "lot": 4811,
      "liv": 4812,
      "##ivers": 4813,
      "detail": 4814,
      "meet": 4815,
      "pension": 4816,
      "ax": 4817,
      "expenditures": 4818,
      "charter": 4819,
      "?\\": 4820,
      "signed": 4821,
      "##ley": 4822,
      "##br": 4823,
      "important": 4824,
      "##by": 4825,
      "mp": 4826,
      "##tirement": 4827,
      "##igned": 4828,
      "individual": 4829,
      "convers": 4830,
      "expos": 4831,
      "rele": 4832,
      "reserve": 4833,
      "mf": 4834,
      "basic": 4835,
      "##ner": 4836,
      "##acy": 4837,
      "talk": 4838,
      "decision": 4839,
      "several": 4840,
      "mer": 4841,
      "thanks": 4842,
      "##res": 4843,
      "##ox": 4844,
      "##wr": 4845,
      "partner": 4846,
      "reflect": 4847,
      "banking": 4848,
      "millions": 4849,
      "##ators": 4850,
      "##lus": 4851,
      "fas": 4852,
      "reduction": 4853,
      "##lied": 4854,
      "either": 4855,
      "##ateral": 4856,
      "canad": 4857,
      "subsequent": 4858,
      "wash": 4859,
      "##ather": 4860,
      "estimate": 4861,
      "deposit": 4862,
      "##ength": 4863,
      "plat": 4864,
      "utiliz": 4865,
      "secured": 4866,
      "##yn": 4867,
      "tel": 4868,
      "[.": 4869,
      "##ensed": 4870,
      "gl": 4871,
      "webs": 4872,
      "weak": 4873,
      "##sh": 4874,
      "defin": 4875,
      "decline": 4876,
      "caused": 4877,
      "near": 4878,
      "gre": 4879,
      "##me": 4880,
      "occur": 4881,
      "license": 4882,
      "suff": 4883,
      "##daq": 4884,
      "nl": 4885,
      "%)": 4886,
      "equal": 4887,
      "presented": 4888,
      "ltd": 4889,
      "settlement": 4890,
      "book": 4891,
      "platform": 4892,
      "considered": 4893,
      "care": 4894,
      "##---": 4895,
      "##orts": 4896,
      "circum": 4897,
      "rules": 4898,
      "##ords": 4899,
      "strategic": 4900,
      "commencement": 4901,
      "recover": 4902,
      "##mitted": 4903,
      "pip": 4904,
      "whol": 4905,
      "##phone": 4906,
      "washington": 4907,
      "decreased": 4908,
      "separ": 4909,
      "significantly": 4910,
      "restructuring": 4911,
      "treas": 4912,
      "discussion": 4913,
      "wa": 4914,
      "##han": 4915,
      "suppli": 4916,
      "must": 4917,
      "combined": 4918,
      "bonds": 4919,
      "affected": 4920,
      "john": 4921,
      "cand": 4922,
      "driven": 4923,
      "sk": 4924,
      "chair": 4925,
      "court": 4926,
      "greater": 4927,
      "##olving": 4928,
      "technologies": 4929,
      "##roll": 4930,
      "assurance": 4931,
      "termination": 4932,
      ")%": 4933,
      "discon": 4934,
      "believes": 4935,
      "complete": 4936,
      "prob": 4937,
      "land": 4938,
      "##ories": 4939,
      "##bc": 4940,
      "circumst": 4941,
      "##isted": 4942,
      "##overy": 4943,
      "exceed": 4944,
      "better": 4945,
      "positive": 4946,
      "necessary": 4947,
      "requires": 4948,
      "incorporation": 4949,
      "nasdaq": 4950,
      "relative": 4951,
      "become": 4952,
      "collateral": 4953,
      "##alized": 4954,
      "okay": 4955,
      "candid": 4956,
      "found": 4957,
      "earlier": 4958,
      "alth": 4959,
      "##ulation": 4960,
      "although": 4961,
      "update": 4962,
      "maturity": 4963,
      "consideration": 4964,
      "substantial": 4965,
      "holding": 4966,
      "prac": 4967,
      "her": 4968,
      "issue": 4969,
      "show": 4970,
      "clear": 4971,
      "patients": 4972,
      "implement": 4973,
      "peop": 4974,
      "##enced": 4975,
      "projects": 4976,
      "electric": 4977,
      "deemed": 4978,
      "pharm": 4979,
      "circumstances": 4980,
      "materials": 4981,
      "diffic": 4982,
      "industrial": 4983,
      "##ering": 4984,
      "ahead": 4985,
      "##gl": 4986,
      "opin": 4987,
      "`$": 4988,
      "satisfy": 4989,
      "website": 4990,
      "south": 4991,
      "telephone": 4992,
      "dev": 4993,
      "agent": 4994,
      "entity": 4995,
      "asia": 4996,
      "##eto": 4997,
      "contained": 4998,
      "fully": 4999,
      "spe": 5000,
      "arrangements": 5001,
      "##<.": 5002,
      "environmental": 5003,
      "summary": 5004,
      "##ists": 5005,
      "conversion": 5006,
      "##way": 5007,
      "##look": 5008,
      "##gy": 5009,
      "prec": 5010,
      "move": 5011,
      "page": 5012,
      "##ote": 5013,
      "jap": 5014,
      "action": 5015,
      "parti": 5016,
      "active": 5017,
      "reduced": 5018,
      "transition": 5019,
      "plant": 5020,
      "infr": 5021,
      "established": 5022,
      "actions": 5023,
      "unre": 5024,
      "japan": 5025,
      "repl": 5026,
      "tex": 5027,
      "description": 5028,
      "outlook": 5029,
      "medical": 5030,
      "hedg": 5031,
      "\\`": 5032,
      "conting": 5033,
      "##rec": 5034,
      "jurisdiction": 5035,
      "tit": 5036,
      "rose": 5037,
      "##bur": 5038,
      "##part": 5039,
      "tem": 5040,
      "fuel": 5041,
      "start": 5042,
      "signat": 5043,
      "read": 5044,
      "##omm": 5045,
      "bill": 5046,
      "patent": 5047,
      "best": 5048,
      "##ously": 5049,
      "cannot": 5050,
      "##ood": 5051,
      "another": 5052,
      "/]": 5053,
      "##efic": 5054,
      "street": 5055,
      "morning": 5056,
      "central": 5057,
      "fh": 5058,
      "vola": 5059,
      "##eline": 5060,
      "commitments": 5061,
      "affiliates": 5062,
      "achieve": 5063,
      "brand": 5064,
      "har": 5065,
      "##ale": 5066,
      "people": 5067,
      "##ling": 5068,
      "##ising": 5069,
      "\").": 5070,
      "##eb": 5071,
      "##ks": 5072,
      "adjustment": 5073,
      "entities": 5074,
      "refer": 5075,
      "opportunity": 5076,
      "mix": 5077,
      "benefic": 5078,
      "offices": 5079,
      "efforts": 5080,
      "##[.": 5081,
      "exact": 5082,
      "##wh": 5083,
      "minimum": 5084,
      "agre": 5085,
      "##ky": 5086,
      "warrant": 5087,
      "mil": 5088,
      "making": 5089,
      "view": 5090,
      "purchased": 5091,
      "fda": 5092,
      "##^^^^": 5093,
      "relationships": 5094,
      "##ret": 5095,
      "##emption": 5096,
      "anticipated": 5097,
      "region": 5098,
      "accompany": 5099,
      "renew": 5100,
      "single": 5101,
      "values": 5102,
      "give": 5103,
      "eu": 5104,
      "##ne": 5105,
      "repurchase": 5106,
      "##etary": 5107,
      "fall": 5108,
      "timing": 5109,
      "discontin": 5110,
      "chairman": 5111,
      "seen": 5112,
      "mess": 5113,
      "##amp": 5114,
      "favor": 5115,
      "failure": 5116,
      "expl": 5117,
      "opinion": 5118,
      "hot": 5119,
      "comparable": 5120,
      "##ached": 5121,
      "possible": 5122,
      "money": 5123,
      "underlying": 5124,
      "principles": 5125,
      "accompanying": 5126,
      "je": 5127,
      "margins": 5128,
      "saf": 5129,
      "borrowings": 5130,
      "mich": 5131,
      "##****": 5132,
      "proxy": 5133,
      "members": 5134,
      "increasing": 5135,
      "commod": 5136,
      "economy": 5137,
      "might": 5138,
      "##pted": 5139,
      "primary": 5140,
      "positions": 5141,
      "maybe": 5142,
      "uk": 5143,
      "##ned": 5144,
      "@(\"": 5145,
      "##af": 5146,
      "pet": 5147,
      "least": 5148,
      "##raph": 5149,
      "et": 5150,
      "click": 5151,
      "treatment": 5152,
      "##unction": 5153,
      "restated": 5154,
      "##ued": 5155,
      "defa": 5156,
      "expand": 5157,
      "discount": 5158,
      "step": 5159,
      "##mb": 5160,
      "dav": 5161,
      "##mark": 5162,
      "funding": 5163,
      "versus": 5164,
      "represents": 5165,
      "euro": 5166,
      "char": 5167,
      "reconcil": 5168,
      "autom": 5169,
      "##ames": 5170,
      "directly": 5171,
      "distributions": 5172,
      "##de": 5173,
      "bear": 5174,
      "ps": 5175,
      "##ta": 5176,
      "\",": 5177,
      "substantially": 5178,
      "mac": 5179,
      "largest": 5180,
      "strength": 5181,
      "##ections": 5182,
      "immed": 5183,
      "revolving": 5184,
      "##omestic": 5185,
      "tak": 5186,
      "ke": 5187,
      "changed": 5188,
      "solic": 5189,
      "##equ": 5190,
      "##bo": 5191,
      "competition": 5192,
      "norm": 5193,
      "final": 5194,
      "##puts": 5195,
      "qualified": 5196,
      "domestic": 5197,
      "realized": 5198,
      "##light": 5199,
      "##limin": 5200,
      "analy": 5201,
      "safety": 5202,
      "tm": 5203,
      "sr": 5204,
      "certific": 5205,
      "##urring": 5206,
      "transfer": 5207,
      "therefore": 5208,
      "rede": 5209,
      "judg": 5210,
      "located": 5211,
      "mention": 5212,
      "attr": 5213,
      "course": 5214,
      "vis": 5215,
      "ho": 5216,
      "##yal": 5217,
      "components": 5218,
      "got": 5219,
      "##ished": 5220,
      "jp": 5221,
      "run": 5222,
      "='": 5223,
      "ongoing": 5224,
      "/\\": 5225,
      "ns": 5226,
      "categ": 5227,
      "meaning": 5228,
      "##ones": 5229,
      "unders": 5230,
      "##room": 5231,
      "broker": 5232,
      "du": 5233,
      "##...": 5234,
      "wed": 5235,
      "effects": 5236,
      "sit": 5237,
      "competit": 5238,
      "areas": 5239,
      "box": 5240,
      "underst": 5241,
      "cou": 5242,
      "recovery": 5243,
      "discussed": 5244,
      "entit": 5245,
      "##tenance": 5246,
      "sn": 5247,
      "maintenance": 5248,
      "clients": 5249,
      "##aged": 5250,
      "##app": 5251,
      "notice": 5252,
      "om": 5253,
      "##tp": 5254,
      "investing": 5255,
      "seeing": 5256,
      "residential": 5257,
      "##idence": 5258,
      "served": 5259,
      "sl": 5260,
      "thurs": 5261,
      "media": 5262,
      "##iter": 5263,
      "adver": 5264,
      "thursday": 5265,
      "partially": 5266,
      "disclosures": 5267,
      "dam": 5268,
      "ap": 5269,
      "issues": 5270,
      "outside": 5271,
      "consistent": 5272,
      "ox": 5273,
      "tues": 5274,
      "phase": 5275,
      "retirement": 5276,
      "cd": 5277,
      "##emic": 5278,
      "leverage": 5279,
      "tuesday": 5280,
      "controll": 5281,
      "underwr": 5282,
      "furn": 5283,
      "##paid": 5284,
      ");": 5285,
      "leading": 5286,
      "segments": 5287,
      "determine": 5288,
      "discontinued": 5289,
      "slid": 5290,
      "##unch": 5291,
      "##entially": 5292,
      "closed": 5293,
      "delivery": 5294,
      "therap": 5295,
      "rs": 5296,
      "proposed": 5297,
      "uns": 5298,
      "**": 5299,
      "ded": 5300,
      "concern": 5301,
      "fle": 5302,
      "cali": 5303,
      "american": 5304,
      "thomson": 5305,
      "altern": 5306,
      "double": 5307,
      "]?": 5308,
      "few": 5309,
      "##thers": 5310,
      "##wards": 5311,
      "swap": 5312,
      "wednes": 5313,
      "wednesday": 5314,
      "store": 5315,
      "##sel": 5316,
      "##nia": 5317,
      "engine": 5318,
      "ec": 5319,
      "undersigned": 5320,
      "##force": 5321,
      "progress": 5322,
      "majority": 5323,
      "chall": 5324,
      "repay": 5325,
      "mis": 5326,
      ",#": 5327,
      "contractual": 5328,
      "flo": 5329,
      "cn": 5330,
      "frid": 5331,
      "spons": 5332,
      "##care": 5333,
      "comes": 5334,
      "building": 5335,
      "fy": 5336,
      "den": 5337,
      "agreed": 5338,
      "o_": 5339,
      "friday": 5340,
      "##xic": 5341,
      "unable": 5342,
      "profession": 5343,
      "##ris": 5344,
      "maxim": 5345,
      "`*": 5346,
      "application": 5347,
      "trends": 5348,
      "employer": 5349,
      "fell": 5350,
      "put": 5351,
      "##uctu": 5352,
      "expans": 5353,
      "fluctu": 5354,
      ".:": 5355,
      "newsroom": 5356,
      "forma": 5357,
      "center": 5358,
      "purchases": 5359,
      "operate": 5360,
      "adequ": 5361,
      "hand": 5362,
      "taking": 5363,
      "accelerated": 5364,
      "(%": 5365,
      "added": 5366,
      "sufficient": 5367,
      "##aceu": 5368,
      "futures": 5369,
      "adopted": 5370,
      "##active": 5371,
      "nine": 5372,
      "additionally": 5373,
      "monday": 5374,
      "nq": 5375,
      "shee": 5376,
      "califor": 5377,
      "side": 5378,
      "reli": 5379,
      "[%": 5380,
      "coverage": 5381,
      "##aware": 5382,
      "providing": 5383,
      "sav": 5384,
      "reim": 5385,
      "longer": 5386,
      "ow": 5387,
      "coven": 5388,
      "##ged": 5389,
      "cov": 5390,
      "schedule": 5391,
      "operational": 5392,
      "california": 5393,
      "sector": 5394,
      "accepted": 5395,
      "adoption": 5396,
      "##sw": 5397,
      "sfas": 5398,
      "applications": 5399,
      "advertis": 5400,
      "##iw": 5401,
      "unrealized": 5402,
      "recognition": 5403,
      "super": 5404,
      ">.": 5405,
      "redemption": 5406,
      "##ouse": 5407,
      "aust": 5408,
      "needs": 5409,
      "reconciliation": 5410,
      "mentioned": 5411,
      "##ecti": 5412,
      "##enting": 5413,
      "sg": 5414,
      "sheets": 5415,
      "questions": 5416,
      "gmt": 5417,
      "##ri": 5418,
      "delaware": 5419,
      "actually": 5420,
      "treasury": 5421,
      "##els": 5422,
      "pipeline": 5423,
      "candidates": 5424,
      "sources": 5425,
      "document": 5426,
      "obj": 5427,
      "yd": 5428,
      "##unto": 5429,
      "come": 5430,
      "accordingly": 5431,
      "hk": 5432,
      "##iously": 5433,
      "$(": 5434,
      ":>": 5435,
      "personnel": 5436,
      "focused": 5437,
      "asc": 5438,
      "david": 5439,
      "competitors": 5440,
      "##inary": 5441,
      "##itor": 5442,
      "#.": 5443,
      "electron": 5444,
      "fre": 5445,
      "##iring": 5446,
      "division": 5447,
      "identification": 5448,
      "unless": 5449,
      "##veness": 5450,
      "hi": 5451,
      "season": 5452,
      "medic": 5453,
      "-----": 5454,
      "].": 5455,
      "completion": 5456,
      "drill": 5457,
      "yen": 5458,
      "vir": 5459,
      "[-": 5460,
      "##osp": 5461,
      "##ultane": 5462,
      "simultane": 5463,
      "exposure": 5464,
      "##rupt": 5465,
      "=&": 5466,
      "***": 5467,
      "obv": 5468,
      "quarters": 5469,
      "squ": 5470,
      "tra": 5471,
      "entire": 5472,
      "##ises": 5473,
      "dj": 5474,
      "protection": 5475,
      "##ael": 5476,
      "pret": 5477,
      "##lv": 5478,
      "dc": 5479,
      "hu": 5480,
      "healthcare": 5481,
      "test": 5482,
      "expansion": 5483,
      "countries": 5484,
      "receivables": 5485,
      "##iving": 5486,
      "labor": 5487,
      "times": 5488,
      "returns": 5489,
      "shareholder": 5490,
      "examp": 5491,
      "improvement": 5492,
      "transport": 5493,
      "lines": 5494,
      "stockholder": 5495,
      "##ude": 5496,
      "generated": 5497,
      "continues": 5498,
      "defic": 5499,
      "entitled": 5500,
      "subscr": 5501,
      "launch": 5502,
      "]/": 5503,
      "food": 5504,
      "inn": 5505,
      "##ograph": 5506,
      "tv": 5507,
      "ov": 5508,
      "cz": 5509,
      "extended": 5510,
      "enterpr": 5511,
      "mob": 5512,
      "##mission": 5513,
      "appo": 5514,
      "?^": 5515,
      "royal": 5516,
      "profitability": 5517,
      "texas": 5518,
      "having": 5519,
      "##ology": 5520,
      "^/": 5521,
      "\\/": 5522,
      "w_": 5523,
      "agency": 5524,
      "others": 5525,
      "##stain": 5526,
      "##entures": 5527,
      "drive": 5528,
      "volatility": 5529,
      "##reuters": 5530,
      "accept": 5531,
      "title": 5532,
      "messaging": 5533,
      "##emn": 5534,
      "simultaneously": 5535,
      "##gg": 5536,
      "fc": 5537,
      "variable": 5538,
      "thomsonreuters": 5539,
      "##come": 5540,
      "coming": 5541,
      "fam": 5542,
      "stores": 5543,
      "savings": 5544,
      "supplemental": 5545,
      "ot": 5546,
      "##retion": 5547,
      "card": 5548,
      "eq": 5549,
      "##hic": 5550,
      "balances": 5551,
      "inflation": 5552,
      "type": 5553,
      "fasb": 5554,
      "##utes": 5555,
      "intell": 5556,
      "earliest": 5557,
      "oh": 5558,
      "volumes": 5559,
      "nature": 5560,
      "##itch": 5561,
      "covid": 5562,
      "traded": 5563,
      "://": 5564,
      "known": 5565,
      "ks": 5566,
      "na": 5567,
      "lp": 5568,
      "cond": 5569,
      "intellect": 5570,
      "##\"!": 5571,
      "session": 5572,
      "anticipate": 5573,
      "intellectual": 5574,
      "obviously": 5575,
      "water": 5576,
      "yu": 5577,
      "depart": 5578,
      "documents": 5579,
      "default": 5580,
      "assessment": 5581,
      "respective": 5582,
      "##cl": 5583,
      "tog": 5584,
      "indemn": 5585,
      "voting": 5586,
      "##dr": 5587,
      "operation": 5588,
      "diary": 5589,
      "digital": 5590,
      "ur": 5591,
      "vehic": 5592,
      "approach": 5593,
      "venture": 5594,
      "indicated": 5595,
      "acquire": 5596,
      "manufactur": 5597,
      "cm": 5598,
      "pass": 5599,
      "##tig": 5600,
      "##izes": 5601,
      "##ulative": 5602,
      "instr": 5603,
      "ep": 5604,
      "improvements": 5605,
      "austral": 5606,
      "west": 5607,
      "##ont": 5608,
      "##burse": 5609,
      "analysts": 5610,
      "together": 5611,
      "ter": 5612,
      "none": 5613,
      "advertising": 5614,
      "##thing": 5615,
      "though": 5616,
      "abs": 5617,
      "ceo": 5618,
      "pharmaceu": 5619,
      "growing": 5620,
      "practic": 5621,
      "##ectiveness": 5622,
      "conduct": 5623,
      "country": 5624,
      "\"@": 5625,
      "##ump": 5626,
      "##eu": 5627,
      "@,": 5628,
      "highly": 5629,
      "site": 5630,
      "##ody": 5631,
      "space": 5632,
      "telec": 5633,
      "designed": 5634,
      "bh": 5635,
      "restrictions": 5636,
      "##ready": 5637,
      "michael": 5638,
      "enc": 5639,
      "difficult": 5640,
      ".........": 5641,
      "ending": 5642,
      "canada": 5643,
      "already": 5644,
      "sole": 5645,
      "##iately": 5646,
      "`%": 5647,
      "##astr": 5648,
      "sponsor": 5649,
      "evaluation": 5650,
      "generation": 5651,
      "deb": 5652,
      "copy": 5653,
      "calculated": 5654,
      "##tt": 5655,
      "cp": 5656,
      "##ipp": 5657,
      "counter": 5658,
      "##ening": 5659,
      "##mental": 5660,
      "ip": 5661,
      "termin": 5662,
      "pct": 5663,
      "exclus": 5664,
      "cx": 5665,
      ";%": 5666,
      "sustain": 5667,
      "##ney": 5668,
      "borrower": 5669,
      "resulted": 5670,
      "ago": 5671,
      "fq": 5672,
      "fd": 5673,
      "chan": 5674,
      "later": 5675,
      "-\"": 5676,
      "##vant": 5677,
      "wells": 5678,
      "dd": 5679,
      "bon": 5680,
      "kr": 5681,
      ">'": 5682,
      "ts": 5683,
      "il": 5684,
      "##enders": 5685,
      "commodity": 5686,
      "?]": 5687,
      "cc": 5688,
      "@#": 5689,
      "vm": 5690,
      "proceedings": 5691,
      "[?": 5692,
      "criti": 5693,
      "##action": 5694,
      "g_": 5695,
      "impacted": 5696,
      "cs": 5697,
      "##pose": 5698,
      "infrastr": 5699,
      "filings": 5700,
      "reflected": 5701,
      "recently": 5702,
      "pg": 5703,
      "institutions": 5704,
      "##ete": 5705,
      "elected": 5706,
      "effectiveness": 5707,
      "means": 5708,
      "##back": 5709,
      "particularly": 5710,
      "ey": 5711,
      "..": 5712,
      "improved": 5713,
      "##eep": 5714,
      "yt": 5715,
      "favorable": 5716,
      "##ath": 5717,
      "original": 5718,
      "initiatives": 5719,
      "comply": 5720,
      "\\?": 5721,
      "challeng": 5722,
      "cell": 5723,
      "useful": 5724,
      "``": 5725,
      "bb": 5726,
      "$!": 5727,
      "slow": 5728,
      "example": 5729,
      "##ob": 5730,
      "derivatives": 5731,
      "nz": 5732,
      "limitations": 5733,
      "##oxx": 5734,
      "vs": 5735,
      "\".": 5736,
      "]:": 5737,
      "taxable": 5738,
      "##%%%%": 5739,
      "sort": 5740,
      "availability": 5741,
      "trials": 5742,
      "bey": 5743,
      "manager": 5744,
      "square": 5745,
      "hard": 5746,
      "tempor": 5747,
      "pm": 5748,
      "source": 5749,
      "cum": 5750,
      "##ebted": 5751,
      "explor": 5752,
      "indebted": 5753,
      "delay": 5754,
      "far": 5755,
      "infrastructure": 5756,
      "typically": 5757,
      "##================": 5758,
      "effici": 5759,
      "aw": 5760,
      "accounted": 5761,
      "chap": 5762,
      "identified": 5763,
      "?[": 5764,
      "k_": 5765,
      "asu": 5766,
      "beyond": 5767,
      "innov": 5768,
      "amortized": 5769,
      "slide": 5770,
      "^?": 5771,
      "rise": 5772,
      "anti": 5773,
      "##kn": 5774,
      "eps": 5775,
      "identify": 5776,
      "##orp": 5777,
      "##amed": 5778,
      "indebtedness": 5779,
      "_z": 5780,
      "_x": 5781,
      "ye": 5782,
      "/^": 5783,
      "lu": 5784,
      "spread": 5785,
      "cb": 5786,
      "channel": 5787,
      "hh": 5788,
      "structure": 5789,
      "banc": 5790,
      "kw": 5791,
      "dro": 5792,
      "multiple": 5793,
      ";&": 5794,
      "ultim": 5795,
      "ver": 5796,
      "]*": 5797,
      "patents": 5798,
      "covenants": 5799,
      "wholly": 5800,
      "reasonably": 5801,
      "keyw": 5802,
      "[>": 5803,
      "orders": 5804,
      "industries": 5805,
      "intend": 5806,
      "monthly": 5807,
      "****": 5808,
      "reimburse": 5809,
      "/(": 5810,
      "city": 5811,
      "organization": 5812,
      "dy": 5813,
      "hs": 5814,
      "univers": 5815,
      "classified": 5816,
      "keywords": 5817,
      "inves": 5818,
      "##arks": 5819,
      "bid": 5820,
      "conclud": 5821,
      "`****": 5822,
      "[^": 5823,
      "##``@`": 5824,
      "earned": 5825,
      "nm": 5826,
      "taken": 5827,
      "generate": 5828,
      "rental": 5829,
      "$.": 5830,
      "##anced": 5831,
      "lv": 5832,
      "involve": 5833,
      "ic": 5834,
      "prepared": 5835,
      "##iqu": 5836,
      "doing": 5837,
      "revised": 5838,
      "fts": 5839,
      "beneficial": 5840,
      ".'": 5841,
      "germ": 5842,
      "editing": 5843,
      "##(`\"": 5844,
      "_y": 5845,
      "##art": 5846,
      "fs": 5847,
      "institution": 5848,
      "parent": 5849,
      "ju": 5850,
      "install": 5851,
      "cv": 5852,
      "expects": 5853,
      "bn": 5854,
      "slight": 5855,
      ".#": 5856,
      "foot": 5857,
      "lender": 5858,
      "throughout": 5859,
      "@@": 5860,
      "bankrupt": 5861,
      "cases": 5862,
      "component": 5863,
      "wm": 5864,
      "ens": 5865,
      "^]": 5866,
      "vx": 5867,
      "##pri": 5868,
      "ton": 5869,
      "normal": 5870,
      "participants": 5871,
      "signatures": 5872,
      "comment": 5873,
      "obs": 5874,
      "htm": 5875,
      "---------------------------------": 5876,
      "phys": 5877,
      "compr": 5878,
      "##thern": 5879,
      "developed": 5880,
      "professional": 5881,
      "elig": 5882,
      "cur": 5883,
      "reform": 5884,
      "refin": 5885,
      "inputs": 5886,
      "[]": 5887,
      "chapter": 5888,
      "ib": 5889,
      "rm": 5890,
      "##organ": 5891,
      "fi": 5892,
      "##ech": 5893,
      "bigg": 5894,
      "ddd": 5895,
      "jr": 5896,
      "yr": 5897,
      "staff": 5898,
      "pack": 5899,
      "c_": 5900,
      "##inter": 5901,
      "letter": 5902,
      "sure": 5903,
      "##izations": 5904,
      "persons": 5905,
      "##ports": 5906,
      "\"!": 5907,
      "divers": 5908,
      "bd": 5909,
      "-#": 5910,
      "eas": 5911,
      "ry": 5912,
      "##?\\": 5913,
      ")/": 5914,
      "immediately": 5915,
      "##ecured": 5916,
      "capitalized": 5917,
      "os": 5918,
      "declar": 5919,
      "technical": 5920,
      "nd": 5921,
      "cau": 5922,
      "`!": 5923,
      "hereunto": 5924,
      "##goti": 5925,
      "reflects": 5926,
      "evaluating": 5927,
      "##omin": 5928,
      "um": 5929,
      "disposition": 5930,
      "`$`!": 5931,
      "yet": 5932,
      "measurement": 5933,
      "tx": 5934,
      "play": 5935,
      "sci": 5936,
      "(&": 5937,
      "^'": 5938,
      "probably": 5939,
      "vote": 5940,
      "_w": 5941,
      "pi": 5942,
      "maximum": 5943,
      "serve": 5944,
      "<&": 5945,
      "##ns": 5946,
      "investig": 5947,
      "listed": 5948,
      "redeem": 5949,
      ";-": 5950,
      "study": 5951,
      "alternative": 5952,
      "##(\"`@(\"`@(\"`@(\"`@": 5953,
      "##ls": 5954,
      "contains": 5955,
      "ng": 5956,
      "assumed": 5957,
      "find": 5958,
      "penal": 5959,
      "cop": 5960,
      "gs": 5961,
      "critical": 5962,
      "pd": 5963,
      ";:": 5964,
      "sb": 5965,
      "bonus": 5966,
      "late": 5967,
      "cumulative": 5968,
      "##utive": 5969,
      "]>": 5970,
      "agencies": 5971,
      "[=": 5972,
      "issuer": 5973,
      "relevant": 5974,
      "ordinary": 5975,
      "forecas": 5976,
      "##ibor": 5977,
      "gd": 5978,
      "attached": 5979,
      "spending": 5980,
      "##wide": 5981,
      "''": 5982,
      "successfully": 5983,
      "^(": 5984,
      "advant": 5985,
      "lived": 5986,
      "franch": 5987,
      "criter": 5988,
      "collabor": 5989,
      "ri": 5990,
      "fx": 5991,
      "constit": 5992,
      "bc": 5993,
      "vesting": 5994,
      "monitor": 5995,
      "nr": 5996,
      "tn": 5997,
      "propri": 5998,
      "'-": 5999,
      "_o": 6000,
      "=/": 6001,
      "internet": 6002,
      "##@,": 6003,
      "`****`\"": 6004,
      "testing": 6005,
      "unsecured": 6006,
      "hit": 6007,
      "_k": 6008,
      "saw": 6009,
      "pretty": 6010,
      "/#": 6011,
      "lenders": 6012,
      "ah": 6013,
      "hedge": 6014,
      "projected": 6015,
      "cf": 6016,
      "jv": 6017,
      "-/": 6018,
      "contributions": 6019,
      "geograph": 6020,
      "s_": 6021,
      "hear": 6022,
      "tc": 6023,
      "nw": 6024,
      "recl": 6025,
      "ftse": 6026,
      "##izing": 6027,
      "criteria": 6028,
      "proprietary": 6029,
      "bankruptcy": 6030,
      "\"(": 6031,
      "##tor": 6032,
      "optim": 6033,
      "pn": 6034,
      "mobile": 6035,
      "san": 6036,
      "./": 6037,
      "processing": 6038,
      "transportation": 6039,
      "##lu": 6040,
      "=\"": 6041,
      "##oted": 6042,
      "bench": 6043,
      "],": 6044,
      "premiums": 6045,
      "`$`!``": 6046,
      "pp": 6047,
      "##atch": 6048,
      "lending": 6049,
      "contingent": 6050,
      "##gen": 6051,
      "u_": 6052,
      "])": 6053,
      "storage": 6054,
      "crude": 6055,
      "##ison": 6056,
      "stated": 6057,
      "::": 6058,
      "dealers": 6059,
      "-,": 6060,
      "mexic": 6061,
      "_v": 6062,
      "pac": 6063,
      "ft": 6064,
      "##````````": 6065,
      "election": 6066,
      "td": 6067,
      "nov": 6068,
      "cyc": 6069,
      "prep": 6070,
      "timely": 6071,
      "enh": 6072,
      "rich": 6073,
      "##bert": 6074,
      "##uctions": 6075,
      "track": 6076,
      "brands": 6077,
      "ef": 6078,
      "\\+": 6079,
      "http": 6080,
      "depend": 6081,
      "))))": 6082,
      "family": 6083,
      "##ols": 6084,
      "coal": 6085,
      "]^": 6086,
      "##(`\"``@`": 6087,
      "safe": 6088,
      "'^": 6089,
      "##bank": 6090,
      "condensed": 6091,
      "delivered": 6092,
      "keep": 6093,
      "nv": 6094,
      "stoxx": 6095,
      "experienced": 6096,
      "^[": 6097,
      "seek": 6098,
      "kl": 6099,
      "bm": 6100,
      "rd": 6101,
      "resol": 6102,
      "][": 6103,
      "occup": 6104,
      "##na": 6105,
      "##ondon": 6106,
      "da": 6107,
      "frank": 6108,
      "quick": 6109,
      "az": 6110,
      "accr": 6111,
      "^\\": 6112,
      "xx": 6113,
      "*\"": 6114,
      "try": 6115,
      "london": 6116,
      "_m": 6117,
      "practices": 6118,
      "scal": 6119,
      "pf": 6120,
      "=?": 6121,
      "rr": 6122,
      "nc": 6123,
      "named": 6124,
      ")*": 6125,
      "ratings": 6126,
      "[:": 6127,
      "certificate": 6128,
      "holder": 6129,
      "predict": 6130,
      "intro": 6131,
      "##abilities": 6132,
      "##ii": 6133,
      "temporary": 6134,
      "%!": 6135,
      "uncertainty": 6136,
      "summar": 6137,
      "managing": 6138,
      "mining": 6139,
      ";'": 6140,
      "along": 6141,
      "stra": 6142,
      "z_": 6143,
      "gp": 6144,
      "q_": 6145,
      "responsible": 6146,
      "personal": 6147,
      "]+": 6148,
      "aa": 6149,
      "\\>": 6150,
      "interim": 6151,
      "!!": 6152,
      "@!": 6153,
      "led": 6154,
      "nf": 6155,
      "/$": 6156,
      "bx": 6157,
      "]#": 6158,
      "forecast": 6159,
      "goods": 6160,
      "??": 6161,
      "##gn": 6162,
      "reins": 6163,
      ":?": 6164,
      "distr": 6165,
      "drilling": 6166,
      "wall": 6167,
      "##ration": 6168,
      "negoti": 6169,
      "performing": 6170,
      "fa": 6171,
      "##ened": 6172,
      "gb": 6173,
      "##onse": 6174,
      "^^": 6175,
      "twel": 6176,
      "?:": 6177,
      "fluctuations": 6178,
      "-$": 6179,
      "utility": 6180,
      "suppliers": 6181,
      "dail": 6182,
      "lab": 6183,
      "mas": 6184,
      "##itiz": 6185,
      "subord": 6186,
      "legis": 6187,
      "selected": 6188,
      "evaluate": 6189,
      "consult": 6190,
      ":@": 6191,
      "##ways": 6192,
      ";^": 6193,
      "covered": 6194,
      "]]": 6195,
      "community": 6196,
      "cut": 6197,
      "corr": 6198,
      "daily": 6199,
      ">/": 6200,
      "los": 6201,
      "/'": 6202,
      "ba": 6203,
      "##bor": 6204,
      "^*": 6205,
      "nj": 6206,
      "##ulting": 6207,
      "$$": 6208,
      "prevent": 6209,
      "commitment": 6210,
      "flat": 6211,
      "pand": 6212,
      "som": 6213,
      "?#": 6214,
      "eligible": 6215,
      "whole": 6216,
      "measured": 6217,
      "ct": 6218,
      "manner": 6219,
      "^%": 6220,
      "##ino": 6221,
      "x_": 6222,
      "nk": 6223,
      "registrants": 6224,
      "gi": 6225,
      "size": 6226,
      "smaller": 6227,
      "\"\"": 6228,
      "fm": 6229,
      ":&": 6230,
      "benchmark": 6231,
      "##no": 6232,
      "nik": 6233,
      "-----------------": 6234,
      "bp": 6235,
      "twelve": 6236,
      ")\"": 6237,
      "contribution": 6238,
      ">&": 6239,
      "wy": 6240,
      "gy": 6241,
      "deg": 6242,
      "allocation": 6243,
      "sz": 6244,
      "[[": 6245,
      "zip": 6246,
      "elimin": 6247,
      ".....": 6248,
      "t_": 6249,
      "]-": 6250,
      "totaled": 6251,
      "sv": 6252,
      "%;": 6253,
      "];": 6254,
      ":\"": 6255,
      "pv": 6256,
      "/[": 6257,
      "##tra": 6258,
      "##ush": 6259,
      "couple": 6260,
      "euros": 6261,
      "\\^": 6262,
      "##ny": 6263,
      "\"#": 6264,
      "@\"": 6265,
      "merch": 6266,
      "comments": 6267,
      "irs": 6268,
      "rh": 6269,
      "carr": 6270,
      "guess": 6271,
      "response": 6272,
      "face": 6273,
      "dise": 6274,
      "`%%%%": 6275,
      "inher": 6276,
      ".*": 6277,
      "differences": 6278,
      "ly": 6279,
      "=.": 6280,
      "authorities": 6281,
      "oz": 6282,
      "^&": 6283,
      "strategies": 6284,
      "##elines": 6285,
      "db": 6286,
      "##uled": 6287,
      "'\\": 6288,
      "targe": 6289,
      "chem": 6290,
      "wide": 6291,
      "managed": 6292,
      "##lements": 6293,
      "i_": 6294,
      "##troll": 6295,
      "disru": 6296,
      "status": 6297,
      "y_": 6298,
      "purpose": 6299,
      "hum": 6300,
      ";?": 6301,
      "consent": 6302,
      "stage": 6303,
      "remains": 6304,
      "##aur": 6305,
      "<'": 6306,
      "exploration": 6307,
      "\\,": 6308,
      "list": 6309,
      "raise": 6310,
      "ak": 6311,
      "nt": 6312,
      ")'": 6313,
      "cro": 6314,
      "uses": 6315,
      "ku": 6316,
      "replace": 6317,
      "sens": 6318,
      "']": 6319,
      "judgment": 6320,
      "specifically": 6321,
      "hosp": 6322,
      "(-": 6323,
      ">:": 6324,
      "##edd": 6325,
      "permitted": 6326,
      "//": 6327,
      "_q": 6328,
      "##inc": 6329,
      "gc": 6330,
      "\\.": 6331,
      "['": 6332,
      "color": 6333,
      "##atic": 6334,
      "nn": 6335,
      ":]": 6336,
      "gz": 6337,
      "\\-": 6338,
      "##view": 6339,
      "indirect": 6340,
      "##utory": 6341,
      "discretion": 6342,
      "complex": 6343,
      "sq": 6344,
      ".[": 6345,
      "ze": 6346,
      "extension": 6347,
      "variety": 6348,
      "separate": 6349,
      "&!": 6350,
      "enforce": 6351,
      ";>": 6352,
      ":=": 6353,
      "moving": 6354,
      "tz": 6355,
      "link": 6356,
      "pu": 6357,
      ">(": 6358,
      "##point": 6359,
      "nh": 6360,
      "]=": 6361,
      "##uter": 6362,
      "filer": 6363,
      "tk": 6364,
      "recognize": 6365,
      "inherent": 6366,
      "poli": 6367,
      "providers": 6368,
      ";;": 6369,
      ";=": 6370,
      ";]": 6371,
      "cance": 6372,
      "eg": 6373,
      "slightly": 6374,
      "^\"": 6375,
      "ple": 6376,
      "[;": 6377,
      "enterprise": 6378,
      "allocated": 6379,
      "%%%": 6380,
      "pt": 6381,
      "gh": 6382,
      "advance": 6383,
      "!'": 6384,
      "ln": 6385,
      "kz": 6386,
      "pressure": 6387,
      "remed": 6388,
      ")!": 6389,
      "\\\\": 6390,
      "enhance": 6391,
      "ix": 6392,
      "-'": 6393,
      "reclass": 6394,
      "ut": 6395,
      "vk": 6396,
      "dan": 6397,
      "?>": 6398,
      "noncon": 6399,
      ":;": 6400,
      "soliciting": 6401,
      "?$": 6402,
      "engage": 6403,
      "_b": 6404,
      "##ancy": 6405,
      "terr": 6406,
      "si": 6407,
      ">?": 6408,
      "^+": 6409,
      "restaur": 6410,
      "##ott": 6411,
      "speed": 6412,
      "+'": 6413,
      "pb": 6414,
      "(+": 6415,
      "^;": 6416,
      "`\"": 6417,
      "^)": 6418,
      "_g": 6419,
      "authority": 6420,
      "vy": 6421,
      "<$": 6422,
      "dates": 6423,
      "?+": 6424,
      "lc": 6425,
      "east": 6426,
      "inventories": 6427,
      "km": 6428,
      "reit": 6429,
      "v_": 6430,
      "[\\": 6431,
      "cg": 6432,
      "jk": 6433,
      "qualify": 6434,
      "zh": 6435,
      "definitive": 6436,
      "publicly": 6437,
      "integrated": 6438,
      "alle": 6439,
      ":[": 6440,
      "tq": 6441,
      "&]": 6442,
      "consulting": 6443,
      "[/": 6444,
      "guys": 6445,
      "adequate": 6446,
      "mak": 6447,
      "##@@": 6448,
      "vn": 6449,
      ":-": 6450,
      "matter": 6451,
      ":'": 6452,
      "gn": 6453,
      "mom": 6454,
      "indenture": 6455,
      "h_": 6456,
      "uc": 6457,
      "underwriting": 6458,
      "##ash": 6459,
      "p_": 6460,
      "!$": 6461,
      ",$": 6462,
      "bearing": 6463,
      "pan": 6464,
      "##duce": 6465,
      ")-": 6466,
      "fn": 6467,
      "iz": 6468,
      "qq": 6469,
      ">>": 6470,
      "##jo": 6471,
      "]!": 6472,
      "sd": 6473,
      "n_": 6474,
      "harm": 6475,
      "planned": 6476,
      "bring": 6477,
      ";[": 6478,
      "#\"": 6479,
      "=+": 6480,
      "/;": 6481,
      "->": 6482,
      "vested": 6483,
      "sar": 6484,
      ")+": 6485,
      "ru": 6486,
      "online": 6487,
      "-+": 6488,
      "ug": 6489,
      "##": 6490,
      "<>": 6491,
      "profits": 6492,
      "-;": 6493,
      "pandemic": 6494,
      "%%": 6495,
      "=;": 6496,
      "?;": 6497,
      "syn": 6498,
      "potentially": 6499,
      "thereto": 6500,
      "function": 6501,
      "developing": 6502,
      "straight": 6503,
      "$&": 6504,
      "[#": 6505,
      "desp": 6506,
      "=:": 6507,
      ".................................": 6508,
      "]'": 6509,
      "##put": 6510,
      "^$": 6511,
      "`%%%%`!": 6512,
      "(/": 6513,
      "kv": 6514,
      "concent": 6515,
      "&/": 6516,
      "=-": 6517,
      "administration": 6518,
      "vq": 6519,
      "tp": 6520,
      "gw": 6521,
      "-)": 6522,
      "/+": 6523,
      "dm": 6524,
      "_u": 6525,
      "&$": 6526,
      "e_": 6527,
      "hedging": 6528,
      "-.": 6529,
      "%>": 6530,
      "despite": 6531,
      "hereto": 6532,
      "'!": 6533,
      "('": 6534,
      "ky": 6535,
      "salary": 6536,
      "(^": 6537,
      ":^": 6538,
      "black": 6539,
      "]\\": 6540,
      "green": 6541,
      "hr": 6542,
      "[*": 6543,
      "?/": 6544,
      "heav": 6545,
      "effectively": 6546,
      "#^": 6547,
      "department": 6548,
      "developments": 6549,
      "compete": 6550,
      "a_": 6551,
      "kj": 6552,
      "/\"": 6553,
      "equivalent": 6554,
      "hv": 6555,
      "%-": 6556,
      "done": 6557,
      "dependent": 6558,
      "'/": 6559,
      "##trolling": 6560,
      "ni": 6561,
      ":*": 6562,
      "integration": 6563,
      "exclusive": 6564,
      "$=": 6565,
      "$'": 6566,
      "_d": 6567,
      "_c": 6568,
      "jz": 6569,
      "chip": 6570,
      "furnished": 6571,
      "quoted": 6572,
      "chain": 6573,
      "%?": 6574,
      "<^": 6575,
      "web": 6576,
      "_n": 6577,
      "gv": 6578,
      "determination": 6579,
      "lk": 6580,
      "ff": 6581,
      "deficit": 6582,
      "offerings": 6583,
      "/!": 6584,
      "owners": 6585,
      "##aft": 6586,
      "ko": 6587,
      "\\*": 6588,
      ".>": 6589,
      "^=": 6590,
      "-&": 6591,
      "##ething": 6592,
      "<=": 6593,
      ".-": 6594,
      "=^": 6595,
      "=)": 6596,
      "#\\": 6597,
      "^-": 6598,
      "performed": 6599,
      "governance": 6600,
      "swiss": 6601,
      "va": 6602,
      "something": 6603,
      "steel": 6604,
      "dv": 6605,
      "india": 6606,
      "&%": 6607,
      "^:": 6608,
      ")]": 6609,
      "#!": 6610,
      ")&": 6611,
      ")#": 6612,
      "compos": 6613,
      "-:": 6614,
      "uz": 6615,
      "governmental": 6616,
      "obtained": 6617,
      "james": 6618,
      "')": 6619,
      "+:": 6620,
      "cw": 6621,
      "origin": 6622,
      "vd": 6623,
      "^>": 6624,
      ">*": 6625,
      "ez": 6626,
      "\\:": 6627,
      "';": 6628,
      "patient": 6629,
      "$?": 6630,
      "locations": 6631,
      "##log": 6632,
      "<\\": 6633,
      "solid": 6634,
      "recurring": 6635,
      "_j": 6636,
      ".?": 6637,
      "vac": 6638,
      ",\\": 6639,
      "sx": 6640,
      "?'": 6641,
      "##ectives": 6642,
      "+;": 6643,
      "_t": 6644,
      "hospital": 6645,
      "hc": 6646,
      "once": 6647,
      "trend": 6648,
      "maturities": 6649,
      "`-": 6650,
      ":#": 6651,
      "viol": 6652,
      "j_": 6653,
      "const": 6654,
      "weeks": 6655,
      "unf": 6656,
      "tj": 6657,
      "vw": 6658,
      "kk": 6659,
      "/-": 6660,
      "&.": 6661,
      "zc": 6662,
      "contact": 6663,
      "gj": 6664,
      "##))))": 6665,
      "pending": 6666,
      "noncontrolling": 6667,
      "content": 6668,
      "light": 6669,
      ",?": 6670,
      ".(": 6671,
      "client": 6672,
      "iq": 6673,
      "tu": 6674,
      "disclosed": 6675,
      "##kei": 6676,
      "=$": 6677,
      "=]": 6678,
      "*/": 6679,
      "#'": 6680,
      "##with": 6681,
      ")$": 6682,
      "borrowing": 6683,
      "subordinated": 6684,
      "worldwide": 6685,
      "'[": 6686,
      "advanced": 6687,
      "]&": 6688,
      "cq": 6689,
      "pacific": 6690,
      "\\$": 6691,
      "\\]": 6692,
      "fu": 6693,
      "?%": 6694,
      "jeff": 6695,
      "penalties": 6696,
      "consumm": 6697,
      "##ij": 6698,
      "!]": 6699,
      "dealer": 6700,
      ".$": 6701,
      "\\(": 6702,
      "##(`\"``@`(`\"``@`": 6703,
      "university": 6704,
      "...": 6705,
      "/%": 6706,
      "ensure": 6707,
      "kore": 6708,
      "consists": 6709,
      "feat": 6710,
      "sil": 6711,
      "hj": 6712,
      "calcul": 6713,
      "-=": 6714,
      "+\"": 6715,
      "answ": 6716,
      "ask": 6717,
      "##itation": 6718,
      "!)": 6719,
      "(.": 6720,
      "([": 6721,
      "!^": 6722,
      ">-": 6723,
      "<]": 6724,
      "##aced": 6725,
      "happ": 6726,
      "consolidation": 6727,
      "nikkei": 6728,
      "zm": 6729,
      "bg": 6730,
      "hp": 6731,
      "^#": 6732,
      "ol": 6733,
      "@\\": 6734,
      ":+": 6735,
      "*]": 6736,
      "^.": 6737,
      "qv": 6738,
      "receip": 6739,
      "##state": 6740,
      "capabilities": 6741,
      "pk": 6742,
      "##ston": 6743,
      "cj": 6744,
      "%(": 6745,
      "-?": 6746,
      "/)": 6747,
      "vary": 6748,
      "conducted": 6749,
      "dg": 6750,
      "types": 6751,
      "/?": 6752,
      "field": 6753,
      "retained": 6754,
      "dw": 6755,
      "uj": 6756,
      "negatively": 6757,
      "scheduled": 6758,
      "_h": 6759,
      "tg": 6760,
      "details": 6761,
      "+^": 6762,
      "$#": 6763,
      "##pped": 6764,
      "##tional": 6765,
      "?,": 6766,
      "rob": 6767,
      ")^": 6768,
      "analyst": 6769,
      "engineering": 6770,
      "##unic": 6771,
      "mexico": 6772,
      "[+": 6773,
      "wholes": 6774,
      "hz": 6775,
      "-%": 6776,
      "kq": 6777,
      "rv": 6778,
      "d_": 6779,
      "-]": 6780,
      "zu": 6781,
      "certainly": 6782,
      "r_": 6783,
      "!%": 6784,
      "kp": 6785,
      "##ews": 6786,
      "=#": 6787,
      "\\=": 6788,
      "/:": 6789,
      "%+": 6790,
      "ih": 6791,
      "qs": 6792,
      "<;": 6793,
      "breach": 6794,
      "\"$": 6795,
      "\"?": 6796,
      "##idge": 6797,
      "highligh": 6798,
      "biggest": 6799,
      "uq": 6800,
      "accur": 6801,
      "xy": 6802,
      "#]": 6803,
      ":$": 6804,
      "np": 6805,
      "rl": 6806,
      "/&": 6807,
      "expir": 6808,
      "+>": 6809,
      "feel": 6810,
      "##rs": 6811,
      ".;": 6812,
      "@+": 6813,
      "[\"": 6814,
      "!/": 6815,
      "##acter": 6816,
      "pj": 6817,
      "secret": 6818,
      "jj": 6819,
      "association": 6820,
      "cat": 6821,
      "`/": 6822,
      "##iwan": 6823,
      "regional": 6824,
      "zg": 6825,
      "[&": 6826,
      "(]": 6827,
      "ld": 6828,
      "bv": 6829,
      "tf": 6830,
      "nu": 6831,
      "ik": 6832,
      "/@": 6833,
      "amendments": 6834,
      ",'": 6835,
      "!(": 6836,
      "$]": 6837,
      "preparation": 6838,
      "taiwan": 6839,
      "bj": 6840,
      "distribut": 6841,
      "==": 6842,
      "!\\": 6843,
      "xk": 6844,
      "announce": 6845,
      "xj": 6846,
      "_l": 6847,
      "(@": 6848,
      "`#": 6849,
      "':": 6850,
      "xc": 6851,
      "manufacturers": 6852,
      "placement": 6853,
      "ship": 6854,
      "<#": 6855,
      "!\"": 6856,
      "mic": 6857,
      ">]": 6858,
      "]%": 6859,
      "dt": 6860,
      "##ams": 6861,
      "jw": 6862,
      "qz": 6863,
      "incremental": 6864,
      "efficiency": 6865,
      "(\\": 6866,
      "\\;": 6867,
      "`'": 6868,
      "sj": 6869,
      "eth": 6870,
      "&,": 6871,
      "organic": 6872,
      "$@": 6873,
      "##ered": 6874,
      "-!": 6875,
      ",(": 6876,
      "owner": 6877,
      "libor": 6878,
      "bt": 6879,
      "ew": 6880,
      "?-": 6881,
      "%=": 6882,
      "occurred": 6883,
      "advisory": 6884,
      "_s": 6885,
      "pw": 6886,
      "#(": 6887,
      "dx": 6888,
      "-(": 6889,
      "ds": 6890,
      "=%": 6891,
      "yk": 6892,
      "px": 6893,
      "frame": 6894,
      "accrual": 6895,
      "+?": 6896,
      "feet": 6897,
      "##vision": 6898,
      "interp": 6899,
      "'?": 6900,
      "%'": 6901,
      "_a": 6902,
      "&>": 6903,
      "kg": 6904,
      ";/": 6905,
      ">%": 6906,
      ":\\": 6907,
      "category": 6908,
      "won": 6909,
      "apply": 6910,
      "(,": 6911,
      ";\"": 6912,
      "*,": 6913,
      "$\\": 6914,
      "bf": 6915,
      "terminated": 6916,
      "##resp": 6917,
      "&?": 6918,
      "wind": 6919,
      "++": 6920,
      "bul": 6921,
      "##ban": 6922,
      "ie": 6923,
      "oj": 6924,
      "dh": 6925,
      "hm": 6926,
      "fw": 6927,
      "&\"": 6928,
      "uv": 6929,
      ";#": 6930,
      "uh": 6931,
      "arrangement": 6932,
      "#;": 6933,
      "nyse": 6934,
      "*\\": 6935,
      ";\\": 6936,
      "statutory": 6937,
      ",=": 6938,
      "##agn": 6939,
      "equities": 6940,
      "#?": 6941,
      "!;": 6942,
      "+=": 6943,
      "jm": 6944,
      "\\)": 6945,
      "qw": 6946,
      ">^": 6947,
      "+&": 6948,
      "xp": 6949,
      "^@": 6950,
      "?=": 6951,
      "##ervable": 6952,
      "+]": 6953,
      "_r": 6954,
      "reb": 6955,
      "\"/": 6956,
      "sectors": 6957,
      "nb": 6958,
      "tt": 6959,
      "prospect": 6960,
      "'%": 6961,
      "+*": 6962,
      "overs": 6963,
      "rw": 6964,
      "zk": 6965,
      "()": 6966,
      "wn": 6967,
      ",)": 6968,
      "=*": 6969,
      "create": 6970,
      "rk": 6971,
      "thereof": 6972,
      "\">": 6973,
      "qx": 6974,
      "<[": 6975,
      "write": 6976,
      "wz": 6977,
      "paul": 6978,
      ">;": 6979,
      "%:": 6980,
      ">+": 6981,
      "lg": 6982,
      "?\"": 6983,
      "##istics": 6984,
      "consumers": 6985,
      "#/": 6986,
      "metric": 6987,
      "impaired": 6988,
      "#@": 6989,
      ">$": 6990,
      "'(": 6991,
      "representing": 6992,
      "$-": 6993,
      "robert": 6994,
      "declared": 6995,
      "xn": 6996,
      ",>": 6997,
      "xm": 6998,
      "uw": 6999,
      "exam": 7000,
      "speak": 7001,
      "##^^^^^^^^": 7002,
      "##stre": 7003,
      "%/": 7004,
      "(!": 7005,
      "canadian": 7006,
      ")\\": 7007,
      "vl": 7008,
      ".]": 7009,
      "audits": 7010,
      "=!": 7011,
      "numbers": 7012,
      "moment": 7013,
      ")?": 7014,
      "fv": 7015,
      "xv": 7016,
      "+#": 7017,
      "wq": 7018,
      "gx": 7019,
      "lat": 7020,
      ">)": 7021,
      "zy": 7022,
      "=,": 7023,
      ":.": 7024,
      "hw": 7025,
      "flex": 7026,
      "shif": 7027,
      "definition": 7028,
      "australia": 7029,
      "\"*": 7030,
      "hous": 7031,
      "vv": 7032,
      "ck": 7033,
      "##ann": 7034,
      ",;": 7035,
      "degree": 7036,
      "@?": 7037,
      "blue": 7038,
      ">[": 7039,
      "`(": 7040,
      "vz": 7041,
      ";+": 7042,
      "pq": 7043,
      "wu": 7044,
      ",/": 7045,
      "rj": 7046,
      "tradem": 7047,
      "tb": 7048,
      "py": 7049,
      ":)": 7050,
      "leased": 7051,
      "##anged": 7052,
      "rf": 7053,
      "=[": 7054,
      "'&": 7055,
      "tier": 7056,
      "-^": 7057,
      "dl": 7058,
      "advantage": 7059,
      ")=": 7060,
      "jn": 7061,
      "\":": 7062,
      "\\'": 7063,
      "ue": 7064,
      "gq": 7065,
      "vc": 7066,
      "visit": 7067,
      "\\%": 7068,
      "rc": 7069,
      "+\\": 7070,
      "oy": 7071,
      "`.": 7072,
      "vt": 7073,
      "zw": 7074,
      "\\#": 7075,
      "wv": 7076,
      "](": 7077,
      "kc": 7078,
      "ay": 7079,
      "*+": 7080,
      "@^": 7081,
      "fg": 7082,
      "f_": 7083,
      "<-": 7084,
      "decisions": 7085,
      "&:": 7086,
      "ql": 7087,
      "park": 7088,
      "/,": 7089,
      "objectives": 7090,
      "counterpar": 7091,
      "gt": 7092,
      ".&": 7093,
      "ig": 7094,
      "qm": 7095,
      "applied": 7096,
      "trustee": 7097,
      "#:": 7098,
      "l_": 7099,
      "charged": 7100,
      "@]": 7101,
      "advances": 7102,
      "eh": 7103,
      "%]": 7104,
      "wire": 7105,
      "*#": 7106,
      "fj": 7107,
      "![": 7108,
      "uncon": 7109,
      "@'": 7110,
      "referred": 7111,
      "nx": 7112,
      "designated": 7113,
      "##che": 7114,
      "vj": 7115,
      "reimbursement": 7116,
      "df": 7117,
      "'.": 7118,
      "doubt": 7119,
      "##cer": 7120,
      "'#": 7121,
      "iw": 7122,
      "protect": 7123,
      "bs": 7124,
      "district": 7125,
      "[,": 7126,
      "[(": 7127,
      "struct": 7128,
      "_f": 7129,
      "xz": 7130,
      "yy": 7131,
      "rq": 7132,
      "<:": 7133,
      "ij": 7134,
      "##down": 7135,
      ",]": 7136,
      ",@": 7137,
      "rx": 7138,
      "%%%%": 7139,
      "kf": 7140,
      "$>": 7141,
      "yo": 7142,
      "@$": 7143,
      "=========": 7144,
      "]\"": 7145,
      "users": 7146,
      "weather": 7147,
      "sequ": 7148,
      "!@": 7149,
      "+/": 7150,
      "&*": 7151,
      "geor": 7152,
      "aj": 7153,
      "pz": 7154,
      "wk": 7155,
      "fz": 7156,
      "wj": 7157,
      "##kyo": 7158,
      "willi": 7159,
      "words": 7160,
      "tl": 7161,
      "*'": 7162,
      "rap": 7163,
      "determining": 7164,
      "##ida": 7165,
      "yq": 7166,
      "@>": 7167,
      "hd": 7168,
      "xb": 7169,
      "zo": 7170,
      "##onstr": 7171,
      "concer": 7172,
      "studies": 7173,
      "/>": 7174,
      "*.": 7175,
      ")>": 7176,
      "wc": 7177,
      "processes": 7178,
      "cu": 7179,
      "*^": 7180,
      "ipo": 7181,
      "qk": 7182,
      "@-": 7183,
      "organizations": 7184,
      "(*": 7185,
      "*[": 7186,
      "buying": 7187,
      "\"+": 7188,
      "yg": 7189,
      "kb": 7190,
      "*$": 7191,
      "ua": 7192,
      "suite": 7193,
      "+$": 7194,
      "##isc": 7195,
      "$\"": 7196,
      "ux": 7197,
      "&[": 7198,
      "dz": 7199,
      ">\"": 7200,
      "-*": 7201,
      "ai": 7202,
      "reinsurance": 7203,
      "$,": 7204,
      "ill": 7205,
      "promo": 7206,
      "publish": 7207,
      "scale": 7208,
      "yx": 7209,
      "credits": 7210,
      "qc": 7211,
      "braz": 7212,
      "everyone": 7213,
      "^,": 7214,
      "tokyo": 7215,
      "-\\": 7216,
      "##ism": 7217,
      "zz": 7218,
      "prospects": 7219,
      "planning": 7220,
      "prepaid": 7221,
      "lm": 7222,
      "raw": 7223,
      "'\"": 7224,
      "dn": 7225,
      ",^": 7226,
      ">=": 7227,
      "introduc": 7228,
      "vg": 7229,
      "morgan": 7230,
      "kh": 7231,
      "%*": 7232,
      "purchas": 7233,
      "@=": 7234,
      "lb": 7235,
      "difference": 7236,
      "$:": 7237,
      ";.": 7238,
      "&-": 7239,
      "severance": 7240,
      "oq": 7241,
      ".@": 7242,
      "&@": 7243,
      "ek": 7244,
      "llp": 7245,
      "uy": 7246,
      "inj": 7247,
      "vu": 7248,
      "lj": 7249,
      "demonstr": 7250,
      "'=": 7251,
      ",,": 7252,
      ")[": 7253,
      "'$": 7254,
      "uu": 7255,
      "?!": 7256,
      "yh": 7257,
      ">#": 7258,
      "artic": 7259,
      "gf": 7260,
      "seven": 7261,
      "getting": 7262,
      "lh": 7263,
      "##ung": 7264,
      "#)": 7265,
      "hq": 7266,
      "grew": 7267,
      "<,": 7268,
      "wo": 7269,
      "`,": 7270,
      "declined": 7271,
      "provider": 7272,
      "rn": 7273,
      "[)": 7274,
      "#[": 7275,
      "##respond": 7276,
      "/*": 7277,
      "qt": 7278,
      ":,": 7279,
      "weakness": 7280,
      "yc": 7281,
      "+[": 7282,
      "#=": 7283,
      "qr": 7284,
      "qy": 7285,
      "permit": 7286,
      "iy": 7287,
      ":!": 7288,
      "correspond": 7289,
      "##ille": 7290,
      ".!": 7291,
      "=\\": 7292,
      "bz": 7293,
      "entergy": 7294,
      "+%": 7295,
      "?*": 7296,
      "flor": 7297,
      "rz": 7298,
      "zn": 7299,
      "*>": 7300,
      "execution": 7301,
      "vf": 7302,
      "@.": 7303,
      "\\[": 7304,
      "'>": 7305,
      "rg": 7306,
      "##ada": 7307,
      "bw": 7308,
      "topic": 7309,
      "participation": 7310,
      "traders": 7311,
      "*?": 7312,
      ".+": 7313,
      "licens": 7314,
      "[!": 7315,
      "larger": 7316,
      "vp": 7317,
      "request": 7318,
      "hong": 7319,
      "$%": 7320,
      "franchise": 7321,
      ";*": 7322,
      "##uck": 7323,
      "%^": 7324,
      "centers": 7325,
      "union": 7326,
      "@;": 7327,
      "%#": 7328,
      ":%": 7329,
      ".^": 7330,
      "invested": 7331,
      "-[": 7332,
      "responsibility": 7333,
      "ej": 7334,
      "ls": 7335,
      "`)": 7336,
      "#$": 7337,
      "affil": 7338,
      "gk": 7339,
      "live": 7340,
      "##perform": 7341,
      "train": 7342,
      "/.": 7343,
      "]$": 7344,
      "\"-": 7345,
      "$;": 7346,
      ",:": 7347,
      "+,": 7348,
      "od": 7349,
      "*=": 7350,
      "brazil": 7351,
      "ws": 7352,
      "disp": 7353,
      "gg": 7354,
      "qn": 7355,
      "perm": 7356,
      "calculation": 7357,
      "(;": 7358,
      "dur": 7359,
      "@:": 7360,
      "[@": 7361,
      "xh": 7362,
      "?(": 7363,
      "#+": 7364,
      "og": 7365,
      "guarantee": 7366,
      "#*": 7367,
      "prepay": 7368,
      "audited": 7369,
      "russ": 7370,
      "##irm": 7371,
      "talked": 7372,
      "evidence": 7373,
      "relatively": 7374,
      "/=": 7375,
      ",!": 7376,
      "\"]": 7377,
      "^!": 7378,
      "',": 7379,
      "vend": 7380,
      "#&": 7381,
      "jd": 7382,
      "involved": 7383,
      "wx": 7384,
      "rup": 7385,
      "rp": 7386,
      "expressed": 7387,
      "xd": 7388,
      "##ception": 7389,
      "##eed": 7390,
      "jq": 7391,
      ",%": 7392,
      "specialty": 7393,
      "wd": 7394,
      "lw": 7395,
      "*%": 7396,
      "b_": 7397,
      "aq": 7398,
      "ci": 7399,
      "xq": 7400,
      "=(": 7401,
      "%\"": 7402,
      "##oming": 7403,
      "+)": 7404,
      "mineral": 7405,
      "@/": 7406,
      "`&": 7407,
      ",+": 7408,
      "##inted": 7409,
      "##dddd": 7410,
      "yz": 7411,
      "!&": 7412,
      "$^": 7413,
      "!=": 7414,
      "wes": 7415,
      "arising": 7416,
      "qd": 7417,
      "ao": 7418,
      "##isable": 7419,
      "@*": 7420,
      "@(": 7421,
      "worth": 7422,
      "projections": 7423,
      "periodic": 7424,
      "uf": 7425,
      "always": 7426,
      "wp": 7427,
      "counsel": 7428,
      "political": 7429,
      "<*": 7430,
      "\\@": 7431,
      "%&": 7432,
      "zq": 7433,
      "character": 7434,
      "*:": 7435,
      "!:": 7436,
      "##eding": 7437,
      "&&": 7438,
      "force": 7439,
      "imm": 7440,
      "##utation": 7441,
      "qj": 7442,
      "<+": 7443,
      "roll": 7444,
      "kx": 7445,
      "rb": 7446,
      "wal": 7447,
      "\"%": 7448,
      "<@": 7449,
      "dk": 7450,
      "yj": 7451,
      "ital": 7452,
      "assist": 7453,
      "*!": 7454,
      "esp": 7455,
      "##vals": 7456,
      "*;": 7457,
      "!?": 7458,
      "zd": 7459,
      "partnerships": 7460,
      "'*": 7461,
      "cho": 7462,
      "#,": 7463,
      "wholesale": 7464,
      "%[": 7465,
      "##ledge": 7466,
      ">@": 7467,
      "#%": 7468,
      "royalty": 7469,
      "extern": 7470,
      "&^": 7471,
      "?.": 7472,
      "*@": 7473,
      "##umb": 7474,
      "proble": 7475,
      "achieved": 7476,
      "reach": 7477,
      "conform": 7478,
      "\";": 7479,
      "pleased": 7480,
      "lives": 7481,
      "##der": 7482,
      "##after": 7483,
      "##otes": 7484,
      "expire": 7485,
      "susp": 7486,
      "tangible": 7487,
      "tou": 7488,
      "+(": 7489,
      "&'": 7490,
      "+-": 7491,
      "##news": 7492,
      "hour": 7493,
      "xr": 7494,
      "##interest": 7495,
      ";,": 7496,
      ",*": 7497,
      "dq": 7498,
      "##ifications": 7499,
      "foregoing": 7500,
      "log": 7501,
      "[$": 7502,
      ".\\": 7503,
      "$/": 7504,
      "funded": 7505,
      "?&": 7506,
      "pop": 7507,
      "exercised": 7508,
      "rad": 7509,
      "##________________________________": 7510,
      "backed": 7511,
      "yv": 7512,
      ";)": 7513,
      "numer": 7514,
      "ffo": 7515,
      "ys": 7516,
      ";!": 7517,
      "ae": 7518,
      "human": 7519,
      "bq": 7520,
      ";(": 7521,
      "\"&": 7522,
      "?)": 7523,
      "##ma": 7524,
      "telecom": 7525,
      "collectively": 7526,
      "vh": 7527,
      "yw": 7528,
      ".%": 7529,
      ">\\": 7530,
      "zv": 7531,
      "jg": 7532,
      "'+": 7533,
      "&(": 7534,
      "\"\\": 7535,
      "mal": 7536,
      "\\!": 7537,
      "$)": 7538,
      ",[": 7539,
      "\"^": 7540,
      "maintaining": 7541,
      "%\\": 7542,
      "branch": 7543,
      "parts": 7544,
      ",-": 7545,
      "rein": 7546,
      "ei": 7547,
      "&\\": 7548,
      "xs": 7549,
      "zj": 7550,
      "currencies": 7551,
      "?@": 7552,
      ".=": 7553,
      "petro": 7554,
      "hx": 7555,
      "\\\"": 7556,
      "dir": 7557,
      "wt": 7558,
      "@[": 7559,
      ">!": 7560,
      "break": 7561,
      "\"[": 7562,
      "*&": 7563,
      "xu": 7564,
      "'@": 7565,
      "vr": 7566,
      "+.": 7567,
      "yn": 7568,
      "devices": 7569,
      "(:": 7570,
      "implementation": 7571,
      "reorgan": 7572,
      ",.": 7573,
      "understand": 7574,
      "concerning": 7575,
      "exercisable": 7576,
      "##istic": 7577,
      "qg": 7578,
      "offered": 7579,
      "vest": 7580,
      "##oles": 7581,
      "xw": 7582,
      "ventures": 7583,
      "ka": 7584,
      "jc": 7585,
      "qp": 7586,
      "rt": 7587,
      "!#": 7588,
      "ym": 7589,
      "lz": 7590,
      "tenant": 7591,
      "hf": 7592,
      "damages": 7593,
      "cross": 7594,
      "disposal": 7595,
      "+!": 7596,
      "affiliate": 7597,
      "#-": 7598,
      "\"=": 7599,
      "expiration": 7600,
      "#>": 7601,
      "oo": 7602,
      "##ring": 7603,
      "##att": 7604,
      "therapeu": 7605,
      "kt": 7606,
      "hn": 7607,
      "impos": 7608,
      "<%": 7609,
      "zt": 7610,
      "vb": 7611,
      "\\&": 7612,
      "jy": 7613,
      "&)": 7614,
      "nearly": 7615,
      "hotel": 7616,
      "rapid": 7617,
      "(?": 7618,
      "##emember": 7619,
      "paper": 7620,
      "!.": 7621,
      "zx": 7622,
      ":(": 7623,
      "kong": 7624,
      "servicing": 7625,
      "hop": 7626,
      "##where": 7627,
      "ub": 7628,
      "secretary": 7629,
      "comprised": 7630,
      "@)": 7631,
      "road": 7632,
      "&=": 7633,
      "travel": 7634,
      "!>": 7635,
      "$[": 7636,
      "mut": 7637,
      "fb": 7638,
      "reductions": 7639,
      "##ero": 7640,
      "clar": 7641,
      ";@": 7642,
      "grants": 7643,
      ",&": 7644,
      "factor": 7645,
      "!-": 7646,
      "$+": 7647,
      "!+": 7648,
      "-------------": 7649,
      "highest": 7650,
      "ou": 7651,
      "##ique": 7652,
      "represented": 7653,
      "iu": 7654,
      "lq": 7655,
      "*-": 7656,
      "bancorp": 7657,
      "&;": 7658,
      "zf": 7659,
      "dp": 7660,
      "##place": 7661,
      "annually": 7662,
      "(=": 7663,
      "else": 7664,
      "xf": 7665,
      "delays": 7666,
      "##oud": 7667,
      "##endar": 7668,
      "tradition": 7669,
      "spl": 7670,
      "noted": 7671,
      "housing": 7672,
      "chris": 7673,
      "<)": 7674,
      "yf": 7675,
      "##ene": 7676,
      "depending": 7677,
      "wf": 7678,
      "milest": 7679,
      "prohib": 7680,
      "assign": 7681,
      "thing": 7682,
      "!,": 7683,
      "calendar": 7684,
      "regular": 7685,
      "sets": 7686,
      "starting": 7687,
      "asp": 7688,
      "qh": 7689,
      "jurisdictions": 7690,
      "_e": 7691,
      "outcome": 7692,
      "jf": 7693,
      "##ounds": 7694,
      "!*": 7695,
      "wb": 7696,
      "recomm": 7697,
      "]@": 7698,
      "pharmaceutical": 7699,
      "house": 7700,
      "<(": 7701,
      ";$": 7702,
      "sun": 7703,
      "licenses": 7704,
      "engaged": 7705,
      "uo": 7706,
      "chin": 7707,
      "caution": 7708,
      "jx": 7709,
      "lx": 7710,
      "firms": 7711,
      "quite": 7712,
      "=@": 7713,
      "xg": 7714,
      "fk": 7715,
      "$*": 7716,
      "historically": 7717,
      "xi": 7718,
      "bkl": 7719,
      "zb": 7720,
      "##uting": 7721,
      "hb": 7722,
      "mill": 7723,
      "barre": 7724,
      "ee": 7725,
      "ud": 7726,
      "ti": 7727,
      "!`": 7728,
      "jt": 7729,
      "largely": 7730,
      "wel": 7731,
      "##dle": 7732,
      "framework": 7733,
      "limitation": 7734,
      "external": 7735,
      "\"'": 7736,
      "##aid": 7737,
      "xt": 7738,
      "satisf": 7739,
      "why": 7740,
      "answer": 7741,
      "<\"": 7742,
      "schedules": 7743,
      "##ville": 7744,
      "zs": 7745,
      "florida": 7746,
      "fitch": 7747,
      "mine": 7748,
      "transmission": 7749,
      "##tivity": 7750,
      "appoint": 7751,
      "##emp": 7752,
      "derived": 7753,
      "chemical": 7754,
      "##ticals": 7755,
      "*)": 7756,
      "(>": 7757,
      "targets": 7758,
      "%$": 7759,
      "kd": 7760,
      "began": 7761,
      "swaps": 7762,
      "situ": 7763,
      "posted": 7764,
      "brok": 7765,
      "jh": 7766,
      "-@": 7767,
      "committed": 7768,
      "joining": 7769,
      "allows": 7770,
      "##urer": 7771,
      "xl": 7772,
      "often": 7773,
      "forfe": 7774,
      "southern": 7775,
      "+@": 7776,
      "yields": 7777,
      "shown": 7778,
      "appe": 7779,
      "jl": 7780,
      "wl": 7781,
      "##ives": 7782,
      "persp": 7783,
      "&+": 7784,
      "##ari": 7785,
      "liquidation": 7786,
      "##gress": 7787,
      "tur": 7788,
      "makes": 7789,
      "individuals": 7790,
      "%@": 7791,
      "wg": 7792,
      "win": 7793,
      "tech": 7794,
      "jb": 7795,
      "##aming": 7796,
      "shipp": 7797,
      "##iana": 7798,
      "##ems": 7799,
      "alm": 7800,
      "hg": 7801,
      "entr": 7802,
      "js": 7803,
      "wi": 7804,
      "*(": 7805,
      "thereafter": 7806,
      "converted": 7807,
      "ratios": 7808,
      "`@": 7809,
      "discl": 7810,
      "overview": 7811,
      "fp": 7812,
      "backlog": 7813,
      "`+": 7814,
      "lr": 7815,
      "franc": 7816,
      "produce": 7817,
      "location": 7818,
      "commissions": 7819,
      "_i": 7820,
      "tender": 7821,
      "master": 7822,
      "signature": 7823,
      "lou": 7824,
      "disease": 7825,
      "emb": 7826,
      "##ford": 7827,
      "confidence": 7828,
      "zl": 7829,
      "excludes": 7830,
      "submitted": 7831,
      "##acting": 7832,
      "fax": 7833,
      "too": 7834,
      "deploy": 7835,
      "controlling": 7836,
      "@%": 7837,
      "educ": 7838,
      "qf": 7839,
      "mass": 7840,
      "##ars": 7841,
      "contem": 7842,
      "@&": 7843,
      "ui": 7844,
      "vehicle": 7845,
      "constant": 7846,
      "##ient": 7847,
      "##`\"@`": 7848,
      "rely": 7849,
      "knowledge": 7850,
      "towards": 7851,
      "reflecting": 7852,
      "interpret": 7853,
      "remained": 7854,
      "defend": 7855,
      "networks": 7856,
      "totaling": 7857,
      "za": 7858,
      "leasing": 7859,
      "espec": 7860,
      "##ka": 7861,
      "##encing": 7862,
      "seasonal": 7863,
      "##solidated": 7864,
      "##<>": 7865,
      "attractive": 7866,
      "especially": 7867,
      "##lem": 7868,
      "##vest": 7869,
      "approvals": 7870,
      "##inations": 7871,
      "goals": 7872,
      "spot": 7873,
      "cents": 7874,
      "extend": 7875,
      "eo": 7876,
      "hl": 7877,
      "conj": 7878,
      "chinese": 7879,
      "cancer": 7880,
      "nom": 7881,
      "meaningful": 7882,
      "prospectus": 7883,
      "yp": 7884,
      "##ki": 7885,
      "fig": 7886,
      "translation": 7887,
      "rather": 7888,
      "yb": 7889,
      "##urrence": 7890,
      "contingencies": 7891,
      "contributed": 7892,
      "carryfor": 7893,
      "##lear": 7894,
      "perspective": 7895,
      "rang": 7896,
      "maker": 7897,
      "lost": 7898,
      "richard": 7899,
      "dow": 7900,
      "terminate": 7901,
      "yl": 7902,
      "dut": 7903,
      "##stream": 7904,
      "##acted": 7905,
      "lf": 7906,
      "instructions": 7907,
      "ever": 7908,
      "metals": 7909,
      "legislation": 7910,
      "cloud": 7911,
      "concerns": 7912,
      "offers": 7913,
      "geographic": 7914,
      "changing": 7915,
      "fairly": 7916,
      "io": 7917,
      "##oper": 7918,
      "repayment": 7919,
      "guarantees": 7920,
      ")@": 7921,
      "unrec": 7922,
      "##ffs": 7923,
      "##ancing": 7924,
      "clean": 7925,
      "understanding": 7926,
      "sites": 7927,
      "owns": 7928,
      "indices": 7929,
      "highlights": 7930,
      "became": 7931,
      "##<=": 7932,
      "korea": 7933,
      "##porting": 7934,
      "county": 7935,
      "valid": 7936,
      "##hen": 7937,
      "encour": 7938,
      "jones": 7939,
      "participate": 7940,
      "micro": 7941,
      "nev": 7942,
      "redeemable": 7943,
      "prelimin": 7944,
      "manufacture": 7945,
      "modified": 7946,
      "budg": 7947,
      "##<'": 7948,
      "occupancy": 7949,
      "##craft": 7950,
      "##.......": 7951,
      "fif": 7952,
      "executives": 7953,
      "challenges": 7954,
      "lack": 7955,
      "##tingu": 7956,
      "rising": 7957,
      "difficul": 7958,
      "listing": 7959,
      "macro": 7960,
      "plain": 7961,
      "history": 7962,
      "enable": 7963,
      "##vin": 7964,
      "ki": 7965,
      "instrument": 7966,
      "influ": 7967,
      "stable": 7968,
      "lawsu": 7969,
      "noninterest": 7970,
      "concluded": 7971,
      "dyn": 7972,
      "operated": 7973,
      "conjunction": 7974,
      "reliance": 7975,
      "prime": 7976,
      "##asons": 7977,
      "affecting": 7978,
      "##lock": 7979,
      "vehicles": 7980,
      "rig": 7981,
      "##tise": 7982,
      "collection": 7983,
      "needed": 7984,
      "story": 7985,
      "##ea": 7986,
      "anything": 7987,
      "numerous": 7988,
      "requirement": 7989,
      "bel": 7990,
      "##elf": 7991,
      "annualized": 7992,
      "almost": 7993,
      "lien": 7994,
      "impacts": 7995,
      "##<]": 7996,
      "##vey": 7997,
      "##enn": 7998,
      "stay": 7999,
      "##ognized": 8000,
      "ground": 8001,
      "##empt": 8002,
      "##___": 8003,
      "inception": 8004,
      "records": 8005,
      "##itative": 8006,
      "##ulf": 8007,
      "improving": 8008,
      "implied": 8009,
      "##<\\": 8010,
      "preceding": 8011,
      "brokers": 8012,
      "pul": 8013,
      "preliminary": 8014,
      "subscription": 8015,
      "##esh": 8016,
      "nuc": 8017,
      "middle": 8018,
      "licensing": 8019,
      "remo": 8020,
      "##<#": 8021,
      "tom": 8022,
      "(`": 8023,
      "zr": 8024,
      "appear": 8025,
      "age": 8026,
      "##di": 8027,
      "##eas": 8028,
      "borrowers": 8029,
      "unpaid": 8030,
      "--------": 8031,
      "xo": 8032,
      "generating": 8033,
      "##ger": 8034,
      "qi": 8035,
      "quanti": 8036,
      "##ibles": 8037,
      "qb": 8038,
      "\"`": 8039,
      "##fi": 8040,
      "old": 8041,
      "intends": 8042,
      "released": 8043,
      "official": 8044,
      "##oph": 8045,
      "yi": 8046,
      "categories": 8047,
      "ji": 8048,
      "enhan": 8049,
      "camp": 8050,
      "unrecognized": 8051,
      "efficient": 8052,
      "contempl": 8053,
      "constitute": 8054,
      "##apor": 8055,
      "##under": 8056,
      "ultimately": 8057,
      "`*`\"@`": 8058,
      "managements": 8059,
      "##house": 8060,
      "leadership": 8061,
      "ja": 8062,
      "fhl": 8063,
      "budget": 8064,
      "electronic": 8065,
      "regulated": 8066,
      "nav": 8067,
      "evaluated": 8068,
      "minor": 8069,
      "mand": 8070,
      "##<^": 8071,
      "scope": 8072,
      "judgments": 8073,
      "computer": 8074,
      "eight": 8075,
      "damage": 8076,
      "aircraft": 8077,
      "##rew": 8078,
      "letters": 8079,
      "##zz": 8080,
      "zp": 8081,
      "certification": 8082,
      "traditional": 8083,
      "qo": 8084,
      "trying": 8085,
      "symb": 8086,
      "auto": 8087,
      "emission": 8088,
      "##vested": 8089,
      "unconsolidated": 8090,
      "##izon": 8091,
      "presents": 8092,
      "##angibles": 8093,
      "complying": 8094,
      "oi": 8095,
      "ess": 8096,
      "cycle": 8097,
      "atl": 8098,
      "forecasts": 8099,
      "stake": 8100,
      "intangibles": 8101,
      "nevada": 8102,
      "sum": 8103,
      "remarks": 8104,
      "farm": 8105,
      "thomas": 8106,
      "licensed": 8107,
      "##wood": 8108,
      "executed": 8109,
      "corresponding": 8110,
      "oe": 8111,
      "depends": 8112,
      "webc": 8113,
      "##quarter": 8114,
      "##pro": 8115,
      "valued": 8116,
      "##reme": 8117,
      "hedges": 8118,
      "attract": 8119,
      "##------------": 8120,
      "instruction": 8121,
      "earning": 8122,
      "##abil": 8123,
      "unique": 8124,
      "oa": 8125,
      "zi": 8126,
      ".........................": 8127,
      "##apore": 8128,
      "fraud": 8129,
      "measurements": 8130,
      "suit": 8131,
      "singapore": 8132,
      "solicitation": 8133,
      "gainers": 8134,
      "oct": 8135,
      "deter": 8136,
      "operates": 8137,
      "goal": 8138,
      "`>": 8139,
      "##unt": 8140,
      "xe": 8141,
      "declines": 8142,
      "##<$": 8143,
      "##tainment": 8144,
      "guaranteed": 8145,
      "driving": 8146,
      "probable": 8147,
      "infring": 8148,
      "maintained": 8149,
      "prescr": 8150,
      "confidential": 8151,
      "spend": 8152,
      "##west": 8153,
      "##law": 8154,
      "wond": 8155,
      "limits": 8156,
      "ia": 8157,
      "detailed": 8158,
      "appointed": 8159,
      "cancell": 8160,
      "##ilt": 8161,
      "##value": 8162,
      "stead": 8163,
      "##ging": 8164,
      "gained": 8165,
      "proposal": 8166,
      "metrics": 8167,
      "##more": 8168,
      "##ony": 8169,
      "split": 8170,
      "louis": 8171,
      "headquarter": 8172,
      "methods": 8173,
      "execute": 8174,
      "##ze": 8175,
      "reducing": 8176,
      "##aps": 8177,
      "##cs": 8178,
      "latest": 8179,
      "monetary": 8180,
      "excluded": 8181,
      "transferred": 8182,
      "reasons": 8183,
      "ya": 8184,
      "hor": 8185,
      "discounted": 8186,
      "sense": 8187,
      "pol": 8188,
      "inability": 8189,
      "##tinguish": 8190,
      "##stock": 8191,
      "mach": 8192,
      "communities": 8193,
      "assuming": 8194,
      "scott": 8195,
      "marketplace": 8196,
      "western": 8197,
      "agents": 8198,
      "device": 8199,
      "phil": 8200,
      "##argo": 8201,
      "facts": 8202,
      "##<;": 8203,
      "deduc": 8204,
      "front": 8205,
      "grade": 8206,
      "stronger": 8207,
      "bur": 8208,
      "extensive": 8209,
      "fleet": 8210,
      "announcing": 8211,
      "mainly": 8212,
      "##ho": 8213,
      "appointment": 8214,
      "consisted": 8215,
      "##ana": 8216,
      "opening": 8217,
      "##ado": 8218,
      "conven": 8219,
      "institutional": 8220,
      "predic": 8221,
      "adding": 8222,
      "dilutive": 8223,
      "floor": 8224,
      "##ota": 8225,
      "##body": 8226,
      "qe": 8227,
      "stan": 8228,
      "acceptance": 8229,
      "bad": 8230,
      "ea": 8231,
      "##eful": 8232,
      "king": 8233,
      "statis": 8234,
      "debtors": 8235,
      "pharmaceuticals": 8236,
      "participant": 8237,
      "##field": 8238,
      "showed": 8239,
      "##<:": 8240,
      "utilization": 8241,
      "webcast": 8242,
      "started": 8243,
      "supplies": 8244,
      "copper": 8245,
      "allowed": 8246,
      "indemnification": 8247,
      "##eter": 8248,
      "heavy": 8249,
      "controlled": 8250,
      "allowances": 8251,
      "advisors": 8252,
      "advisor": 8253,
      "xa": 8254,
      "oversight": 8255,
      "push": 8256,
      "conflic": 8257,
      "##issory": 8258,
      "##<[": 8259,
      "clearly": 8260,
      "afric": 8261,
      "wireless": 8262,
      "##otive": 8263,
      "utilities": 8264,
      "german": 8265,
      "mec": 8266,
      "expanded": 8267,
      "relate": 8268,
      "defer": 8269,
      "germany": 8270,
      "secure": 8271,
      "principally": 8272,
      "respond": 8273,
      "marketable": 8274,
      "paying": 8275,
      "##<@": 8276,
      "watch": 8277,
      "plants": 8278,
      "srt": 8279,
      "aven": 8280,
      "promissory": 8281,
      "repair": 8282,
      "##mentmember": 8283,
      "distributors": 8284,
      "`?": 8285,
      "brian": 8286,
      "##<,": 8287,
      "##lain": 8288,
      "medicare": 8289,
      "##itz": 8290,
      "(#`@": 8291,
      "models": 8292,
      "exist": 8293,
      "came": 8294,
      "ore": 8295,
      "securitiz": 8296,
      "men": 8297,
      "mike": 8298,
      "room": 8299,
      "##gu": 8300,
      "relates": 8301,
      "insured": 8302,
      "upgr": 8303,
      "turnover": 8304,
      "implemented": 8305,
      "ultimate": 8306,
      "civ": 8307,
      "tenants": 8308,
      "thousand": 8309,
      "symbol": 8310,
      "via": 8311,
      "soon": 8312,
      "`^": 8313,
      "##lin": 8314,
      "virgin": 8315,
      "err": 8316,
      "william": 8317,
      "produced": 8318,
      "yuan": 8319,
      "priority": 8320,
      "receipt": 8321,
      "label": 8322,
      "automotive": 8323,
      "##lies": 8324,
      "obtaining": 8325,
      "fte": 8326,
      "hyd": 8327,
      "##ania": 8328,
      "##`'": 8329,
      "called": 8330,
      "##unctions": 8331,
      "`\\": 8332,
      "nuclear": 8333,
      "concentr": 8334,
      "##<-": 8335,
      "seeking": 8336,
      "necessarily": 8337,
      "commercialization": 8338,
      "reverse": 8339,
      "vide": 8340,
      "##ench": 8341,
      "customary": 8342,
      "self": 8343,
      "fdic": 8344,
      "##lex": 8345,
      "##ges": 8346,
      "##tile": 8347,
      "carried": 8348,
      "managers": 8349,
      "##oma": 8350,
      "regions": 8351,
      "##`#": 8352,
      "unch": 8353,
      "nonc": 8354,
      "match": 8355,
      "##<*": 8356,
      "complain": 8357,
      "immediate": 8358,
      "raised": 8359,
      "##ought": 8360,
      "brokerage": 8361,
      "finally": 8362,
      "las": 8363,
      "intr": 8364,
      "annum": 8365,
      "losers": 8366,
      "miss": 8367,
      "attention": 8368,
      "commerce": 8369,
      "poll": 8370,
      "##wind": 8371,
      "stx": 8372,
      "whose": 8373,
      "merchand": 8374,
      "-----------": 8375,
      "##company": 8376,
      "##illed": 8377,
      "revers": 8378,
      "wanted": 8379,
      "proved": 8380,
      "##draw": 8381,
      "expertise": 8382,
      "draw": 8383,
      "##<(": 8384,
      "renewal": 8385,
      "qa": 8386,
      "digit": 8387,
      "pool": 8388,
      "entry": 8389,
      "##retirement": 8390,
      "guide": 8391,
      "##urrent": 8392,
      "resolution": 8393,
      "guidelines": 8394,
      "tables": 8395,
      "yeah": 8396,
      "solution": 8397,
      "##la": 8398,
      "peak": 8399,
      "retention": 8400,
      "entirety": 8401,
      "electronics": 8402,
      "cris": 8403,
      "rock": 8404,
      "##bu": 8405,
      "shan": 8406,
      "doubtful": 8407,
      "job": 8408,
      "utilize": 8409,
      "virt": 8410,
      "delin": 8411,
      "----------": 8412,
      "carryforwards": 8413,
      "resource": 8414,
      "monitoring": 8415,
      "`=": 8416,
      "eastern": 8417,
      "sho": 8418,
      "tell": 8419,
      "##iced": 8420,
      "consisting": 8421,
      "welcome": 8422,
      "withdraw": 8423,
      "created": 8424,
      "treated": 8425,
      "##lated": 8426,
      "settled": 8427,
      "quickly": 8428,
      "##onom": 8429,
      "replacement": 8430,
      "##<+": 8431,
      "##<&": 8432,
      "assume": 8433,
      "occurrence": 8434,
      "giving": 8435,
      "rou": 8436,
      "associates": 8437,
      "social": 8438,
      "cfo": 8439,
      "took": 8440,
      "postretirement": 8441,
      "permits": 8442,
      "affiliated": 8443,
      "##===": 8444,
      "deterior": 8445,
      "trademarks": 8446,
      "entertainment": 8447,
      "groups": 8448,
      "extinguish": 8449,
      "realize": 8450,
      "innovation": 8451,
      "harbor": 8452,
      "usa": 8453,
      "mutual": 8454,
      "steve": 8455,
      "email": 8456,
      "correct": 8457,
      "participating": 8458,
      "##tak": 8459,
      "summarizes": 8460,
      "diagn": 8461,
      "targeted": 8462,
      "discounts": 8463,
      "placed": 8464,
      "holds": 8465,
      "solely": 8466,
      "electricity": 8467,
      "##time": 8468,
      "exceeds": 8469,
      "insp": 8470,
      "forms": 8471,
      "computed": 8472,
      "export": 8473,
      "transf": 8474,
      "producing": 8475,
      "therein": 8476,
      "momentum": 8477,
      "unchanged": 8478,
      "##pping": 8479,
      "reviewed": 8480,
      "reached": 8481,
      "mail": 8482,
      "##cap": 8483,
      "seller": 8484,
      "quan": 8485,
      "japanese": 8486,
      "##ben": 8487,
      "remind": 8488,
      ".............": 8489,
      "qualitative": 8490,
      "serves": 8491,
      "shift": 8492,
      "training": 8493,
      "hereof": 8494,
      "therapy": 8495,
      "resid": 8496,
      "dial": 8497,
      "comparison": 8498,
      "pursue": 8499,
      "pled": 8500,
      "rail": 8501,
      "##ades": 8502,
      "profile": 8503,
      "`]": 8504,
      "unfavor": 8505,
      "##gs": 8506,
      "assessing": 8507,
      "votes": 8508,
      "##va": 8509,
      "##bi": 8510,
      "collaboration": 8511,
      "deals": 8512,
      "sharp": 8513,
      "#`": 8514,
      "repurchases": 8515,
      "##mk": 8516,
      "bott": 8517,
      "##valu": 8518,
      "##ago": 8519,
      "##sequ": 8520,
      "profitable": 8521,
      "$`": 8522,
      "##zard": 8523,
      "##ghai": 8524,
      "saying": 8525,
      "cam": 8526,
      "diagnos": 8527,
      "pgl": 8528,
      "##ha": 8529,
      "talking": 8530,
      "fairvalue": 8531,
      "##<)": 8532,
      "expressly": 8533,
      "respects": 8534,
      "threat": 8535,
      "turning": 8536,
      "solar": 8537,
      "lever": 8538,
      "##portion": 8539,
      "`%`!": 8540,
      "feed": 8541,
      "drop": 8542,
      "told": 8543,
      "undertak": 8544,
      "asian": 8545,
      "##erson": 8546,
      "enforcement": 8547,
      "helped": 8548,
      "deuts": 8549,
      "thinking": 8550,
      "acceptable": 8551,
      "##<%": 8552,
      "retro": 8553,
      "shanghai": 8554,
      "##side": 8555,
      "funda": 8556,
      "##arch": 8557,
      "observable": 8558,
      "-----------------------------------------------------------------": 8559,
      "duration": 8560,
      "exclude": 8561,
      "=====": 8562,
      "consequ": 8563,
      "shor": 8564,
      "video": 8565,
      "bio": 8566,
      "hotels": 8567,
      "reorganization": 8568,
      "debentures": 8569,
      "##level": 8570,
      "civil": 8571,
      "oxley": 8572,
      "select": 8573,
      "##banes": 8574,
      "france": 8575,
      "built": 8576,
      "`:": 8577,
      "sarbanes": 8578,
      "?\\`": 8579,
      "##leum": 8580,
      "##bon": 8581,
      "initially": 8582,
      "governing": 8583,
      "mechan": 8584,
      "crown": 8585,
      "------------": 8586,
      "furthermore": 8587,
      "##orney": 8588,
      "##titative": 8589,
      "opp": 8590,
      "refund": 8591,
      "decreases": 8592,
      "subsequently": 8593,
      "never": 8594,
      "##za": 8595,
      "avenue": 8596,
      "becomes": 8597,
      "subj": 8598,
      "physical": 8599,
      "##ett": 8600,
      "separation": 8601,
      "plainti": 8602,
      "quantitative": 8603,
      "lowest": 8604,
      "##w_": 8605,
      "attorney": 8606,
      "updates": 8607,
      "##inputs": 8608,
      "homes": 8609,
      "drugs": 8610,
      "fairvalueinputs": 8611,
      "channels": 8612,
      "fairvalueinputslevel": 8613,
      "flexibility": 8614,
      "pes": 8615,
      "##iture": 8616,
      "reputation": 8617,
      "role": 8618,
      "##rick": 8619,
      "bklv": 8620,
      "gaming": 8621,
      "defense": 8622,
      "dynam": 8623,
      "##agree": 8624,
      "##lim": 8625,
      "##<\"": 8626,
      "utilized": 8627,
      "confirm": 8628,
      "##hore": 8629,
      "indicators": 8630,
      "##((": 8631,
      "functional": 8632,
      "##noon": 8633,
      "tests": 8634,
      "candidate": 8635,
      "mitig": 8636,
      "##tine": 8637,
      "french": 8638,
      "pick": 8639,
      "afternoon": 8640,
      "##ste": 8641,
      "##xi": 8642,
      "##fort": 8643,
      "expanding": 8644,
      "metal": 8645,
      "thus": 8646,
      "actu": 8647,
      "`;": 8648,
      "##ominated": 8649,
      "reviews": 8650,
      "broader": 8651,
      "`[": 8652,
      "##urt": 8653,
      "ware": 8654,
      "##aces": 8655,
      "simp": 8656,
      "jose": 8657,
      "##ares": 8658,
      "lif": 8659,
      "##yc": 8660,
      "restaurant": 8661,
      "exit": 8662,
      "semic": 8663,
      "contemplated": 8664,
      "##\\`": 8665,
      "warranty": 8666,
      "deep": 8667,
      "buildings": 8668,
      "peter": 8669,
      "semicon": 8670,
      "gulf": 8671,
      "noti": 8672,
      "misstate": 8673,
      "##jj": 8674,
      "positioned": 8675,
      "problems": 8676,
      "fast": 8677,
      "belief": 8678,
      "elsewhere": 8679,
      "involving": 8680,
      "supporting": 8681,
      "additions": 8682,
      "offshore": 8683,
      "fer": 8684,
      "##roup": 8685,
      "jump": 8686,
      "broadc": 8687,
      "deutsche": 8688,
      "capitalization": 8689,
      "##lusion": 8690,
      "distributed": 8691,
      "##une": 8692,
      "payroll": 8693,
      "enroll": 8694,
      "render": 8695,
      "scho": 8696,
      "announcement": 8697,
      "hereby": 8698,
      "##lows": 8699,
      "crisis": 8700,
      "##omb": 8701,
      "certificates": 8702,
      "education": 8703,
      "functions": 8704,
      "recommend": 8705,
      "##ecutive": 8706,
      "features": 8707,
      "independ": 8708,
      "leader": 8709,
      "rand": 8710,
      "boost": 8711,
      "extinguishment": 8712,
      "xbr": 8713,
      "opened": 8714,
      "##rought": 8715,
      "semiconduc": 8716,
      "requiring": 8717,
      "##ck": 8718,
      "productivity": 8719,
      "unfavorable": 8720,
      "separately": 8721,
      "vess": 8722,
      "jon": 8723,
      "lear": 8724,
      "vendors": 8725,
      "carol": 8726,
      "pal": 8727,
      "##ived": 8728,
      "practice": 8729,
      "exception": 8730,
      "assumption": 8731,
      "##ecur": 8732,
      "considers": 8733,
      "helpful": 8734,
      "operators": 8735,
      "##fill": 8736,
      "##take": 8737,
      "stanley": 8738,
      "petroleum": 8739,
      "alig": 8740,
      "arch": 8741,
      "##benef": 8742,
      "shows": 8743,
      "apprec": 8744,
      "consultants": 8745,
      "##ico": 8746,
      "wood": 8747,
      "supplementary": 8748,
      "effort": 8749,
      "legacy": 8750,
      "platforms": 8751,
      "##`$": 8752,
      "pace": 8753,
      "auction": 8754,
      "host": 8755,
      "##uk": 8756,
      "##lines": 8757,
      "relief": 8758,
      "australian": 8759,
      "ken": 8760,
      "##berg": 8761,
      "absol": 8762,
      "consecutive": 8763,
      "independence": 8764,
      "substit": 8765,
      "##the": 8766,
      "steady": 8767,
      "motor": 8768,
      "serving": 8769,
      "##ca": 8770,
      "trader": 8771,
      "restaurants": 8772,
      "minority": 8773,
      "##ba": 8774,
      "absolute": 8775,
      "smith": 8776,
      "cable": 8777,
      "objective": 8778,
      "##mi": 8779,
      "emissions": 8780,
      "##ounce": 8781,
      "proceeding": 8782,
      "stabil": 8783,
      "##ffic": 8784,
      "embedd": 8785,
      "wil": 8786,
      "##ats": 8787,
      "##lined": 8788,
      "shorter": 8789,
      "extreme": 8790,
      "sem": 8791,
      "##benefit": 8792,
      "greg": 8793,
      "path": 8794,
      "tor": 8795,
      "confident": 8796,
      "phone": 8797,
      "##inite": 8798,
      "manufacturer": 8799,
      "sharing": 8800,
      "appr": 8801,
      "prospective": 8802,
      "prc": 8803,
      "virginia": 8804,
      "dddde": 8805,
      "sand": 8806,
      "impairments": 8807,
      "updated": 8808,
      "holid": 8809,
      "recoverable": 8810,
      "senti": 8811,
      "agric": 8812,
      "launched": 8813,
      "mary": 8814,
      "russia": 8815,
      "enacted": 8816,
      "unus": 8817,
      "##hhhh": 8818,
      "##selves": 8819,
      "##anta": 8820,
      "hill": 8821,
      "lyn": 8822,
      ")`": 8823,
      "collect": 8824,
      "capex": 8825,
      "shipping": 8826,
      "##lands": 8827,
      "cooper": 8828,
      "hazard": 8829,
      "trig": 8830,
      "block": 8831,
      "terminal": 8832,
      "aim": 8833,
      "perman": 8834,
      "situation": 8835,
      "purchaser": 8836,
      "silver": 8837,
      "weaker": 8838,
      "supplier": 8839,
      "permanent": 8840,
      "arm": 8841,
      "tight": 8842,
      "##ster": 8843,
      "attack": 8844,
      "gather": 8845,
      "communication": 8846,
      "bylaw": 8847,
      "asser": 8848,
      "##lev": 8849,
      "##ald": 8850,
      "noi": 8851,
      "unex": 8852,
      "diversified": 8853,
      "##iel": 8854,
      "usd": 8855,
      "articles": 8856,
      "indef": 8857,
      "embedded": 8858,
      "integral": 8859,
      "appreciation": 8860,
      "aer": 8861,
      "##emb": 8862,
      "chr": 8863,
      "rough": 8864,
      "enhanced": 8865,
      "ramp": 8866,
      "##)?": 8867,
      "*`": 8868,
      "ster": 8869,
      "##mak": 8870,
      "replay": 8871,
      "jobs": 8872,
      "##night": 8873,
      "repurchased": 8874,
      "acquiring": 8875,
      "waste": 8876,
      "jim": 8877,
      "##anties": 8878,
      "##rey": 8879,
      "##gas": 8880,
      "prepayment": 8881,
      "nation": 8882,
      "workers": 8883,
      "ber": 8884,
      "accountants": 8885,
      "sentiment": 8886,
      "considering": 8887,
      "realty": 8888,
      "published": 8889,
      "reliability": 8890,
      "##ailing": 8891,
      "indefinite": 8892,
      "##ming": 8893,
      "successor": 8894,
      "satisfaction": 8895,
      "##ave": 8896,
      "nar": 8897,
      "excited": 8898,
      "##cc": 8899,
      "##seg": 8900,
      "herewith": 8901,
      "mae": 8902,
      "wondering": 8903,
      "##rop": 8904,
      "direction": 8905,
      "composite": 8906,
      "fal": 8907,
      "conformity": 8908,
      "otc": 8909,
      "penns": 8910,
      "buyer": 8911,
      "tools": 8912,
      "hou": 8913,
      "remainder": 8914,
      "%`": 8915,
      "supported": 8916,
      "finished": 8917,
      "##oo": 8918,
      ":`": 8919,
      "scienti": 8920,
      "##oid": 8921,
      "##ommunic": 8922,
      "bylaws": 8923,
      "##ites": 8924,
      "##ylv": 8925,
      "television": 8926,
      "zero": 8927,
      "-`": 8928,
      "logistics": 8929,
      "dives": 8930,
      "##!!": 8931,
      "classification": 8932,
      "ubs": 8933,
      "hier": 8934,
      "##z_": 8935,
      "reclassified": 8936,
      "assigned": 8937,
      "delivering": 8938,
      "##efully": 8939,
      "##zy": 8940,
      "hierarch": 8941,
      "##ider": 8942,
      "##ama": 8943,
      "occurs": 8944,
      "=')": 8945,
      "plc": 8946,
      "covering": 8947,
      "topnews": 8948,
      "ing": 8949,
      "length": 8950,
      "indicative": 8951,
      "setting": 8952,
      "divestit": 8953,
      "excell": 8954,
      "hours": 8955,
      "brought": 8956,
      "regulators": 8957,
      "oun": 8958,
      "xbrl": 8959,
      "##atically": 8960,
      "##usts": 8961,
      "defici": 8962,
      "salaries": 8963,
      "sensitive": 8964,
      "pennsylv": 8965,
      "]`": 8966,
      "(\"]": 8967,
      "formul": 8968,
      "therapeutics": 8969,
      "alex": 8970,
      "##..<.": 8971,
      "##.....": 8972,
      "writing": 8973,
      "challenging": 8974,
      "jack": 8975,
      "commodities": 8976,
      "revision": 8977,
      "blo": 8978,
      "submit": 8979,
      "hierarchy": 8980,
      "##ilit": 8981,
      "pron": 8982,
      "lock": 8983,
      "fteu": 8984,
      "disruptions": 8985,
      "##ount": 8986,
      "pennsylvania": 8987,
      "establishing": 8988,
      "##$$": 8989,
      "discussions": 8990,
      "sugg": 8991,
      "##inois": 8992,
      "enterprises": 8993,
      "##ara": 8994,
      "actuar": 8995,
      "duties": 8996,
      "infringe": 8997,
      "purchasing": 8998,
      "##acc": 8999,
      "warranties": 9000,
      "frx": 9001,
      "investigation": 9002,
      "indian": 9003,
      "##ug": 9004,
      "andrew": 9005,
      "##quency": 9006,
      "indirectly": 9007,
      "traffic": 9008,
      "##ext": 9009,
      "downt": 9010,
      "prefer": 9011,
      "illinois": 9012,
      "ohio": 9013,
      "superior": 9014,
      "##ersey": 9015,
      "denominated": 9016,
      "/`": 9017,
      "##ct": 9018,
      "##do": 9019,
      "packaging": 9020,
      "<`": 9021,
      "gives": 9022,
      "##riers": 9023,
      "ethics": 9024,
      "conserv": 9025,
      "representations": 9026,
      "semiconductor": 9027,
      "modest": 9028,
      "zone": 9029,
      "##ides": 9030,
      "##hood": 9031,
      "gene": 9032,
      "complaint": 9033,
      "##stone": 9034,
      "imposed": 9035,
      "expensed": 9036,
      "##unicip": 9037,
      "##roph": 9038,
      "mol": 9039,
      "goldman": 9040,
      "##uit": 9041,
      "##performing": 9042,
      "settlements": 9043,
      "resign": 9044,
      "##_x": 9045,
      "fredd": 9046,
      "dispositions": 9047,
      "##obs": 9048,
      "m_p": 9049,
      "##icians": 9050,
      "##den": 9051,
      "displ": 9052,
      "forese": 9053,
      "##ko": 9054,
      "municip": 9055,
      "##water": 9056,
      "##eco": 9057,
      "##vention": 9058,
      "'`": 9059,
      "user": 9060,
      "royalties": 9061,
      "floating": 9062,
      "fresh": 9063,
      "esc": 9064,
      "death": 9065,
      "thought": 9066,
      "jersey": 9067,
      "georg": 9068,
      "closely": 9069,
      "##ga": 9070,
      "assure": 9071,
      "telecommunic": 9072,
      "eric": 9073,
      "away": 9074,
      "robust": 9075,
      "bat": 9076,
      "river": 9077,
      "reportable": 9078,
      "##hi": 9079,
      "enough": 9080,
      "_________________": 9081,
      "remediation": 9082,
      "aggress": 9083,
      "teams": 9084,
      "##k_": 9085,
      "reserved": 9086,
      "undertake": 9087,
      "sustained": 9088,
      "enab": 9089,
      "consummation": 9090,
      "##chs": 9091,
      "ways": 9092,
      "freddie": 9093,
      "lose": 9094,
      "wai": 9095,
      "grad": 9096,
      "agricult": 9097,
      "names": 9098,
      ".`": 9099,
      "jpm": 9100,
      "aggressive": 9101,
      "##\"]": 9102,
      "##================================": 9103,
      "?`": 9104,
      "^`": 9105,
      "extra": 9106,
      "arise": 9107,
      "kevin": 9108,
      "##ya": 9109,
      "memb": 9110,
      "=`": 9111,
      "awarded": 9112,
      "##ansas": 9113,
      "##ground": 9114,
      "approve": 9115,
      "chic": 9116,
      "motion": 9117,
      "thres": 9118,
      "merchandise": 9119,
      "exists": 9120,
      "##edia": 9121,
      "##iver": 9122,
      "annu": 9123,
      "membership": 9124,
      "incentives": 9125,
      "disruption": 9126,
      "accelerate": 9127,
      "intent": 9128,
      "innovative": 9129,
      "facilit": 9130,
      "ranging": 9131,
      "threshold": 9132,
      "running": 9133,
      "##mo": 9134,
      "/\\`": 9135,
      "recoveries": 9136,
      "retailers": 9137,
      ",`": 9138,
      "discip": 9139,
      "##lot": 9140,
      "municipal": 9141,
      "jud": 9142,
      "newly": 9143,
      "volatile": 9144,
      "northern": 9145,
      "overnight": 9146,
      "##dom": 9147,
      "($)": 9148,
      "disagree": 9149,
      "drivers": 9150,
      "combinations": 9151,
      "&`": 9152,
      "round": 9153,
      "milestone": 9154,
      "gov": 9155,
      "outc": 9156,
      "foresee": 9157,
      "##____________": 9158,
      "anticipates": 9159,
      "mortgages": 9160,
      "actuarial": 9161,
      "modification": 9162,
      "##ece": 9163,
      "intercompany": 9164,
      "interested": 9165,
      "employed": 9166,
      "haven": 9167,
      "roughly": 9168,
      "revise": 9169,
      "##````````````````": 9170,
      "impose": 9171,
      "presence": 9172,
      "##kets": 9173,
      "expectation": 9174,
      "louisiana": 9175,
      "##ake": 9176,
      "[`": 9177,
      "africa": 9178,
      "interactive": 9179,
      "mag": 9180,
      "-------": 9181,
      "##]^": 9182,
      "##rill": 9183,
      "technological": 9184,
      "authorization": 9185,
      ">`": 9186,
      "##fs": 9187,
      "submission": 9188,
      "summarized": 9189,
      "transfers": 9190,
      "##isco": 9191,
      "##\"#": 9192,
      "fann": 9193,
      "linked": 9194,
      "characteristics": 9195,
      "houston": 9196,
      "pattern": 9197,
      "##pe": 9198,
      "ray": 9199,
      "bay": 9200,
      "bps": 9201,
      "bah": 9202,
      ";`": 9203,
      "difficulties": 9204,
      "formed": 9205,
      "##>>": 9206,
      "contribute": 9207,
      "smart": 9208,
      "actively": 9209,
      "##use": 9210,
      "elements": 9211,
      "annivers": 9212,
      "sections": 9213,
      "determines": 9214,
      "output": 9215,
      "##mc": 9216,
      "qualifying": 9217,
      "consequences": 9218,
      "exposed": 9219,
      "looks": 9220,
      "##car": 9221,
      "##_w": 9222,
      "load": 9223,
      "fid": 9224,
      "##ithold": 9225,
      "hydro": 9226,
      "interpretation": 9227,
      "afford": 9228,
      "columb": 9229,
      "search": 9230,
      "unithold": 9231,
      "interru": 9232,
      "cells": 9233,
      "kar": 9234,
      "synerg": 9235,
      "territ": 9236,
      "crim": 9237,
      "outcomes": 9238,
      "delayed": 9239,
      "##hu": 9240,
      "secondary": 9241,
      "glance": 9242,
      "commenced": 9243,
      "shipments": 9244,
      "##itish": 9245,
      "approximate": 9246,
      "fire": 9247,
      "british": 9248,
      "achievement": 9249,
      "graph": 9250,
      "divided": 9251,
      "treasurer": 9252,
      "proportion": 9253,
      "##plus": 9254,
      "steps": 9255,
      "convert": 9256,
      "chicago": 9257,
      "him": 9258,
      "touch": 9259,
      "##recurring": 9260,
      "appreciate": 9261,
      "thereby": 9262,
      "effic": 9263,
      "##aff": 9264,
      "avoid": 9265,
      "peer": 9266,
      "appeal": 9267,
      "##ervices": 9268,
      "volunt": 9269,
      "possibility": 9270,
      "aspects": 9271,
      "dism": 9272,
      "frequent": 9273,
      "severe": 9274,
      "##ental": 9275,
      "waiver": 9276,
      "discovery": 9277,
      "accretion": 9278,
      "fhlb": 9279,
      "minister": 9280,
      "fifth": 9281,
      "survey": 9282,
      "foreclos": 9283,
      "fannie": 9284,
      "regardless": 9285,
      "barrel": 9286,
      "##/^": 9287,
      "##g_": 9288,
      "alum": 9289,
      "##ev": 9290,
      "similarly": 9291,
      "guarantor": 9292,
      "george": 9293,
      "synd": 9294,
      "casual": 9295,
      "##^^^^^^^^^^^^^^^^": 9296,
      "renewable": 9297,
      "clim": 9298,
      "corporations": 9299,
      "##ifies": 9300,
      "exceeded": 9301,
      "##ead": 9302,
      "##urers": 9303,
      "fargo": 9304,
      "moder": 9305,
      "healthy": 9306,
      "origination": 9307,
      "freight": 9308,
      "##ds": 9309,
      "surg": 9310,
      "recognizes": 9311,
      "pronounce": 9312,
      "spect": 9313,
      "lang": 9314,
      "ado": 9315,
      "intel": 9316,
      "+`": 9317,
      "aware": 9318,
      "dedic": 9319,
      ".................................................": 9320,
      "))))*": 9321,
      "eurost": 9322,
      "mos": 9323,
      "unkn": 9324,
      "##off": 9325,
      "assessments": 9326,
      "ready": 9327,
      "scientific": 9328,
      "efficacy": 9329,
      "steven": 9330,
      "bak": 9331,
      "##aq": 9332,
      "##easure": 9333,
      "martin": 9334,
      "christ": 9335,
      "neither": 9336,
      "classes": 9337,
      "apart": 9338,
      "portfolios": 9339,
      "##face": 9340,
      "##print": 9341,
      "pressures": 9342,
      "counterparty": 9343,
      "mature": 9344,
      "##zn": 9345,
      "seems": 9346,
      "recovered": 9347,
      "unknown": 9348,
      "sachs": 9349,
      "##key": 9350,
      "##oy": 9351,
      "obligated": 9352,
      "carolina": 9353,
      "takes": 9354,
      "itself": 9355,
      "creation": 9356,
      "differenti": 9357,
      "italy": 9358,
      "ngl": 9359,
      "hope": 9360,
      "arb": 9361,
      "rsus": 9362,
      "counterparties": 9363,
      "medium": 9364,
      "ferc": 9365,
      "sterling": 9366,
      "tow": 9367,
      "##_y": 9368,
      "##irmed": 9369,
      "population": 9370,
      "periodically": 9371,
      "lad": 9372,
      "achieving": 9373,
      "sor": 9374,
      "assumes": 9375,
      "prud": 9376,
      "hardware": 9377,
      "unvested": 9378,
      "ddddi": 9379,
      "statistics": 9380,
      "##...[.": 9381,
      "fab": 9382,
      "surv": 9383,
      "valley": 9384,
      "##?^": 9385,
      "downturn": 9386,
      "basically": 9387,
      "##star": 9388,
      "##stein": 9389,
      "spin": 9390,
      "didn": 9391,
      "rally": 9392,
      "comfort": 9393,
      "predecess": 9394,
      "youn": 9395,
      "involves": 9396,
      "originally": 9397,
      "dilution": 9398,
      "##eness": 9399,
      "multip": 9400,
      "lme": 9401,
      "##iters": 9402,
      "meetings": 9403,
      "raising": 9404,
      "escrow": 9405,
      "americas": 9406,
      "buyers": 9407,
      "sli": 9408,
      "dji": 9409,
      "producer": 9410,
      "concentration": 9411,
      "##fiable": 9412,
      "##ological": 9413,
      "##(#": 9414,
      "bottom": 9415,
      "##ux": 9416,
      "rated": 9417,
      "##ano": 9418,
      "##ham": 9419,
      "withhold": 9420,
      "amer": 9421,
      "instead": 9422,
      "forex": 9423,
      "satisfied": 9424,
      "securitization": 9425,
      "##_z": 9426,
      "appra": 9427,
      "iden": 9428,
      "calls": 9429,
      "lynch": 9430,
      "text": 9431,
      "maintains": 9432,
      "##employ": 9433,
      "##burs": 9434,
      "increasingly": 9435,
      "##vd": 9436,
      "mad": 9437,
      "##-+": 9438,
      "##acing": 9439,
      "nomin": 9440,
      "expressions": 9441,
      "examination": 9442,
      "daniel": 9443,
      "distribute": 9444,
      "##wa": 9445,
      "hol": 9446,
      "##eries": 9447,
      "mus": 9448,
      "##ries": 9449,
      "diss": 9450,
      "overse": 9451,
      "true": 9452,
      "##\"(": 9453,
      "entering": 9454,
      "##burg": 9455,
      "constrain": 9456,
      "sequentially": 9457,
      "paris": 9458,
      "figures": 9459,
      "efficiencies": 9460,
      "##echn": 9461,
      "white": 9462,
      "latin": 9463,
      "terror": 9464,
      "##ears": 9465,
      "synergies": 9466,
      "alleged": 9467,
      "mitigate": 9468,
      "##mer": 9469,
      "##bl": 9470,
      "sellers": 9471,
      "##enty": 9472,
      "alliance": 9473,
      "tonnes": 9474,
      "bind": 9475,
      "privacy": 9476,
      "telecommunications": 9477,
      "releases": 9478,
      "exempt": 9479,
      "##mg": 9480,
      "##tition": 9481,
      "merrill": 9482,
      "dod": 9483,
      "gathering": 9484,
      "domin": 9485,
      "georgia": 9486,
      "lin": 9487,
      "foreseeable": 9488,
      "tum": 9489,
      "##tz": 9490,
      "issuing": 9491,
      "holiday": 9492,
      "coup": 9493,
      "anniversary": 9494,
      "##linical": 9495,
      "omn": 9496,
      "iron": 9497,
      "formerly": 9498,
      "legisl": 9499,
      "shut": 9500,
      "##q_": 9501,
      "rapidly": 9502,
      "##istry": 9503,
      "subscrib": 9504,
      "boe": 9505,
      "proc": 9506,
      "##ei": 9507,
      "spreads": 9508,
      "portions": 9509,
      "copies": 9510,
      "epa": 9511,
      "moreover": 9512,
      "##tract": 9513,
      "fulfill": 9514,
      "hazardous": 9515,
      "##u_": 9516,
      "##omen": 9517,
      "moun": 9518,
      "priced": 9519,
      "joined": 9520,
      "commercialize": 9521,
      "preclinical": 9522,
      "oppos": 9523,
      "methodology": 9524,
      "capt": 9525,
      "##gar": 9526,
      "dismiss": 9527,
      "##ults": 9528,
      "influence": 9529,
      "##ided": 9530,
      "sustainable": 9531,
      "leaders": 9532,
      "rendered": 9533,
      "dose": 9534,
      "disclose": 9535,
      "unan": 9536,
      "##load": 9537,
      "##xx": 9538,
      "kingdom": 9539,
      "carbon": 9540,
      "founder": 9541,
      "joseph": 9542,
      "identifiable": 9543,
      "scre": 9544,
      "prompt": 9545,
      "repe": 9546,
      "parag": 9547,
      "disclaim": 9548,
      "count": 9549,
      "shared": 9550,
      "onc": 9551,
      "maryland": 9552,
      "lawsuits": 9553,
      "##urse": 9554,
      "##lementing": 9555,
      "scr": 9556,
      "##ica": 9557,
      "##ario": 9558,
      "fort": 9559,
      "nice": 9560,
      "tons": 9561,
      "##fc": 9562,
      "dropped": 9563,
      "dax": 9564,
      "intention": 9565,
      "physicians": 9566,
      "creating": 9567,
      "multim": 9568,
      "shell": 9569,
      "##*'": 9570,
      "##vi": 9571,
      "biot": 9572,
      "##kj": 9573,
      "hedged": 9574,
      "colorado": 9575,
      "chase": 9576,
      "unobs": 9577,
      "school": 9578,
      "##zo": 9579,
      "purchasers": 9580,
      "expensive": 9581,
      "eliminated": 9582,
      "unobservable": 9583,
      "identical": 9584,
      "warehouse": 9585,
      "flu": 9586,
      "climate": 9587,
      "##vo": 9588,
      "ash": 9589,
      "##qual": 9590,
      "jpmorgan": 9591,
      "reti": 9592,
      "dim": 9593,
      "science": 9594,
      "recru": 9595,
      "trusts": 9596,
      "handling": 9597,
      "surplus": 9598,
      "moves": 9599,
      "usage": 9600,
      "supervision": 9601,
      "context": 9602,
      "scen": 9603,
      "followed": 9604,
      "receiving": 9605,
      "##isse": 9606,
      "conce": 9607,
      "haw": 9608,
      "##/\\": 9609,
      "professionals": 9610,
      "indication": 9611,
      "##astroph": 9612,
      "defendants": 9613,
      "whom": 9614,
      "representative": 9615,
      "repaid": 9616,
      "feature": 9617,
      "##(@": 9618,
      "behind": 9619,
      "announces": 9620,
      "wealth": 9621,
      "requested": 9622,
      "boston": 9623,
      "catastroph": 9624,
      "##(\"`@(\"`@(\"`@(\"`@(\"`@(\"`@(\"`@(\"`@": 9625,
      "brief": 9626,
      "assessed": 9627,
      "##itiv": 9628,
      "expired": 9629,
      "left": 9630,
      "guarantors": 9631,
      "-------------------------------------------------": 9632,
      "midstream": 9633,
      "underwriters": 9634,
      "headwind": 9635,
      "oral": 9636,
      "station": 9637,
      "foods": 9638,
      "##ublic": 9639,
      "##east": 9640,
      "matt": 9641,
      "barg": 9642,
      "##cf": 9643,
      "recall": 9644,
      "rata": 9645,
      "fel": 9646,
      "engagement": 9647,
      "indones": 9648,
      "##reek": 9649,
      "exceptions": 9650,
      "stream": 9651,
      "leasehold": 9652,
      "refinancing": 9653,
      "moved": 9654,
      "codes": 9655,
      "hal": 9656,
      "rank": 9657,
      "went": 9658,
      "duty": 9659,
      "hon": 9660,
      "peur": 9661,
      "_________________________________": 9662,
      "##iques": 9663,
      "forecasted": 9664,
      "falling": 9665,
      "spent": 9666,
      "fit": 9667,
      "##estation": 9668,
      "discretionary": 9669,
      "indications": 9670,
      "pipelines": 9671,
      "toward": 9672,
      "appar": 9673,
      "utilizing": 9674,
      "representatives": 9675,
      "##market": 9676,
      "acting": 9677,
      "##author": 9678,
      "implementing": 9679,
[...]
