{
  "version": "1.0",
  "truncation": null,
  "padding": null,
  "added_tokens": [
    {
      "id": 0,
      "content": "<|endoftext|>",
      "single_word": false,
      "lstrip": false,
      "rstrip": false,
      "normalized": false,
      "special": true
    },
    {
      "id": 1,
      "content": "<|pad|>",
      "single_word": false,
      "lstrip": false,
      "rstrip": false,
      "normalized": false,
      "special": true
    }
  ],
  "normalizer": {
    "type": "Sequence",
    "normalizers": [
      {
        "type": "Strip",
        "strip_left": true,
        "strip_right": true
      }
    ]
  },
  "pre_tokenizer": {
    "type": "Sequence",
    "pretokenizers": [
      {
        "type": "Whitespace"
      },
      {
        "type": "Digits",
        "individual_digits": true
      }
    ]
  },
  "post_processor": {
    "type": "TemplateProcessing",
    "single": [
      {
        "Sequence": {
          "id": "A",
          "type_id": 0
        }
      },
      {
        "SpecialToken": {
          "id": "<|endoftext|>",
          "type_id": 0
        }
      }
    ],
    "pair": [
      {
        "Sequence": {
          "id": "A",
          "type_id": 0
        }
      },
      {
        "Sequence": {
          "id": "B",
          "type_id": 1
        }
      }
    ],
    "special_tokens": {
      "<|endoftext|>": {
        "id": "<|endoftext|>",
        "ids": [
          0
        ],
        "tokens": [
          "<|endoftext|>"
        ]
      }
    }
  },
  "decoder": null,
  "model": {
    "type": "BPE",
    "dropout": null,
    "unk_token": null,
    "continuing_subword_prefix": null,
    "end_of_word_suffix": null,
    "fuse_unk": false,
    "byte_fallback": false,
    "ignore_merges": false,
    "vocab": {
      "<|endoftext|>": 0,
      "<|pad|>": 1,
      "!": 2,
      "\"": 3,
      "#": 4,
      "$": 5,
      "%": 6,
      "&": 7,
      "'": 8,
      "(": 9,
      ")": 10,
      "*": 11,
      "+": 12,
      ",": 13,
      "-": 14,
      ".": 15,
      "/": 16,
      "0": 17,
      "1": 18,
      "2": 19,
      "3": 20,
      "4": 21,
      "5": 22,
      "6": 23,
      "7": 24,
      "8": 25,
      "9": 26,
      ":": 27,
      ";": 28,
      "<": 29,
      "=": 30,
      ">": 31,
      "?": 32,
      "@": 33,
      "A": 34,
      "B": 35,
      "C": 36,
      "D": 37,
      "E": 38,
      "F": 39,
      "G": 40,
      "H": 41,
      "I": 42,
      "J": 43,
      "K": 44,
      "L": 45,
      "M": 46,
      "N": 47,
      "O": 48,
      "P": 49,
      "Q": 50,
      "R": 51,
      "S": 52,
      "T": 53,
      "U": 54,
      "V": 55,
      "W": 56,
      "X": 57,
      "Y": 58,
      "Z": 59,
      "[": 60,
      "\\": 61,
      "]": 62,
      "^": 63,
      "_": 64,
      "`": 65,
      "a": 66,
      "b": 67,
      "c": 68,
      "d": 69,
      "e": 70,
      "f": 71,
      "g": 72,
      "h": 73,
      "i": 74,
      "j": 75,
      "k": 76,
      "l": 77,
      "m": 78,
      "n": 79,
      "o": 80,
      "p": 81,
      "q": 82,
      "r": 83,
      "s": 84,
      "t": 85,
      "u": 86,
      "v": 87,
      "w": 88,
      "x": 89,
      "y": 90,
      "z": 91,
      "{": 92,
      "|": 93,
      "}": 94,
      "~": 95,
      "": 96,
      "": 97,
      "": 98,
      "": 99,
      "": 100,
      "": 101,
      "": 102,
      "": 103,
      "": 104,
      "": 105,
      "": 106,
      "": 107,
      "": 108,
      "": 109,
      "": 110,
      "": 111,
      "": 112,
      "": 113,
      "": 114,
      "": 115,
      "": 116,
      "": 117,
      "": 118,
      "": 119,
      "": 120,
      "": 121,
      "": 122,
      "": 123,
      "": 124,
      "¡": 125,
      "¢": 126,
      "£": 127,
      "¤": 128,
      "¥": 129,
      "¦": 130,
      "§": 131,
      "¨": 132,
      "©": 133,
      "ª": 134,
      "«": 135,
      "¬": 136,
      "­": 137,
      "®": 138,
      "¯": 139,
      "°": 140,
      "±": 141,
      "²": 142,
      "³": 143,
      "´": 144,
      "µ": 145,
      "¶": 146,
      "·": 147,
      "¸": 148,
      "¹": 149,
      "º": 150,
      "»": 151,
      "¼": 152,
      "½": 153,
      "¾": 154,
      "¿": 155,
      "À": 156,
      "Á": 157,
      "Â": 158,
      "Ã": 159,
      "Ä": 160,
      "Å": 161,
      "Æ": 162,
      "Ç": 163,
      "È": 164,
      "É": 165,
      "Ë": 166,
      "Ì": 167,
      "Í": 168,
      "Î": 169,
      "Ï": 170,
      "Ñ": 171,
      "Ò": 172,
      "Ó": 173,
      "Ô": 174,
      "Õ": 175,
      "Ö": 176,
      "×": 177,
      "Ø": 178,
      "Ù": 179,
      "Ú": 180,
      "Ü": 181,
      "ß": 182,
      "à": 183,
      "á": 184,
      "â": 185,
      "ã": 186,
      "ä": 187,
      "å": 188,
      "æ": 189,
      "ç": 190,
      "è": 191,
      "é": 192,
      "ê": 193,
      "ë": 194,
      "ì": 195,
      "í": 196,
      "î": 197,
      "ï": 198,
      "ð": 199,
      "ñ": 200,
      "ò": 201,
      "ó": 202,
      "ô": 203,
      "õ": 204,
      "ö": 205,
      "÷": 206,
      "ø": 207,
      "ù": 208,
      "ú": 209,
      "û": 210,
      "ü": 211,
      "ý": 212,
      "þ": 213,
      "ÿ": 214,
      "ā": 215,
      "ą": 216,
      "ć": 217,
      "Č": 218,
      "č": 219,
      "Ē": 220,
      "ē": 221,
      "Ĕ": 222,
      "ĕ": 223,
      "ė": 224,
      "ę": 225,
      "ě": 226,
      "ğ": 227,
      "ģ": 228,
      "Ī": 229,
      "ī": 230,
      "İ": 231,
      "ı": 232,
      "ĸ": 233,
      "ľ": 234,
      "Ł": 235,
      "ł": 236,
      "ń": 237,
      "ņ": 238,
      "ň": 239,
      "Ō": 240,
      "ō": 241,
      "ő": 242,
      "œ": 243,
      "ř": 244,
      "Ś": 245,
      "ś": 246,
      "ŝ": 247,
      "Ş": 248,
      "ş": 249,
      "Š": 250,
      "š": 251,
      "Ū": 252,
      "ū": 253,
      "ů": 254,
      "ŵ": 255,
      "Ÿ": 256,
      "ź": 257,
      "Ż": 258,
      "Ž": 259,
      "ž": 260,
      "ƒ": 261,
      "ǎ": 262,
      "ǐ": 263,
      "ǒ": 264,
      "ǔ": 265,
      "ș": 266,
      "ț": 267,
      "ɛ": 268,
      "ʻ": 269,
      "ˇ": 270,
      "˚": 271,
      "˜": 272,
      "ˮ": 273,
      "́": 274,
      "̄": 275,
      "̈": 276,
      "̣": 277,
      "̱": 278,
      "΄": 279,
      "Α": 280,
      "Β": 281,
      "Γ": 282,
      "Δ": 283,
      "Ε": 284,
      "Η": 285,
      "Θ": 286,
      "Ι": 287,
      "Κ": 288,
      "Λ": 289,
      "Μ": 290,
      "Ν": 291,
      "Ο": 292,
      "Π": 293,
      "Σ": 294,
      "Τ": 295,
      "Υ": 296,
      "Χ": 297,
      "ά": 298,
      "έ": 299,
      "ή": 300,
      "ί": 301,
      "α": 302,
      "β": 303,
      "γ": 304,
      "δ": 305,
      "ε": 306,
      "ζ": 307,
      "η": 308,
      "θ": 309,
      "ι": 310,
      "κ": 311,
      "λ": 312,
      "μ": 313,
      "ν": 314,
      "ξ": 315,
      "ο": 316,
      "π": 317,
      "ρ": 318,
      "ς": 319,
      "σ": 320,
      "τ": 321,
      "υ": 322,
      "φ": 323,
      "χ": 324,
      "ψ": 325,
      "ω": 326,
      "ό": 327,
      "ύ": 328,
      "ώ": 329,
      "Є": 330,
      "А": 331,
      "Е": 332,
      "М": 333,
      "О": 334,
      "С": 335,
      "Т": 336,
      "а": 337,
      "б": 338,
      "в": 339,
      "е": 340,
      "и": 341,
      "к": 342,
      "м": 343,
      "о": 344,
      "р": 345,
      "с": 346,
      "т": 347,
      "ю": 348,
      "Ҫ": 349,
      "ҫ": 350,
      "Ӧ": 351,
      "ӧ": 352,
      "ֵ": 353,
      "ב": 354,
      "ד": 355,
      "ํ": 356,
      "ᴇ": 357,
      "Ṣ": 358,
      "ṣ": 359,
      "ạ": 360,
      "ế": 361,
      "​": 362,
      "‌": 363,
      "‍": 364,
      "‎": 365,
      "‐": 366,
      "‑": 367,
      "‒": 368,
      "–": 369,
      "—": 370,
      "―": 371,
      "‘": 372,
      "’": 373,
      "‚": 374,
      "“": 375,
      "”": 376,
      "„": 377,
      "‟": 378,
      "†": 379,
      "‡": 380,
      "•": 381,
      "…": 382,
      "‪": 383,
      "‬": 384,
      "‭": 385,
      "‰": 386,
      "′": 387,
      "″": 388,
      "‹": 389,
      "›": 390,
      "※": 391,
      "⁄": 392,
      "⁠": 393,
      "⁣": 394,
      "⁰": 395,
      "⁴": 396,
      "⁷": 397,
      "⁸": 398,
      "₂": 399,
      "₄": 400,
      "₤": 401,
      "₩": 402,
      "₪": 403,
      "€": 404,
      "₱": 405,
      "₵": 406,
      "₹": 407,
      "₽": 408,
      "℠": 409,
      "™": 410,
      "⅓": 411,
      "⅛": 412,
      "⅜": 413,
      "⅝": 414,
      "⅞": 415,
      "←": 416,
      "→": 417,
      "↓": 418,
      "⇩": 419,
      "−": 420,
      "∝": 421,
      "≈": 422,
      "≤": 423,
      "≥": 424,
      "─": 425,
      "│": 426,
      "■": 427,
      "▪": 428,
      "▶": 429,
      "▷": 430,
      "►": 431,
      "○": 432,
      "◎": 433,
      "●": 434,
      "◦": 435,
      "◼": 436,
      "✓": 437,
      "✔": 438,
      "、": 439,
      "。": 440,
      "「": 441,
      "」": 442,
      "あ": 443,
      "い": 444,
      "う": 445,
      "え": 446,
      "お": 447,
      "か": 448,
      "が": 449,
      "き": 450,
      "く": 451,
      "ぐ": 452,
      "け": 453,
      "げ": 454,
      "こ": 455,
      "ご": 456,
      "さ": 457,
      "ざ": 458,
      "し": 459,
      "じ": 460,
      "す": 461,
      "ず": 462,
      "そ": 463,
      "ぞ": 464,
      "た": 465,
      "だ": 466,
      "ち": 467,
      "っ": 468,
      "つ": 469,
      "づ": 470,
      "て": 471,
      "で": 472,
      "と": 473,
      "ど": 474,
      "な": 475,
      "に": 476,
      "の": 477,
      "は": 478,
      "ば": 479,
      "び": 480,
      "ぶ": 481,
      "へ": 482,
      "べ": 483,
      "ほ": 484,
      "ぼ": 485,
      "ま": 486,
      "み": 487,
      "む": 488,
      "め": 489,
      "も": 490,
      "や": 491,
      "よ": 492,
      "ら": 493,
      "り": 494,
      "る": 495,
      "れ": 496,
      "わ": 497,
      "を": 498,
      "ん": 499,
      "ア": 500,
      "ィ": 501,
      "イ": 502,
      "ウ": 503,
      "ェ": 504,
      "エ": 505,
      "ォ": 506,
      "オ": 507,
      "カ": 508,
      "ガ": 509,
      "キ": 510,
      "ク": 511,
      "グ": 512,
      "ケ": 513,
      "コ": 514,
      "ゴ": 515,
      "サ": 516,
      "シ": 517,
      "ジ": 518,
      "ス": 519,
      "ズ": 520,
      "セ": 521,
      "ゼ": 522,
      "ソ": 523,
      "タ": 524,
      "ダ": 525,
      "チ": 526,
      "ッ": 527,
      "ツ": 528,
      "テ": 529,
      "デ": 530,
      "ト": 531,
      "ド": 532,
      "ナ": 533,
      "ニ": 534,
      "ヌ": 535,
      "ネ": 536,
      "ノ": 537,
      "ハ": 538,
      "バ": 539,
      "パ": 540,
      "ビ": 541,
      "ピ": 542,
      "フ": 543,
      "ブ": 544,
      "プ": 545,
      "ベ": 546,
      "ペ": 547,
      "ホ": 548,
      "ボ": 549,
      "ポ": 550,
      "マ": 551,
      "ミ": 552,
      "ム": 553,
      "メ": 554,
      "モ": 555,
      "ャ": 556,
      "ヤ": 557,
      "ュ": 558,
      "ユ": 559,
      "ヨ": 560,
      "ラ": 561,
      "リ": 562,
      "ル": 563,
      "レ": 564,
      "ロ": 565,
      "ワ": 566,
      "ン": 567,
      "・": 568,
      "ー": 569,
      "一": 570,
      "丁": 571,
      "七": 572,
      "万": 573,
      "三": 574,
      "上": 575,
      "下": 576,
      "不": 577,
      "且": 578,
      "世": 579,
      "並": 580,
      "中": 581,
      "主": 582,
      "之": 583,
      "乎": 584,
      "乏": 585,
      "九": 586,
      "也": 587,
      "了": 588,
      "予": 589,
      "事": 590,
      "二": 591,
      "于": 592,
      "互": 593,
      "五": 594,
      "些": 595,
      "亞": 596,
      "交": 597,
      "亦": 598,
      "京": 599,
      "人": 600,
      "今": 601,
      "介": 602,
      "仍": 603,
      "他": 604,
      "付": 605,
      "代": 606,
      "令": 607,
      "以": 608,
      "件": 609,
      "任": 610,
      "份": 611,
      "企": 612,
      "伏": 613,
      "休": 614,
      "会": 615,
      "伝": 616,
      "伯": 617,
      "估": 618,
      "伴": 619,
      "伶": 620,
      "伸": 621,
      "似": 622,
      "但": 623,
      "佈": 624,
      "位": 625,
      "低": 626,
      "住": 627,
      "体": 628,
      "佔": 629,
      "作": 630,
      "佳": 631,
      "併": 632,
      "使": 633,
      "來": 634,
      "供": 635,
      "価": 636,
      "便": 637,
      "係": 638,
      "保": 639,
      "信": 640,
      "修": 641,
      "個": 642,
      "們": 643,
      "候": 644,
      "値": 645,
      "倫": 646,
      "值": 647,
      "假": 648,
      "偏": 649,
      "停": 650,
      "傑": 651,
      "備": 652,
      "傳": 653,
      "債": 654,
      "僅": 655,
      "僑": 656,
      "價": 657,
      "儀": 658,
      "億": 659,
      "償": 660,
      "優": 661,
      "元": 662,
      "兆": 663,
      "先": 664,
      "光": 665,
      "克": 666,
      "兌": 667,
      "入": 668,
      "內": 669,
      "全": 670,
      "兩": 671,
      "公": 672,
      "六": 673,
      "其": 674,
      "内": 675,
      "再": 676,
      "冠": 677,
      "冬": 678,
      "凈": 679,
      "出": 680,
      "分": 681,
      "切": 682,
      "初": 683,
      "判": 684,
      "別": 685,
      "利": 686,
      "到": 687,
      "制": 688,
      "券": 689,
      "刺": 690,
      "則": 691,
      "削": 692,
      "前": 693,
      "副": 694,
      "創": 695,
      "劃": 696,
      "力": 697,
      "加": 698,
      "助": 699,
      "努": 700,
      "勁": 701,
      "勒": 702,
      "動": 703,
      "務": 704,
      "勢": 705,
      "勵": 706,
      "包": 707,
      "化": 708,
      "北": 709,
      "匯": 710,
      "医": 711,
      "區": 712,
      "十": 713,
      "升": 714,
      "午": 715,
      "半": 716,
      "協": 717,
      "南": 718,
      "印": 719,
      "即": 720,
      "却": 721,
      "原": 722,
      "去": 723,
      "参": 724,
      "參": 725,
      "又": 726,
      "及": 727,
      "友": 728,
      "反": 729,
      "取": 730,
      "受": 731,
      "口": 732,
      "另": 733,
      "召": 734,
      "可": 735,
      "台": 736,
      "右": 737,
      "号": 738,
      "司": 739,
      "各": 740,
      "合": 741,
      "吉": 742,
      "同": 743,
      "名": 744,
      "吐": 745,
      "向": 746,
      "否": 747,
      "含": 748,
      "吸": 749,
      "呈": 750,
      "告": 751,
      "周": 752,
      "和": 753,
      "咨": 754,
      "品": 755,
      "員": 756,
      "哥": 757,
      "售": 758,
      "商": 759,
      "問": 760,
      "善": 761,
      "喬": 762,
      "單": 763,
      "営": 764,
      "器": 765,
      "噸": 766,
      "四": 767,
      "回": 768,
      "因": 769,
      "困": 770,
      "国": 771,
      "國": 772,
      "圓": 773,
      "圖": 774,
      "土": 775,
      "圧": 776,
      "在": 777,
      "圭": 778,
      "地": 779,
      "圳": 780,
      "均": 781,
      "坡": 782,
      "型": 783,
      "城": 784,
      "域": 785,
      "執": 786,
      "基": 787,
      "堅": 788,
      "堪": 789,
      "報": 790,
      "場": 791,
      "境": 792,
      "増": 793,
      "增": 794,
      "壓": 795,
      "壞": 796,
      "士": 797,
      "売": 798,
      "変": 799,
      "外": 800,
      "多": 801,
      "大": 802,
      "天": 803,
      "太": 804,
      "夫": 805,
      "央": 806,
      "失": 807,
      "契": 808,
      "奔": 809,
      "奕": 810,
      "奧": 811,
      "奮": 812,
      "好": 813,
      "如": 814,
      "始": 815,
      "委": 816,
      "威": 817,
      "媒": 818,
      "嫌": 819,
      "子": 820,
      "存": 821,
      "季": 822,
      "学": 823,
      "宇": 824,
      "守": 825,
      "安": 826,
      "完": 827,
      "宕": 828,
      "官": 829,
      "定": 830,
      "宜": 831,
      "実": 832,
      "客": 833,
      "宣": 834,
      "室": 835,
      "家": 836,
      "容": 837,
      "富": 838,
      "察": 839,
      "實": 840,
      "審": 841,
      "対": 842,
      "將": 843,
      "尋": 844,
      "對": 845,
      "導": 846,
      "小": 847,
      "少": 848,
      "尚": 849,
      "就": 850,
      "尼": 851,
      "尾": 852,
      "局": 853,
      "展": 854,
      "屬": 855,
      "峽": 856,
      "川": 857,
      "州": 858,
      "工": 859,
      "左": 860,
      "巨": 861,
      "差": 862,
      "已": 863,
      "巴": 864,
      "市": 865,
      "布": 866,
      "希": 867,
      "師": 868,
      "帶": 869,
      "常": 870,
      "幅": 871,
      "幣": 872,
      "干": 873,
      "平": 874,
      "年": 875,
      "并": 876,
      "広": 877,
      "底": 878,
      "店": 879,
      "府": 880,
      "度": 881,
      "庫": 882,
      "庭": 883,
      "廠": 884,
      "延": 885,
      "廷": 886,
      "建": 887,
      "弊": 888,
      "式": 889,
      "引": 890,
      "弱": 891,
      "張": 892,
      "強": 893,
      "弾": 894,
      "彈": 895,
      "当": 896,
      "形": 897,
      "彩": 898,
      "影": 899,
      "往": 900,
      "征": 901,
      "待": 902,
      "很": 903,
      "徊": 904,
      "後": 905,
      "得": 906,
      "徘": 907,
      "從": 908,
      "復": 909,
      "微": 910,
      "徵": 911,
      "德": 912,
      "心": 913,
      "志": 914,
      "応": 915,
      "念": 916,
      "怕": 917,
      "急": 918,
      "性": 919,
      "恐": 920,
      "息": 921,
      "悉": 922,
      "情": 923,
      "意": 924,
      "感": 925,
      "愿": 926,
      "態": 927,
      "慎": 928,
      "慮": 929,
      "憂": 930,
      "憑": 931,
      "憶": 932,
      "應": 933,
      "懸": 934,
      "成": 935,
      "我": 936,
      "戒": 937,
      "或": 938,
      "戚": 939,
      "戰": 940,
      "戴": 941,
      "戶": 942,
      "戻": 943,
      "房": 944,
      "所": 945,
      "手": 946,
      "打": 947,
      "扣": 948,
      "扭": 949,
      "扳": 950,
      "扶": 951,
      "批": 952,
      "找": 953,
      "技": 954,
      "把": 955,
      "抑": 956,
      "投": 957,
      "押": 958,
      "担": 959,
      "拉": 960,
      "拋": 961,
      "拖": 962,
      "括": 963,
      "拿": 964,
      "持": 965,
      "指": 966,
      "挫": 967,
      "振": 968,
      "捧": 969,
      "捲": 970,
      "掀": 971,
      "掃": 972,
      "掛": 973,
      "採": 974,
      "探": 975,
      "接": 976,
      "推": 977,
      "措": 978,
      "提": 979,
      "揚": 980,
      "援": 981,
      "損": 982,
      "搬": 983,
      "搶": 984,
      "摘": 985,
      "摩": 986,
      "撐": 987,
      "擁": 988,
      "擇": 989,
      "擊": 990,
      "擔": 991,
      "擘": 992,
      "據": 993,
      "擷": 994,
      "支": 995,
      "收": 996,
      "改": 997,
      "放": 998,
      "政": 999,
      "教": 1000,
      "散": 1001,
      "敦": 1002,
      "数": 1003,
      "整": 1004,
      "數": 1005,
      "文": 1006,
      "料": 1007,
      "斯": 1008,
      "新": 1009,
      "斷": 1010,
      "方": 1011,
      "於": 1012,
      "施": 1013,
      "旗": 1014,
      "日": 1015,
      "旦": 1016,
      "早": 1017,
      "昇": 1018,
      "昊": 1019,
      "明": 1020,
      "易": 1021,
      "星": 1022,
      "映": 1023,
      "春": 1024,
      "昨": 1025,
      "昭": 1026,
      "是": 1027,
      "時": 1028,
      "普": 1029,
      "景": 1030,
      "晶": 1031,
      "智": 1032,
      "暗": 1033,
      "暫": 1034,
      "更": 1035,
      "書": 1036,
      "曾": 1037,
      "替": 1038,
      "最": 1039,
      "會": 1040,
      "月": 1041,
      "有": 1042,
      "服": 1043,
      "望": 1044,
      "期": 1045,
      "未": 1046,
      "本": 1047,
      "札": 1048,
      "材": 1049,
      "杜": 1050,
      "束": 1051,
      "来": 1052,
      "東": 1053,
      "析": 1054,
      "林": 1055,
      "柄": 1056,
      "染": 1057,
      "查": 1058,
      "柳": 1059,
      "査": 1060,
      "校": 1061,
      "株": 1062,
      "根": 1063,
      "格": 1064,
      "案": 1065,
      "森": 1066,
      "検": 1067,
      "楊": 1068,
      "業": 1069,
      "概": 1070,
      "構": 1071,
      "標": 1072,
      "模": 1073,
      "樣": 1074,
      "横": 1075,
      "機": 1076,
      "檔": 1077,
      "權": 1078,
      "次": 1079,
      "欧": 1080,
      "欲": 1081,
      "款": 1082,
      "歇": 1083,
      "歐": 1084,
      "止": 1085,
      "正": 1086,
      "此": 1087,
      "步": 1088,
      "歷": 1089,
      "歸": 1090,
      "殖": 1091,
      "段": 1092,
      "每": 1093,
      "比": 1094,
      "氏": 1095,
      "民": 1096,
      "気": 1097,
      "氣": 1098,
      "水": 1099,
      "永": 1100,
      "求": 1101,
      "污": 1102,
      "決": 1103,
      "沒": 1104,
      "河": 1105,
      "油": 1106,
      "況": 1107,
      "泉": 1108,
      "法": 1109,
      "波": 1110,
      "注": 1111,
      "洲": 1112,
      "活": 1113,
      "流": 1114,
      "浮": 1115,
      "海": 1116,
      "消": 1117,
      "淡": 1118,
      "深": 1119,
      "清": 1120,
      "済": 1121,
      "減": 1122,
      "測": 1123,
      "港": 1124,
      "游": 1125,
      "源": 1126,
      "準": 1127,
      "溫": 1128,
      "滑": 1129,
      "漢": 1130,
      "漲": 1131,
      "澤": 1132,
      "澳": 1133,
      "激": 1134,
      "濟": 1135,
      "濤": 1136,
      "瀏": 1137,
      "灣": 1138,
      "点": 1139,
      "為": 1140,
      "烏": 1141,
      "無": 1142,
      "然": 1143,
      "煌": 1144,
      "照": 1145,
      "熱": 1146,
      "營": 1147,
      "爆": 1148,
      "爭": 1149,
      "爾": 1150,
      "版": 1151,
      "牌": 1152,
      "物": 1153,
      "特": 1154,
      "狀": 1155,
      "獲": 1156,
      "獻": 1157,
      "率": 1158,
      "玉": 1159,
      "王": 1160,
      "現": 1161,
      "球": 1162,
      "理": 1163,
      "琪": 1164,
      "瑞": 1165,
      "環": 1166,
      "瓊": 1167,
      "生": 1168,
      "產": 1169,
      "産": 1170,
      "甦": 1171,
      "用": 1172,
      "由": 1173,
      "申": 1174,
      "画": 1175,
      "界": 1176,
      "略": 1177,
      "番": 1178,
      "畫": 1179,
      "疑": 1180,
      "疲": 1181,
      "療": 1182,
      "発": 1183,
      "發": 1184,
      "白": 1185,
      "百": 1186,
      "的": 1187,
      "盈": 1188,
      "益": 1189,
      "盎": 1190,
      "盛": 1191,
      "盡": 1192,
      "盤": 1193,
      "盪": 1194,
      "目": 1195,
      "直": 1196,
      "相": 1197,
      "省": 1198,
      "看": 1199,
      "真": 1200,
      "眼": 1201,
      "眾": 1202,
      "睞": 1203,
      "知": 1204,
      "石": 1205,
      "研": 1206,
      "破": 1207,
      "硬": 1208,
      "確": 1209,
      "磊": 1210,
      "示": 1211,
      "社": 1212,
      "票": 1213,
      "祭": 1214,
      "科": 1215,
      "移": 1216,
      "稍": 1217,
      "種": 1218,
      "稱": 1219,
      "稿": 1220,
      "積": 1221,
      "穩": 1222,
      "究": 1223,
      "空": 1224,
      "窄": 1225,
      "立": 1226,
      "競": 1227,
      "第": 1228,
      "等": 1229,
      "筋": 1230,
      "策": 1231,
      "算": 1232,
      "管": 1233,
      "節": 1234,
      "範": 1235,
      "籌": 1236,
      "米": 1237,
      "紀": 1238,
      "約": 1239,
      "紅": 1240,
      "納": 1241,
      "紐": 1242,
      "純": 1243,
      "紙": 1244,
      "級": 1245,
      "紛": 1246,
      "素": 1247,
      "索": 1248,
      "累": 1249,
      "細": 1250,
      "終": 1251,
      "絆": 1252,
      "経": 1253,
      "結": 1254,
      "絡": 1255,
      "給": 1256,
      "統": 1257,
      "經": 1258,
      "続": 1259,
      "綜": 1260,
      "維": 1261,
      "網": 1262,
      "総": 1263,
      "線": 1264,
      "編": 1265,
      "緩": 1266,
      "縮": 1267,
      "總": 1268,
      "績": 1269,
      "織": 1270,
      "繼": 1271,
      "續": 1272,
      "缺": 1273,
      "羈": 1274,
      "美": 1275,
      "翰": 1276,
      "翻": 1277,
      "考": 1278,
      "者": 1279,
      "而": 1280,
      "耶": 1281,
      "聞": 1282,
      "聯": 1283,
      "聲": 1284,
      "職": 1285,
      "股": 1286,
      "背": 1287,
      "能": 1288,
      "脅": 1289,
      "脫": 1290,
      "腦": 1291,
      "腳": 1292,
      "膨": 1293,
      "膽": 1294,
      "臆": 1295,
      "臣": 1296,
      "臨": 1297,
      "自": 1298,
      "至": 1299,
      "致": 1300,
      "與": 1301,
      "興": 1302,
      "舉": 1303,
      "舞": 1304,
      "良": 1305,
      "艷": 1306,
      "芝": 1307,
      "芳": 1308,
      "若": 1309,
      "英": 1310,
      "荻": 1311,
      "菁": 1312,
      "華": 1313,
      "萍": 1314,
      "萬": 1315,
      "落": 1316,
      "董": 1317,
      "薩": 1318,
      "薪": 1319,
      "蘇": 1320,
      "處": 1321,
      "虧": 1322,
      "融": 1323,
      "行": 1324,
      "術": 1325,
      "衛": 1326,
      "表": 1327,
      "衰": 1328,
      "被": 1329,
      "裁": 1330,
      "補": 1331,
      "裝": 1332,
      "製": 1333,
      "複": 1334,
      "西": 1335,
      "要": 1336,
      "見": 1337,
      "規": 1338,
      "視": 1339,
      "覧": 1340,
      "覽": 1341,
      "觀": 1342,
      "角": 1343,
      "觸": 1344,
      "言": 1345,
      "計": 1346,
      "託": 1347,
      "記": 1348,
      "訪": 1349,
      "設": 1350,
      "許": 1351,
      "証": 1352,
      "評": 1353,
      "詢": 1354,
      "試": 1355,
      "話": 1356,
      "該": 1357,
      "詳": 1358,
      "認": 1359,
      "誕": 1360,
      "語": 1361,
      "說": 1362,
      "調": 1363,
      "談": 1364,
      "請": 1365,
      "論": 1366,
      "謂": 1367,
      "講": 1368,
      "謹": 1369,
      "證": 1370,
      "警": 1371,
      "譯": 1372,
      "議": 1373,
      "護": 1374,
      "變": 1375,
      "象": 1376,
      "貝": 1377,
      "財": 1378,
      "貢": 1379,
      "貨": 1380,
      "買": 1381,
      "費": 1382,
      "貿": 1383,
      "資": 1384,
      "賣": 1385,
      "質": 1386,
      "購": 1387,
      "赫": 1388,
      "走": 1389,
      "起": 1390,
      "超": 1391,
      "越": 1392,
      "趨": 1393,
      "足": 1394,
      "跌": 1395,
      "距": 1396,
      "跡": 1397,
      "路": 1398,
      "踏": 1399,
      "蹤": 1400,
      "躍": 1401,
      "車": 1402,
      "軟": 1403,
      "転": 1404,
      "較": 1405,
      "輕": 1406,
      "輝": 1407,
      "轉": 1408,
      "辦": 1409,
      "辭": 1410,
      "農": 1411,
      "込": 1412,
      "迄": 1413,
      "近": 1414,
      "述": 1415,
      "迷": 1416,
      "追": 1417,
      "退": 1418,
      "逆": 1419,
      "透": 1420,
      "這": 1421,
      "通": 1422,
      "速": 1423,
      "造": 1424,
      "逢": 1425,
      "連": 1426,
      "週": 1427,
      "進": 1428,
      "逾": 1429,
      "遅": 1430,
      "遇": 1431,
      "運": 1432,
      "過": 1433,
      "遏": 1434,
      "道": 1435,
      "達": 1436,
      "遠": 1437,
      "遭": 1438,
      "遷": 1439,
      "選": 1440,
      "避": 1441,
      "還": 1442,
      "邦": 1443,
      "邵": 1444,
      "郎": 1445,
      "部": 1446,
      "都": 1447,
      "配": 1448,
      "采": 1449,
      "里": 1450,
      "重": 1451,
      "量": 1452,
      "金": 1453,
      "鈀": 1454,
      "鈍": 1455,
      "鈞": 1456,
      "銀": 1457,
      "銅": 1458,
      "銘": 1459,
      "銷": 1460,
      "鋁": 1461,
      "鋼": 1462,
      "錄": 1463,
      "鎖": 1464,
      "鐵": 1465,
      "長": 1466,
      "門": 1467,
      "閉": 1468,
      "開": 1469,
      "閑": 1470,
      "間": 1471,
      "関": 1472,
      "閱": 1473,
      "關": 1474,
      "阻": 1475,
      "阿": 1476,
      "附": 1477,
      "降": 1478,
      "限": 1479,
      "院": 1480,
      "除": 1481,
      "陳": 1482,
      "陷": 1483,
      "陸": 1484,
      "隆": 1485,
      "階": 1486,
      "際": 1487,
      "隨": 1488,
      "險": 1489,
      "雅": 1490,
      "離": 1491,
      "難": 1492,
      "零": 1493,
      "雷": 1494,
      "電": 1495,
      "需": 1496,
      "震": 1497,
      "青": 1498,
      "靜": 1499,
      "非": 1500,
      "面": 1501,
      "革": 1502,
      "響": 1503,
      "預": 1504,
      "領": 1505,
      "頭": 1506,
      "題": 1507,
      "額": 1508,
      "類": 1509,
      "顧": 1510,
      "顯": 1511,
      "風": 1512,
      "飆": 1513,
      "首": 1514,
      "香": 1515,
      "馬": 1516,
      "驚": 1517,
      "體": 1518,
      "高": 1519,
      "鹽": 1520,
      "麗": 1521,
      "麟": 1522,
      "麥": 1523,
      "黃": 1524,
      "黎": 1525,
      "黑": 1526,
      "點": 1527,
      "鼓": 1528,
      "龔": 1529,
      "가": 1530,
      "기": 1531,
      "년": 1532,
      "달": 1533,
      "러": 1534,
      "로": 1535,
      "만": 1536,
      "망": 1537,
      "무": 1538,
      "문": 1539,
      "비": 1540,
      "사": 1541,
      "수": 1542,
      "시": 1543,
      "아": 1544,
      "억": 1545,
      "역": 1546,
      "영": 1547,
      "원": 1548,
      "월": 1549,
      "이": 1550,
      "일": 1551,
      "입": 1552,
      "자": 1553,
      "전": 1554,
      "증": 1555,
      "최": 1556,
      "출": 1557,
      "터": 1558,
      "표": 1559,
      "현": 1560,
      "황": 1561,
      "흑": 1562,
      "": 1563,
      "": 1564,
      "": 1565,
      "": 1566,
      "": 1567,
      "": 1568,
      "": 1569,
      "": 1570,
      "": 1571,
      "": 1572,
      "": 1573,
      "": 1574,
      "": 1575,
      "": 1576,
      "": 1577,
      "ﬀ": 1578,
      "ﬁ": 1579,
      "ﬂ": 1580,
      "ﬃ": 1581,
      "﻿": 1582,
      "％": 1583,
      "＆": 1584,
      "（": 1585,
      "）": 1586,
      "＋": 1587,
      "，": 1588,
      "．": 1589,
      "／": 1590,
      "０": 1591,
      "１": 1592,
      "２": 1593,
      "３": 1594,
      "４": 1595,
      "５": 1596,
      "６": 1597,
      "７": 1598,
      "８": 1599,
      "９": 1600,
      "：": 1601,
      "；": 1602,
      "＝": 1603,
      "＠": 1604,
      "Ａ": 1605,
      "Ｃ": 1606,
      "Ｄ": 1607,
      "Ｅ": 1608,
      "Ｆ": 1609,
      "Ｇ": 1610,
      "Ｉ": 1611,
      "Ｋ": 1612,
      "Ｍ": 1613,
      "Ｎ": 1614,
      "Ｐ": 1615,
      "Ｒ": 1616,
      "Ｓ": 1617,
      "Ｔ": 1618,
      "Ｕ": 1619,
      "Ｖ": 1620,
      "Ｘ": 1621,
      "［": 1622,
      "］": 1623,
      "ｉ": 1624,
      "ｘ": 1625,
      "�": 1626,
      "in": 1627,
      "th": 1628,
      "an": 1629,
      "er": 1630,
      "on": 1631,
      "re": 1632,
      "at": 1633,
      "en": 1634,
      "or": 1635,
      "the": 1636,
      "es": 1637,
      "ed": 1638,
      "al": 1639,
      "of": 1640,
      "ion": 1641,
      "it": 1642,
      "to": 1643,
      "ar": 1644,
      "and": 1645,
      "ing": 1646,
      "as": 1647,
      "ent": 1648,
      "ou": 1649,
      "is": 1650,
      "om": 1651,
      "ct": 1652,
      "ic": 1653,
      "il": 1654,
      "st": 1655,
      "ro": 1656,
      "ment": 1657,
      "le": 1658,
      "se": 1659,
      "ation": 1660,
      "ve": 1661,
      "ur": 1662,
      "--": 1663,
      "for": 1664,
      "lo": 1665,
      "ce": 1666,
      "su": 1667,
      "de": 1668,
      "com": 1669,
      "ch": 1670,
      "ter": 1671,
      "ly": 1672,
      "per": 1673,
      "are": 1674,
      "ate": 1675,
      "con": 1676,
      "our": 1677,
      "et": 1678,
      "pro": 1679,
      "ab": 1680,
      "qu": 1681,
      "im": 1682,
      "ol": 1683,
      "ex": 1684,
      "id": 1685,
      "be": 1686,
      "..": 1687,
      "un": 1688,
      "est": 1689,
      "we": 1690,
      "he": 1691,
      "ies": 1692,
      "any": 1693,
      "ill": 1694,
      "us": 1695,
      "ot": 1696,
      "ver": 1697,
      "ay": 1698,
      "ig": 1699,
      "ad": 1700,
      "ut": 1701,
      "ect": 1702,
      "tr": 1703,
      "ial": 1704,
      "ge": 1705,
      "that": 1706,
      "ts": 1707,
      "ac": 1708,
      "ith": 1709,
      "res": 1710,
      "In": 1711,
      "ated": 1712,
      "ther": 1713,
      "ap": 1714,
      "ta": 1715,
      "inc": 1716,
      "with": 1717,
      "Com": 1718,
      "por": 1719,
      "ive": 1720,
      "ir": 1721,
      "act": 1722,
      "ity": 1723,
      "ber": 1724,
      "sh": 1725,
      "ear": 1726,
      "pr": 1727,
      "ess": 1728,
      "am": 1729,
      "if": 1730,
      "ments": 1731,
      "by": 1732,
      "The": 1733,
      "pany": 1734,
      "ant": 1735,
      "der": 1736,
      "wh": 1737,
      "em": 1738,
      "----": 1739,
      "du": 1740,
      "end": 1741,
      "ul": 1742,
      "iv": 1743,
      "oun": 1744,
      "fr": 1745,
      "able": 1746,
      "anc": 1747,
      "li": 1748,
      "ions": 1749,
      "ance": 1750,
      "red": 1751,
      "co": 1752,
      "exp": 1753,
      "ities": 1754,
      "Company": 1755,
      "from": 1756,
      "illion": 1757,
      "ations": 1758,
      "port": 1759,
      "comp": 1760,
      "cur": 1761,
      "....": 1762,
      "its": 1763,
      "ck": 1764,
      "not": 1765,
      "ue": 1766,
      "ud": 1767,
      "ef": 1768,
      "ip": 1769,
      "ase": 1770,
      "mar": 1771,
      "ld": 1772,
      "low": 1773,
      "year": 1774,
      "ib": 1775,
      "fin": 1776,
      "million": 1777,
      "Re": 1778,
      "ha": 1779,
      "po": 1780,
      "mber": 1781,
      "age": 1782,
      "ag": 1783,
      "De": 1784,
      "__": 1785,
      "all": 1786,
      "ard": 1787,
      "od": 1788,
      "pt": 1789,
      "ition": 1790,
      "iz": 1791,
      "ers": 1792,
      "ow": 1793,
      "tock": 1794,
      "ne": 1795,
      "pl": 1796,
      "str": 1797,
      "art": 1798,
      "ancial": 1799,
      "other": 1800,
      "share": 1801,
      "ans": 1802,
      "ll": 1803,
      "igh": 1804,
      "form": 1805,
      "fer": 1806,
      "ere": 1807,
      "ich": 1808,
      "ma": 1809,
      "ore": 1810,
      "ire": 1811,
      "have": 1812,
      "oper": 1813,
      "Ex": 1814,
      "mark": 1815,
      "mon": 1816,
      "ens": 1817,
      "ss": 1818,
      "will": 1819,
      "come": 1820,
      "which": 1821,
      "tain": 1822,
      "chan": 1823,
      "out": 1824,
      "val": 1825,
      "incl": 1826,
      "We": 1827,
      "ould": 1828,
      "Se": 1829,
      "ree": 1830,
      "duct": 1831,
      "inter": 1832,
      "ust": 1833,
      "vest": 1834,
      "arter": 1835,
      "was": 1836,
      "ure": 1837,
      "reg": 1838,
      "cl": 1839,
      "dis": 1840,
      "ren": 1841,
      "Th": 1842,
      "under": 1843,
      "ased": 1844,
      "ating": 1845,
      "ary": 1846,
      "this": 1847,
      "ors": 1848,
      "cont": 1849,
      "market": 1850,
      "so": 1851,
      "rev": 1852,
      "may": 1853,
      "te": 1854,
      "sul": 1855,
      "over": 1856,
      "term": 1857,
      "prov": 1858,
      "stock": 1859,
      "abil": 1860,
      "ount": 1861,
      "ign": 1862,
      "ash": 1863,
      "Dece": 1864,
      "December": 1865,
      "iness": 1866,
      "ates": 1867,
      "ice": 1868,
      "usiness": 1869,
      "me": 1870,
      "erv": 1871,
      "financial": 1872,
      "acc": 1873,
      "resul": 1874,
      "--------": 1875,
      "mer": 1876,
      "up": 1877,
      "man": 1878,
      "quarter": 1879,
      "af": 1880,
      "part": 1881,
      "includ": 1882,
      "cent": 1883,
      "sub": 1884,
      "net": 1885,
      "ke": 1886,
      "state": 1887,
      "rel": 1888,
      "ank": 1889,
      "pur": 1890,
      "==": 1891,
      "ings": 1892,
      "ec": 1893,
      "business": 1894,
      "asse": 1895,
      "Con": 1896,
      "ual": 1897,
      "you": 1898,
      "product": 1899,
      "fect": 1900,
      "income": 1901,
      "tax": 1902,
      "gr": 1903,
      "sal": 1904,
      "St": 1905,
      "sp": 1906,
      "ain": 1907,
      "An": 1908,
      "ended": 1909,
      "cost": 1910,
      "ical": 1911,
      "For": 1912,
      "invest": 1913,
      "ong": 1914,
      "has": 1915,
      "cus": 1916,
      "incre": 1917,
      "um": 1918,
      "row": 1919,
      "sol": 1920,
      "ices": 1921,
      "change": 1922,
      "peri": 1923,
      "requ": 1924,
      "eral": 1925,
      "curities": 1926,
      "TE": 1927,
      "AN": 1928,
      "ific": 1929,
      "IN": 1930,
      "such": 1931,
      "dition": 1932,
      "cer": 1933,
      "interest": 1934,
      "........": 1935,
      "ents": 1936,
      "air": 1937,
      "cash": 1938,
      "ine": 1939,
      "hol": 1940,
      "ence": 1941,
      "pre": 1942,
      "ist": 1943,
      "ous": 1944,
      "ember": 1945,
      "ob": 1946,
      "serv": 1947,
      "ord": 1948,
      "new": 1949,
      "no": 1950,
      "pos": 1951,
      "one": 1952,
      "fic": 1953,
      "ital": 1954,
      "pay": 1955,
      "mat": 1956,
      "own": 1957,
      "istr": 1958,
      "RE": 1959,
      "tim": 1960,
      "int": 1961,
      "loss": 1962,
      "just": 1963,
      "assets": 1964,
      "report": 1965,
      "pres": 1966,
      "fol": 1967,
      "fil": 1968,
      "aid": 1969,
      "cap": 1970,
      "rent": 1971,
      "lect": 1972,
      "ized": 1973,
      "orpor": 1974,
      "equ": 1975,
      "ok": 1976,
      "ach": 1977,
      "Ch": 1978,
      "were": 1979,
      "au": 1980,
      "gh": 1981,
      "ast": 1982,
      "imp": 1983,
      "ON": 1984,
      "aw": 1985,
      "value": 1986,
      "ass": 1987,
      "irect": 1988,
      "Act": 1989,
      "go": 1990,
      "uring": 1991,
      "appro": 1992,
      "ject": 1993,
      "op": 1994,
      "shares": 1995,
      "As": 1996,
      "ty": 1997,
      "ability": 1998,
      "ough": 1999,
      "IT": 2000,
      "av": 2001,
      "ight": 2002,
      "ie": 2003,
      "cal": 2004,
      "____": 2005,
      "expect": 2006,
      "period": 2007,
      "do": 2008,
      "day": 2009,
      "contin": 2010,
      "ort": 2011,
      "reven": 2012,
      "statements": 2013,
      "certain": 2014,
      "ative": 2015,
      "including": 2016,
      "ru": 2017,
      "SE": 2018,
      "reement": 2019,
      "gen": 2020,
      "Un": 2021,
      "comm": 2022,
      "cess": 2023,
      "resp": 2024,
      "Mar": 2025,
      "percent": 2026,
      "ris": 2027,
      "ail": 2028,
      "these": 2029,
      "more": 2030,
      "trans": 2031,
      "ide": 2032,
      "operations": 2033,
      "related": 2034,
      "OR": 2035,
      "ited": 2036,
      "ders": 2037,
      "company": 2038,
      "Inc": 2039,
      "gy": 2040,
      "issu": 2041,
      "could": 2042,
      "el": 2043,
      "ense": 2044,
      "ters": 2045,
      "based": 2046,
      "ory": 2047,
      "ior": 2048,
      "results": 2049,
      "ev": 2050,
      "effect": 2051,
      "also": 2052,
      "Fin": 2053,
      "time": 2054,
      "sign": 2055,
      "solid": 2056,
      "grow": 2057,
      "agement": 2058,
      "stand": 2059,
      "there": 2060,
      "addition": 2061,
      "ia": 2062,
      "ges": 2063,
      "ibut": 2064,
      "ind": 2065,
      "than": 2066,
      "common": 2067,
      "bt": 2068,
      "acqu": 2069,
      "sid": 2070,
      "fir": 2071,
      "formation": 2072,
      "operating": 2073,
      "ome": 2074,
      "velo": 2075,
      "fe": 2076,
      "custo": 2077,
      "mo": 2078,
      "ann": 2079,
      "arr": 2080,
      "fact": 2081,
      "ures": 2082,
      "ward": 2083,
      "wor": 2084,
      "clo": 2085,
      "costs": 2086,
      "loy": 2087,
      "velop": 2088,
      "ub": 2089,
      "Ad": 2090,
      "sales": 2091,
      "ired": 2092,
      "redit": 2093,
      "fut": 2094,
      "AS": 2095,
      "io": 2096,
      "follow": 2097,
      "DA": 2098,
      "Pro": 2099,
      "cond": 2100,
      "Securities": 2101,
      "high": 2102,
      "rate": 2103,
      "tribut": 2104,
      "ploy": 2105,
      "rough": 2106,
      "look": 2107,
      "erial": 2108,
      "non": 2109,
      "ful": 2110,
      "))": 2111,
      "tract": 2112,
      "capital": 2113,
      "Ac": 2114,
      "been": 2115,
      "would": 2116,
      "ST": 2117,
      "ack": 2118,
      "tal": 2119,
      "Ag": 2120,
      "ext": 2121,
      "current": 2122,
      "fore": 2123,
      "No": 2124,
      "And": 2125,
      "result": 2126,
      "ately": 2127,
      "und": 2128,
      "ecut": 2129,
      "ner": 2130,
      "ci": 2131,
      "ident": 2132,
      "lease": 2133,
      "bo": 2134,
      "ues": 2135,
      "set": 2136,
      "perform": 2137,
      "``": 2138,
      "Exchange": 2139,
      "suant": 2140,
      "ied": 2141,
      "Not": 2142,
      "solidated": 2143,
      "uct": 2144,
      "material": 2145,
      "future": 2146,
      "ection": 2147,
      "EN": 2148,
      "ise": 2149,
      "opt": 2150,
      "(\"": 2151,
      "enc": 2152,
      "develop": 2153,
      "enef": 2154,
      "ship": 2155,
      "cre": 2156,
      "into": 2157,
      "enses": 2158,
      "years": 2159,
      "lar": 2160,
      "It": 2161,
      "Financial": 2162,
      "can": 2163,
      "otal": 2164,
      "Our": 2165,
      "main": 2166,
      "umber": 2167,
      "through": 2168,
      "ounts": 2169,
      "real": 2170,
      "provid": 2171,
      "Net": 2172,
      "AP": 2173,
      "ible": 2174,
      "min": 2175,
      "Total": 2176,
      "respect": 2177,
      "their": 2178,
      "off": 2179,
      "growth": 2180,
      "risk": 2181,
      "**": 2182,
      "ict": 2183,
      "ame": 2184,
      "very": 2185,
      "month": 2186,
      "purch": 2187,
      "sum": 2188,
      "information": 2189,
      "xim": 2190,
      "verage": 2191,
      "AR": 2192,
      "holders": 2193,
      "lic": 2194,
      "due": 2195,
      "pe": 2196,
      "sion": 2197,
      "itions": 2198,
      "products": 2199,
      "ose": 2200,
      "cr": 2201,
      "bal": 2202,
      "),": 2203,
      "date": 2204,
      "CO": 2205,
      "gin": 2206,
      "said": 2207,
      "State": 2208,
      "about": 2209,
      "ER": 2210,
      "Of": 2211,
      "but": 2212,
      "ES": 2213,
      "ile": 2214,
      "====": 2215,
      "reco": 2216,
      "see": 2217,
      "Oper": 2218,
      "Stock": 2219,
      "revenue": 2220,
      "regul": 2221,
      "direct": 2222,
      "rece": 2223,
      "expense": 2224,
      "debt": 2225,
      "abilities": 2226,
      ",\"": 2227,
      "estim": 2228,
      "AL": 2229,
      "earn": 2230,
      "bas": 2231,
      "ink": 2232,
      "price": 2233,
      "hib": 2234,
      "HH": 2235,
      "after": 2236,
      "increase": 2237,
      "fair": 2238,
      "ization": 2239,
      "some": 2240,
      ").": 2241,
      "ious": 2242,
      "uters": 2243,
      "ility": 2244,
      "refer": 2245,
      "well": 2246,
      "AT": 2247,
      "Form": 2248,
      "urn": 2249,
      "management": 2250,
      "ificant": 2251,
      "expenses": 2252,
      "account": 2253,
      "Tr": 2254,
      "Agreement": 2255,
      "ants": 2256,
      "Inter": 2257,
      "ared": 2258,
      "benef": 2259,
      "present": 2260,
      "Member": 2261,
      "ified": 2262,
      "contro": 2263,
      "vel": 2264,
      "sup": 2265,
      "vol": 2266,
      "impact": 2267,
      "ish": 2268,
      "GA": 2269,
      "services": 2270,
      "cord": 2271,
      "gu": 2272,
      "Lo": 2273,
      "first": 2274,
      "lig": 2275,
      "ite": 2276,
      "sur": 2277,
      "----------------": 2278,
      "ases": 2279,
      "ecutive": 2280,
      "Sh": 2281,
      "require": 2282,
      "termin": 2283,
      "ily": 2284,
      "approxim": 2285,
      "contract": 2286,
      "iscal": 2287,
      "work": 2288,
      "Bank": 2289,
      "ress": 2290,
      "following": 2291,
      "significant": 2292,
      "Other": 2293,
      "ced": 2294,
      "ix": 2295,
      "yst": 2296,
      "Pl": 2297,
      "Co": 2298,
      "Comm": 2299,
      "during": 2300,
      "forward": 2301,
      "des": 2302,
      "subject": 2303,
      "amount": 2304,
      "istrant": 2305,
      "each": 2306,
      "credit": 2307,
      "UR": 2308,
      "Report": 2309,
      "general": 2310,
      "employ": 2311,
      "proper": 2312,
      "ensation": 2313,
      "itt": 2314,
      "So": 2315,
      "those": 2316,
      "ivid": 2317,
      "approximately": 2318,
      "total": 2319,
      "fund": 2320,
      "En": 2321,
      "Reg": 2322,
      "used": 2323,
      "number": 2324,
      "ational": 2325,
      "now": 2326,
      "ph": 2327,
      "dif": 2328,
      "incip": 2329,
      "ively": 2330,
      "pursuant": 2331,
      "standing": 2332,
      "had": 2333,
      "ult": 2334,
      "ause": 2335,
      "think": 2336,
      "ace": 2337,
      "activ": 2338,
      "ata": 2339,
      "basis": 2340,
      "inde": 2341,
      "here": 2342,
      "une": 2343,
      "tw": 2344,
      "mers": 2345,
      "TS": 2346,
      "ird": 2347,
      "oblig": 2348,
      "son": 2349,
      "securities": 2350,
      "law": 2351,
      "liabilities": 2352,
      "ven": 2353,
      "uro": 2354,
      "Pr": 2355,
      "spec": 2356,
      "performance": 2357,
      "prim": 2358,
      "bank": 2359,
      "get": 2360,
      "plic": 2361,
      "cept": 2362,
      "les": 2363,
      "acquis": 2364,
      "Exhib": 2365,
      "ret": 2366,
      "March": 2367,
      "icip": 2368,
      "avail": 2369,
      "equity": 2370,
      "lim": 2371,
      "fiscal": 2372,
      "cy": 2373,
      "pend": 2374,
      "valu": 2375,
      "dr": 2376,
      "TO": 2377,
      "investment": 2378,
      "record": 2379,
      "June": 2380,
      "Ne": 2381,
      "bet": 2382,
      "BB": 2383,
      "additional": 2384,
      "On": 2385,
      "adjust": 2386,
      "flow": 2387,
      "continu": 2388,
      "<.": 2389,
      "oup": 2390,
      "ound": 2391,
      "%%": 2392,
      "sure": 2393,
      "gn": 2394,
      "earnings": 2395,
      "Bo": 2396,
      "customers": 2397,
      "Acc": 2398,
      "use": 2399,
      "beli": 2400,
      "EX": 2401,
      "SI": 2402,
      "dustr": 2403,
      "meas": 2404,
      "ties": 2405,
      "ross": 2406,
      "rates": 2407,
      "ficer": 2408,
      "transact": 2409,
      "Cont": 2410,
      "struct": 2411,
      "prof": 2412,
      "less": 2413,
      "DD": 2414,
      "GAAP": 2415,
      "Item": 2416,
      "gain": 2417,
      "LL": 2418,
      "control": 2419,
      "ange": 2420,
      "orporation": 2421,
      "loans": 2422,
      "IC": 2423,
      "looking": 2424,
      "consolidated": 2425,
      "expected": 2426,
      "This": 2427,
      "fac": 2428,
      "ade": 2429,
      "________": 2430,
      "aud": 2431,
      "Sept": 2432,
      "long": 2433,
      "changes": 2434,
      "ceed": 2435,
      "issued": 2436,
      "required": 2437,
      "ude": 2438,
      "ule": 2439,
      "third": 2440,
      "................": 2441,
      "let": 2442,
      "they": 2443,
      "recogn": 2444,
      "increased": 2445,
      "terms": 2446,
      "Res": 2447,
      "receiv": 2448,
      "compared": 2449,
      "tech": 2450,
      "arily": 2451,
      "cause": 2452,
      "continue": 2453,
      "down": 2454,
      "ese": 2455,
      "lement": 2456,
      "ond": 2457,
      "reas": 2458,
      "nolo": 2459,
      "overn": 2460,
      "applic": 2461,
      "conom": 2462,
      "line": 2463,
      "ak": 2464,
      "ian": 2465,
      "MI": 2466,
      "prior": 2467,
      "purchase": 2468,
      "char": 2469,
      "development": 2470,
      "ublic": 2471,
      "like": 2472,
      "adver": 2473,
      "ision": 2474,
      "princip": 2475,
      "filed": 2476,
      "col": 2477,
      "available": 2478,
      "US": 2479,
      "reat": 2480,
      "ential": 2481,
      "ded": 2482,
      "September": 2483,
      "_P": 2484,
      "cial": 2485,
      "CH": 2486,
      "sidi": 2487,
      "when": 2488,
      "last": 2489,
      "billion": 2490,
      "outstanding": 2491,
      "par": 2492,
      "Part": 2493,
      "Am": 2494,
      "SEC": 2495,
      "Jan": 2496,
      "level": 2497,
      ".,": 2498,
      "losses": 2499,
      "what": 2500,
      "Au": 2501,
      "ang": 2502,
      "ief": 2503,
      "affect": 2504,
      "ystem": 2505,
      "differ": 2506,
      "AND": 2507,
      "New": 2508,
      "CI": 2509,
      "paid": 2510,
      "ives": 2511,
      "bu": 2512,
      "OF": 2513,
      "Direct": 2514,
      "compet": 2515,
      "gram": 2516,
      "OL": 2517,
      "ferred": 2518,
      "econom": 2519,
      "Pur": 2520,
      "ning": 2521,
      "ances": 2522,
      "data": 2523,
      "br": 2524,
      "ee": 2525,
      "Section": 2526,
      "ission": 2527,
      "accounting": 2528,
      "back": 2529,
      "vent": 2530,
      "med": 2531,
      "var": 2532,
      "average": 2533,
      "cu": 2534,
      "loan": 2535,
      "sale": 2536,
      "mercial": 2537,
      "thor": 2538,
      "FR": 2539,
      "compensation": 2540,
      "include": 2541,
      "gan": 2542,
      "EB": 2543,
      "included": 2544,
      "distribut": 2545,
      "good": 2546,
      "ards": 2547,
      "primarily": 2548,
      "ees": 2549,
      "iew": 2550,
      "quest": 2551,
      "industr": 2552,
      "Al": 2553,
      "offer": 2554,
      "markets": 2555,
      "trad": 2556,
      "Income": 2557,
      "second": 2558,
      "enter": 2559,
      "upon": 2560,
      "pat": 2561,
      "ands": 2562,
      "loc": 2563,
      "CE": 2564,
      "dem": 2565,
      "going": 2566,
      "Exhibit": 2567,
      "gment": 2568,
      "consid": 2569,
      "reporting": 2570,
      "TH": 2571,
      "decre": 2572,
      "Le": 2573,
      "anies": 2574,
      "\")": 2575,
      "requirements": 2576,
      "II": 2577,
      "Man": 2578,
      "agreement": 2579,
      "months": 2580,
      "nal": 2581,
      "remain": 2582,
      "revenues": 2583,
      "Invest": 2584,
      "Euro": 2585,
      "uary": 2586,
      "provide": 2587,
      "where": 2588,
      "January": 2589,
      "activities": 2590,
      "call": 2591,
      "resident": 2592,
      "Officer": 2593,
      "olic": 2594,
      "Share": 2595,
      "ION": 2596,
      "four": 2597,
      "sed": 2598,
      "DI": 2599,
      "then": 2600,
      "These": 2601,
      "ween": 2602,
      "surance": 2603,
      "aim": 2604,
      "alth": 2605,
      "made": 2606,
      "Rule": 2607,
      "atory": 2608,
      "bin": 2609,
      "If": 2610,
      "two": 2611,
      "AC": 2612,
      "below": 2613,
      "ederal": 2614,
      "ics": 2615,
      "ga": 2616,
      "iven": 2617,
      "margin": 2618,
      "fo": 2619,
      "between": 2620,
      "ollar": 2621,
      "plan": 2622,
      "ys": 2623,
      "cons": 2624,
      "Board": 2625,
      "old": 2626,
      "three": 2627,
      "Gr": 2628,
      "ATE": 2629,
      "consider": 2630,
      "sell": 2631,
      "author": 2632,
      "higher": 2633,
      "adverse": 2634,
      "defin": 2635,
      "ME": 2636,
      "ger": 2637,
      "ick": 2638,
      "ights": 2639,
      "ref": 2640,
      "ons": 2641,
      "service": 2642,
      "ividend": 2643,
      "ID": 2644,
      "SU": 2645,
      "registrant": 2646,
      "clud": 2647,
      "reference": 2648,
      "again": 2649,
      "acquisition": 2650,
      "annual": 2651,
      "pot": 2652,
      "qual": 2653,
      "Mr": 2654,
      "prev": 2655,
      "Plan": 2656,
      "sing": 2657,
      "companies": 2658,
      "strate": 2659,
      "itive": 2660,
      "program": 2661,
      "within": 2662,
      "ize": 2663,
      "respectively": 2664,
      "Cap": 2665,
      "ically": 2666,
      "project": 2667,
      "`@": 2668,
      "Chief": 2669,
      "allow": 2670,
      "fl": 2671,
      "subsidi": 2672,
      "public": 2673,
      "provided": 2674,
      "determin": 2675,
      "ally": 2676,
      "lower": 2677,
      "^^": 2678,
      "govern": 2679,
      "commun": 2680,
      "Executive": 2681,
      "amounts": 2682,
      "ator": 2683,
      "Notes": 2684,
      "Comp": 2685,
      "Statements": 2686,
      "reported": 2687,
      "technolo": 2688,
      "orporated": 2689,
      "led": 2690,
      "news": 2691,
      "assum": 2692,
      "UN": 2693,
      "folio": 2694,
      "property": 2695,
      "investments": 2696,
      "effective": 2697,
      "put": 2698,
      "Fr": 2699,
      "ince": 2700,
      "($": 2701,
      "clin": 2702,
      "del": 2703,
      "ying": 2704,
      "NO": 2705,
      "ilut": 2706,
      "factors": 2707,
      "tail": 2708,
      "United": 2709,
      "eve": 2710,
      "ving": 2711,
      "shall": 2712,
      "elect": 2713,
      "hal": 2714,
      "Fe": 2715,
      "Mark": 2716,
      "system": 2717,
      "adv": 2718,
      "ged": 2719,
      "accord": 2720,
      "sim": 2721,
      "process": 2722,
      "potential": 2723,
      "ces": 2724,
      "init": 2725,
      "isions": 2726,
      "position": 2727,
      "believe": 2728,
      "MP": 2729,
      "Non": 2730,
      "prices": 2731,
      "Reuters": 2732,
      "ii": 2733,
      "reflect": 2734,
      "asset": 2735,
      "ra": 2736,
      "orrow": 2737,
      "DE": 2738,
      "ging": 2739,
      "king": 2740,
      "May": 2741,
      "Cash": 2742,
      "ancing": 2743,
      "taxes": 2744,
      "ional": 2745,
      "supp": 2746,
      "ufact": 2747,
      "most": 2748,
      "isting": 2749,
      "profit": 2750,
      "enior": 2751,
      "iver": 2752,
      "MEN": 2753,
      "make": 2754,
      "ification": 2755,
      "conditions": 2756,
      "Equ": 2757,
      "Date": 2758,
      "aries": 2759,
      "reuters": 2760,
      "orporate": 2761,
      "Companys": 2762,
      "iting": 2763,
      "MB": 2764,
      "amort": 2765,
      "GE": 2766,
      "national": 2767,
      "urther": 2768,
      "half": 2769,
      "balance": 2770,
      "MT": 2771,
      "curren": 2772,
      "risks": 2773,
      "ched": 2774,
      "your": 2775,
      "point": 2776,
      "Feb": 2777,
      "Europe": 2778,
      "Cl": 2779,
      "commercial": 2780,
      "Note": 2781,
      "oc": 2782,
      "ptions": 2783,
      "`\"": 2784,
      "President": 2785,
      "erc": 2786,
      "soci": 2787,
      "Amer": 2788,
      "ially": 2789,
      "ipment": 2790,
      "way": 2791,
      "reements": 2792,
      "gaap": 2793,
      "IES": 2794,
      "recorded": 2795,
      "payment": 2796,
      "associ": 2797,
      "gas": 2798,
      "question": 2799,
      "next": 2800,
      "payments": 2801,
      "redu": 2802,
      "strong": 2803,
      "dividend": 2804,
      "benefit": 2805,
      "gener": 2806,
      "continued": 2807,
      "customer": 2808,
      "iate": 2809,
      "principal": 2810,
      "carr": 2811,
      "ding": 2812,
      "dated": 2813,
      "vir": 2814,
      "Gen": 2815,
      "Interest": 2816,
      "conn": 2817,
      "person": 2818,
      "ood": 2819,
      "States": 2820,
      "MM": 2821,
      "Apr": 2822,
      "generally": 2823,
      "):": 2824,
      "recognized": 2825,
      "claim": 2826,
      "`!": 2827,
      "Corporation": 2828,
      "portfolio": 2829,
      "At": 2830,
      "lish": 2831,
      "insurance": 2832,
      "manufact": 2833,
      "organ": 2834,
      "app": 2835,
      "MS": 2836,
      "RO": 2837,
      "@`": 2838,
      "ption": 2839,
      "Ju": 2840,
      "Operating": 2841,
      "ministr": 2842,
      "April": 2843,
      "only": 2844,
      "both": 2845,
      "conver": 2846,
      "Consolidated": 2847,
      "ax": 2848,
      "because": 2849,
      "deli": 2850,
      "class": 2851,
      "dollar": 2852,
      "((": 2853,
      "Oc": 2854,
      "liability": 2855,
      "preci": 2856,
      "uch": 2857,
      "Cur": 2858,
      "reason": 2859,
      "strict": 2860,
      "lobal": 2861,
      "%,": 2862,
      "stant": 2863,
      "whe": 2864,
      "directors": 2865,
      "contain": 2866,
      "party": 2867,
      "held": 2868,
      "Capital": 2869,
      "should": 2870,
      "Americ": 2871,
      "ruary": 2872,
      "ccess": 2873,
      "Ind": 2874,
      "February": 2875,
      "CON": 2876,
      "head": 2877,
      "ications": 2878,
      "index": 2879,
      "obligations": 2880,
      "right": 2881,
      "actual": 2882,
      "ING": 2883,
      "meet": 2884,
      "industry": 2885,
      "July": 2886,
      "combin": 2887,
      "Common": 2888,
      "wr": 2889,
      "EBIT": 2890,
      "disclo": 2891,
      "Thank": 2892,
      "options": 2893,
      "regard": 2894,
      "stit": 2895,
      "release": 2896,
      "before": 2897,
      "prove": 2898,
      "incorporated": 2899,
      "grant": 2900,
      "nership": 2901,
      "economic": 2902,
      "ints": 2903,
      "quid": 2904,
      "whether": 2905,
      "option": 2906,
      "applicable": 2907,
      "restrict": 2908,
      "flows": 2909,
      "ww": 2910,
      "ports": 2911,
      "fees": 2912,
      "nat": 2913,
      "LE": 2914,
      "NE": 2915,
      "read": 2916,
      "foreign": 2917,
      "MA": 2918,
      "need": 2919,
      "portun": 2920,
      "Account": 2921,
      "ilities": 2922,
      "bro": 2923,
      "same": 2924,
      "Per": 2925,
      "associated": 2926,
      "Adjust": 2927,
      "proved": 2928,
      "evalu": 2929,
      "mental": 2930,
      "IP": 2931,
      "stitut": 2932,
      "========": 2933,
      "LLC": 2934,
      "success": 2935,
      "impair": 2936,
      "Aug": 2937,
      "Year": 2938,
      "regulatory": 2939,
      "full": 2940,
      "iluted": 2941,
      "ources": 2942,
      "statement": 2943,
      "TED": 2944,
      "leg": 2945,
      "Mon": 2946,
      "proceed": 2947,
      "lead": 2948,
      "iously": 2949,
      "points": 2950,
      "MO": 2951,
      "ton": 2952,
      "experi": 2953,
      "equipment": 2954,
      "agreements": 2955,
      "being": 2956,
      "ey": 2957,
      "notes": 2958,
      "lat": 2959,
      "iss": 2960,
      "Octo": 2961,
      "IB": 2962,
      "October": 2963,
      "plans": 2964,
      "demand": 2965,
      "return": 2966,
      "ek": 2967,
      "uncertain": 2968,
      "estimated": 2969,
      "thous": 2970,
      "EBITDA": 2971,
      "ised": 2972,
      "All": 2973,
      "polic": 2974,
      "executive": 2975,
      "ient": 2976,
      "filing": 2977,
      "Commission": 2978,
      "coun": 2979,
      "Credit": 2980,
      "place": 2981,
      "itte": 2982,
      "who": 2983,
      "exchange": 2984,
      "gage": 2985,
      "since": 2986,
      "Market": 2987,
      "maintain": 2988,
      "laws": 2989,
      "ield": 2990,
      "opportun": 2991,
      "tion": 2992,
      "heet": 2993,
      "discus": 2994,
      "design": 2995,
      "Table": 2996,
      "incur": 2997,
      "STATE": 2998,
      "SS": 2999,
      "LO": 3000,
      "viron": 3001,
      "MC": 3002,
      "does": 3003,
      "wer": 3004,
      "pendent": 3005,
      "ival": 3006,
      "complet": 3007,
      "ove": 3008,
      "inte": 3009,
      "exerc": 3010,
      "internal": 3011,
      "QU": 3012,
      "against": 3013,
      "MK": 3014,
      "support": 3015,
      "production": 3016,
      "employees": 3017,
      "fourth": 3018,
      "tar": 3019,
      "stru": 3020,
      "ending": 3021,
      "Sub": 3022,
      "Val": 3023,
      "ium": 3024,
      "Wh": 3025,
      "Def": 3026,
      "deferred": 3027,
      "indic": 3028,
      "ural": 3029,
      "anticip": 3030,
      "transactions": 3031,
      "rights": 3032,
      "oil": 3033,
      "sect": 3034,
      "take": 3035,
      "financing": 3036,
      "limited": 3037,
      "Te": 3038,
      "Management": 3039,
      "=>": 3040,
      "Qu": 3041,
      "depos": 3042,
      "ficers": 3043,
      "ting": 3044,
      "Serv": 3045,
      "ensive": 3046,
      "Pre": 3047,
      "accordance": 3048,
      "segment": 3049,
      "[.": 3050,
      "above": 3051,
      "ca": 3052,
      "ister": 3053,
      "ular": 3054,
      "anal": 3055,
      "add": 3056,
      "Ann": 3057,
      "But": 3058,
      "ulated": 3059,
      "contracts": 3060,
      "Dis": 3061,
      "che": 3062,
      "AB": 3063,
      "aging": 3064,
      "ric": 3065,
      "represent": 3066,
      "Directors": 3067,
      "estimates": 3068,
      "neg": 3069,
      "ten": 3070,
      "using": 3071,
      "Nove": 3072,
      "connection": 3073,
      "how": 3074,
      "November": 3075,
      "IS": 3076,
      "investors": 3077,
      "technology": 3078,
      "event": 3079,
      "currently": 3080,
      "PA": 3081,
      "improve": 3082,
      "IV": 3083,
      "further": 3084,
      "August": 3085,
      "%.": 3086,
      "idance": 3087,
      "\\`": 3088,
      "FO": 3089,
      "obtain": 3090,
      "stockholders": 3091,
      "except": 3092,
      "agg": 3093,
      "ina": 3094,
      "borrow": 3095,
      "Ph": 3096,
      "transaction": 3097,
      "signed": 3098,
      "periods": 3099,
      "Em": 3100,
      "lin": 3101,
      "provisions": 3102,
      "M_": 3103,
      "focus": 3104,
      "defined": 3105,
      ".\"": 3106,
      "spect": 3107,
      "CFR": 3108,
      "ittee": 3109,
      "cle": 3110,
      "jor": 3111,
      "Contents": 3112,
      "Reven": 3113,
      "MW": 3114,
      ")(": 3115,
      "preciation": 3116,
      "existing": 3117,
      "liquid": 3118,
      "benefits": 3119,
      "ATION": 3120,
      "thousands": 3121,
      "PS": 3122,
      "liance": 3123,
      "currency": 3124,
      "announ": 3125,
      "Current": 3126,
      "portion": 3127,
      "impairment": 3128,
      "Ar": 3129,
      "sequ": 3130,
      "He": 3131,
      "substant": 3132,
      "FOR": 3133,
      "General": 3134,
      "holder": 3135,
      "Ro": 3136,
      "thod": 3137,
      "icing": 3138,
      "decrease": 3139,
      "ilar": 3140,
      "IR": 3141,
      "payable": 3142,
      "ixed": 3143,
      "TR": 3144,
      "Equity": 3145,
      "ighted": 3146,
      "funds": 3147,
      "approval": 3148,
      "jo": 3149,
      "events": 3150,
      "Sp": 3151,
      "communications": 3152,
      "facility": 3153,
      "federal": 3154,
      "top": 3155,
      "ste": 3156,
      "environ": 3157,
      "obligation": 3158,
      "hist": 3159,
      "estate": 3160,
      "erve": 3161,
      "acquired": 3162,
      "Registrant": 3163,
      "ler": 3164,
      "condition": 3165,
      "gies": 3166,
      "Ended": 3167,
      "curity": 3168,
      "accounts": 3169,
      "includes": 3170,
      "Pursuant": 3171,
      "ortgage": 3172,
      "MV": 3173,
      "Br": 3174,
      "warr": 3175,
      "among": 3176,
      "buil": 3177,
      "while": 3178,
      "review": 3179,
      "POR": 3180,
      "land": 3181,
      "target": 3182,
      "regulations": 3183,
      "guidance": 3184,
      "begin": 3185,
      "Group": 3186,
      "major": 3187,
      "regarding": 3188,
      "deriv": 3189,
      "adjusted": 3190,
      "Cer": 3191,
      "GN": 3192,
      "shareholders": 3193,
      "ablish": 3194,
      "week": 3195,
      "owned": 3196,
      "Accounting": 3197,
      "hel": 3198,
      "disc": 3199,
      "MR": 3200,
      "member": 3201,
      "att": 3202,
      "TA": 3203,
      "descr": 3204,
      "method": 3205,
      "angible": 3206,
      "MX": 3207,
      "received": 3208,
      "item": 3209,
      "MG": 3210,
      "deem": 3211,
      "atio": 3212,
      "firm": 3213,
      "gains": 3214,
      "arch": 3215,
      "fully": 3216,
      "Nor": 3217,
      "range": 3218,
      "amortization": 3219,
      "als": 3220,
      "today": 3221,
      "establish": 3222,
      "measure": 3223,
      "great": 3224,
      "Trust": 3225,
      "claims": 3226,
      "sold": 3227,
      "ministrative": 3228,
      "order": 3229,
      "unt": 3230,
      "trade": 3231,
      "various": 3232,
      "similar": 3233,
      "MU": 3234,
      "cured": 3235,
      "Is": 3236,
      "assess": 3237,
      "eng": 3238,
      "MD": 3239,
      ">,": 3240,
      "many": 3241,
      "CA": 3242,
      "FIN": 3243,
      "OP": 3244,
      "care": 3245,
      "clinical": 3246,
      "MY": 3247,
      "table": 3248,
      "amended": 3249,
      "particip": 3250,
      "ulation": 3251,
      "government": 3252,
      "subsidiaries": 3253,
      "decl": 3254,
      "(\"`@": 3255,
      "Jo": 3256,
      "aggreg": 3257,
      "There": 3258,
      "site": 3259,
      "(#": 3260,
      "sever": 3261,
      "asing": 3262,
      "Employ": 3263,
      "equival": 3264,
      "health": 3265,
      "mean": 3266,
      "measures": 3267,
      "eries": 3268,
      "Sal": 3269,
      "Annual": 3270,
      "Adjusted": 3271,
      "ife": 3272,
      "owe": 3273,
      "INC": 3274,
      "Li": 3275,
      "ably": 3276,
      "recent": 3277,
      "--------------------------------": 3278,
      "press": 3279,
      "contribut": 3280,
      "Business": 3281,
      "sets": 3282,
      "units": 3283,
      "MN": 3284,
      "MH": 3285,
      "ension": 3286,
      "itig": 3287,
      "offset": 3288,
      "open": 3289,
      "really": 3290,
      "determined": 3291,
      "Ener": 3292,
      "gross": 3293,
      "owever": 3294,
      "PL": 3295,
      "atis": 3296,
      "parties": 3297,
      "appropr": 3298,
      "ivate": 3299,
      "dec": 3300,
      "orp": 3301,
      "authorized": 3302,
      "know": 3303,
      "assumptions": 3304,
      "ising": 3305,
      "consist": 3306,
      "During": 3307,
      "arant": 3308,
      "early": 3309,
      "wise": 3310,
      "properties": 3311,
      "ML": 3312,
      "test": 3313,
      "BK": 3314,
      "them": 3315,
      "ners": 3316,
      "materially": 3317,
      "Operator": 3318,
      "MZ": 3319,
      "ency": 3320,
      "OC": 3321,
      "duly": 3322,
      "bond": 3323,
      "SP": 3324,
      "struction": 3325,
      "Med": 3326,
      "earli": 3327,
      "limit": 3328,
      "deliver": 3329,
      "key": 3330,
      "ness": 3331,
      "start": 3332,
      "Rest": 3333,
      "FAS": 3334,
      "Me": 3335,
      "MJ": 3336,
      "Trans": 3337,
      "poses": 3338,
      "ED": 3339,
      "Energy": 3340,
      "MF": 3341,
      "ages": 3342,
      "sumer": 3343,
      "marketing": 3344,
      "//": 3345,
      "referred": 3346,
      "ier": 3347,
      "instru": 3348,
      "gest": 3349,
      "MQ": 3350,
      "Ter": 3351,
      "hold": 3352,
      "istered": 3353,
      "facilities": 3354,
      "KE": 3355,
      "ify": 3356,
      "nor": 3357,
      "large": 3358,
      "Bal": 3359,
      "did": 3360,
      "herein": 3361,
      "attribut": 3362,
      "Mer": 3363,
      "NT": 3364,
      "Ap": 3365,
      "satis": 3366,
      "distribution": 3367,
      "sto": 3368,
      "PR": 3369,
      "Fir": 3370,
      "provides": 3371,
      "base": 3372,
      "fail": 3373,
      "turn": 3374,
      "sett": 3375,
      "ables": 3376,
      "otherwise": 3377,
      "cour": 3378,
      "thing": 3379,
      "Tax": 3380,
      "met": 3381,
      "days": 3382,
      "````": 3383,
      "****": 3384,
      "amp": 3385,
      "tern": 3386,
      "FT": 3387,
      "ivers": 3388,
      "aggregate": 3389,
      "levels": 3390,
      "Rel": 3391,
      "achie": 3392,
      "histor": 3393,
      "MENTS": 3394,
      "forth": 3395,
      "ker": 3396,
      "lab": 3397,
      "WS": 3398,
      "entered": 3399,
      "realized": 3400,
      "Purch": 3401,
      "say": 3402,
      "cum": 3403,
      "Class": 3404,
      "compar": 3405,
      "ITIES": 3406,
      "IL": 3407,
      "NY": 3408,
      "Hold": 3409,
      "lying": 3410,
      "trading": 3411,
      "comple": 3412,
      "rued": 3413,
      "corporate": 3414,
      "help": 3415,
      "AD": 3416,
      "________________": 3417,
      "Shares": 3418,
      "web": 3419,
      "exclud": 3420,
      "atives": 3421,
      "bit": 3422,
      "adversely": 3423,
      "Top": 3424,
      "group": 3425,
      "sheet": 3426,
      "purposes": 3427,
      "collect": 3428,
      "(\"`@(\"`@": 3429,
      "businesses": 3430,
      "appropriate": 3431,
      ".)": 3432,
      "partic": 3433,
      "ume": 3434,
      "Quarter": 3435,
      "Or": 3436,
      "Can": 3437,
      "nel": 3438,
      "global": 3439,
      "without": 3440,
      "ork": 3441,
      "itted": 3442,
      "cover": 3443,
      "ratio": 3444,
      "vari": 3445,
      "hensive": 3446,
      "To": 3447,
      "invent": 3448,
      "hed": 3449,
      "sel": 3450,
      "diluted": 3451,
      "invol": 3452,
      "deal": 3453,
      "European": 3454,
      "affil": 3455,
      "ules": 3456,
      "SH": 3457,
      "cast": 3458,
      "calc": 3459,
      "much": 3460,
      "ety": 3461,
      "particular": 3462,
      "HHHH": 3463,
      "lling": 3464,
      "vot": 3465,
      "located": 3466,
      "igin": 3467,
      "ibed": 3468,
      "accept": 3469,
      "short": 3470,
      "GL": 3471,
      "occur": 3472,
      "ference": 3473,
      "Exp": 3474,
      "Statement": 3475,
      "ved": 3476,
      "Loss": 3477,
      "ble": 3478,
      "ittle": 3479,
      "experience": 3480,
      "CT": 3481,
      "Operations": 3482,
      "poss": 3483,
      "vis": 3484,
      "XX": 3485,
      "duction": 3486,
      "tele": 3487,
      "charges": 3488,
      "stocks": 3489,
      "officers": 3490,
      "board": 3491,
      "mall": 3492,
      "around": 3493,
      "audited": 3494,
      "Senior": 3495,
      "action": 3496,
      "audit": 3497,
      "still": 3498,
      "view": 3499,
      "Proper": 3500,
      "power": 3501,
      "BBB": 3502,
      "Addition": 3503,
      "retail": 3504,
      "def": 3505,
      "initial": 3506,
      "prom": 3507,
      "items": 3508,
      "ences": 3509,
      "solut": 3510,
      "until": 3511,
      "leases": 3512,
      "cor": 3513,
      "Value": 3514,
      "little": 3515,
      "incurred": 3516,
      "China": 3517,
      "dividends": 3518,
      "Under": 3519,
      "ires": 3520,
      "dict": 3521,
      "reserv": 3522,
      "ht": 3523,
      "kind": 3524,
      "close": 3525,
      "?\\": 3526,
      "execut": 3527,
      "ership": 3528,
      "arn": 3529,
      "different": 3530,
      "uris": 3531,
      "systems": 3532,
      "Loan": 3533,
      "endment": 3534,
      "By": 3535,
      "iption": 3536,
      "Compensation": 3537,
      "necess": 3538,
      "things": 3539,
      "expectations": 3540,
      "acquisitions": 3541,
      "post": 3542,
      "pricing": 3543,
      "Vice": 3544,
      "name": 3545,
      "EU": 3546,
      "iation": 3547,
      "integr": 3548,
      "%)": 3549,
      "actions": 3550,
      "Number": 3551,
      "reports": 3552,
      "FINAN": 3553,
      "natural": 3554,
      "itures": 3555,
      "KS": 3556,
      "issuance": 3557,
      "AX": 3558,
      "CC": 3559,
      "relation": 3560,
      "charge": 3561,
      "compon": 3562,
      "fixed": 3563,
      "aged": 3564,
      "lot": 3565,
      "secured": 3566,
      "stat": 3567,
      "countr": 3568,
      "search": 3569,
      "Fund": 3570,
      "Committee": 3571,
      "urisdict": 3572,
      "Balance": 3573,
      "NA": 3574,
      "proceeds": 3575,
      "likely": 3576,
      "world": 3577,
      "PP": 3578,
      "CIAL": 3579,
      "W_": 3580,
      "Fair": 3581,
      "VE": 3582,
      "offering": 3583,
      "volume": 3584,
      "ane": 3585,
      "ral": 3586,
      "his": 3587,
      "os": 3588,
      "administrative": 3589,
      "bur": 3590,
      "capac": 3591,
      "unit": 3592,
      "specific": 3593,
      "valuation": 3594,
      "convert": 3595,
      "sof": 3596,
      "LI": 3597,
      "area": 3598,
      "ordin": 3599,
      "ither": 3600,
      "five": 3601,
      "produ": 3602,
      "itten": 3603,
      "mult": 3604,
      "mortgage": 3605,
      "America": 3606,
      "matur": 3607,
      "beginning": 3608,
      "independent": 3609,
      "ividual": 3610,
      "attributable": 3611,
      "depend": 3612,
      "negative": 3613,
      "UT": 3614,
      "First": 3615,
      "security": 3616,
      "encies": 3617,
      "Revenue": 3618,
      "approved": 3619,
      "access": 3620,
      "rend": 3621,
      "Debt": 3622,
      "standards": 3623,
      "described": 3624,
      "celer": 3625,
      "continuing": 3626,
      "reasonable": 3627,
      "FINANCIAL": 3628,
      "previously": 3629,
      "FH": 3630,
      "import": 3631,
      "O_": 3632,
      "model": 3633,
      "trial": 3634,
      ")%": 3635,
      "Services": 3636,
      "prem": 3637,
      "Cost": 3638,
      "Series": 3639,
      "OT": 3640,
      "though": 3641,
      "nes": 3642,
      "instruments": 3643,
      "/]": 3644,
      "closing": 3645,
      "Im": 3646,
      "`$": 3647,
      "past": 3648,
      "local": 3649,
      "CR": 3650,
      "BR": 3651,
      "comes": 3652,
      "specified": 3653,
      "follows": 3654,
      "stances": 3655,
      "behalf": 3656,
      "ost": 3657,
      "See": 3658,
      "York": 3659,
      "conduct": 3660,
      "AU": 3661,
      "combination": 3662,
      "\"),": 3663,
      "sequent": 3664,
      "percentage": 3665,
      "Yes": 3666,
      "cedures": 3667,
      "JP": 3668,
      "unct": 3669,
      "ibility": 3670,
      "exercise": 3671,
      "check": 3672,
      "Federal": 3673,
      "relating": 3674,
      "working": 3675,
      "uncertainties": 3676,
      "legal": 3677,
      "FD": 3678,
      "every": 3679,
      "gic": 3680,
      "posed": 3681,
      "plus": 3682,
      "restricted": 3683,
      "sures": 3684,
      "itigation": 3685,
      "allowance": 3686,
      "equivalents": 3687,
      "origin": 3688,
      "Col": 3689,
      "overall": 3690,
      "avor": 3691,
      "cli": 3692,
      "IE": 3693,
      "AG": 3694,
      "Mat": 3695,
      "discount": 3696,
      "THE": 3697,
      "light": 3698,
      "dou": 3699,
      "adjustments": 3700,
      "...": 3701,
      "ficient": 3702,
      "Assets": 3703,
      "side": 3704,
      "Corp": 3705,
      "senior": 3706,
      "cir": 3707,
      "Sou": 3708,
      "rug": 3709,
      "Good": 3710,
      "la": 3711,
      "individual": 3712,
      "activity": 3713,
      "satisf": 3714,
      "manufacturing": 3715,
      "Director": 3716,
      "Partnership": 3717,
      "completed": 3718,
      "phone": 3719,
      "receive": 3720,
      "interests": 3721,
      "perm": 3722,
      "supply": 3723,
      "gments": 3724,
      "SECUR": 3725,
      "registered": 3726,
      "expend": 3727,
      ");": 3728,
      "tware": 3729,
      "intended": 3730,
      "institut": 3731,
      "North": 3732,
      "prot": 3733,
      "opportunities": 3734,
      "small": 3735,
      "carrying": 3736,
      "trend": 3737,
      "FE": 3738,
      "ep": 3739,
      "UK": 3740,
      "arrange": 3741,
      "presents": 3742,
      "FORM": 3743,
      "resulting": 3744,
      "RES": 3745,
      "]?": 3746,
      "Acqu": 3747,
      "life": 3748,
      "conf": 3749,
      "subsidiary": 3750,
      "ories": 3751,
      "capacity": 3752,
      "extent": 3753,
      "suf": 3754,
      "umulated": 3755,
      "compliance": 3756,
      "Ste": 3757,
      "@@": 3758,
      "G_": 3759,
      "yield": 3760,
      "cing": 3761,
      "ener": 3762,
      "CHAN": 3763,
      "ron": 3764,
      "lines": 3765,
      "istration": 3766,
      "Inde": 3767,
      "strategy": 3768,
      "imin": 3769,
      "want": 3770,
      "hn": 3771,
      "ults": 3772,
      "ays": 3773,
      "respons": 3774,
      "isk": 3775,
      "illions": 3776,
      "receivable": 3777,
      "Des": 3778,
      "ysis": 3779,
      "SC": 3780,
      "Ret": 3781,
      "believ": 3782,
      "Tech": 3783,
      "typ": 3784,
      "rest": 3785,
      "deemed": 3786,
      "remaining": 3787,
      "research": 3788,
      "case": 3789,
      "relationship": 3790,
      "mary": 3791,
      "commence": 3792,
      "STATEMENTS": 3793,
      "reach": 3794,
      "ients": 3795,
      "consumer": 3796,
      "quality": 3797,
      "don": 3798,
      "effor": 3799,
      "awards": 3800,
      "BO": 3801,
      "reduce": 3802,
      "consum": 3803,
      "provision": 3804,
      "historical": 3805,
      "increases": 3806,
      "Investment": 3807,
      "irement": 3808,
      "TW": 3809,
      "employee": 3810,
      "across": 3811,
      "stud": 3812,
      "address": 3813,
      "LV": 3814,
      "PO": 3815,
      "team": 3816,
      "Preferred": 3817,
      "affili": 3818,
      "guarant": 3819,
      "acceler": 3820,
      "big": 3821,
      "ater": 3822,
      "labor": 3823,
      "yn": 3824,
      "='": 3825,
      "implement": 3826,
      "announced": 3827,
      "conc": 3828,
      "jurisdict": 3829,
      "favor": 3830,
      "concer": 3831,
      "clear": 3832,
      "broad": 3833,
      "File": 3834,
      "aph": 3835,
      "SOL": 3836,
      "programs": 3837,
      "granted": 3838,
      "anch": 3839,
      "policies": 3840,
      "ITY": 3841,
      "Risk": 3842,
      "\",": 3843,
      "?^": 3844,
      "www": 3845,
      "dom": 3846,
      "IA": 3847,
      "Holdings": 3848,
      "BC": 3849,
      "SECURITIES": 3850,
      "treat": 3851,
      "FY": 3852,
      "Defer": 3853,
      "changed": 3854,
      "force": 3855,
      "Cal": 3856,
      "ley": 3857,
      "efore": 3858,
      "UP": 3859,
      "assur": 3860,
      "emer": 3861,
      "uel": 3862,
      "acy": 3863,
      "DC": 3864,
      "talk": 3865,
      "Sup": 3866,
      "ring": 3867,
      "express": 3868,
      "inventory": 3869,
      "liquidity": 3870,
      "Canad": 3871,
      "lied": 3872,
      "energy": 3873,
      "competitive": 3874,
      "positions": 3875,
      "quarterly": 3876,
      "NOTE": 3877,
      "commit": 3878,
      "util": 3879,
      "even": 3880,
      "FX": 3881,
      "premium": 3882,
      "))))": 3883,
      "either": 3884,
      "caused": 3885,
      "deposits": 3886,
      "Fac": 3887,
      "ators": 3888,
      "expand": 3889,
      "saf": 3890,
      "Ok": 3891,
      "ury": 3892,
      "GY": 3893,
      "cription": 3894,
      "CHANGE": 3895,
      "_X": 3896,
      "IDA": 3897,
      "Code": 3898,
      "six": 3899,
      "decline": 3900,
      "procedures": 3901,
      "note": 3902,
      "Deferred": 3903,
      "sw": 3904,
      "NS": 3905,
      "reserves": 3906,
      "atform": 3907,
      "given": 3908,
      "ured": 3909,
      "estimate": 3910,
      "lateral": 3911,
      "considered": 3912,
      "weak": 3913,
      "fee": 3914,
      "CL": 3915,
      "Add": 3916,
      "room": 3917,
      "leased": 3918,
      "IX": 3919,
      "free": 3920,
      "K_": 3921,
      "dig": 3922,
      "pen": 3923,
      "circum": 3924,
      "detail": 3925,
      "presented": 3926,
      "expo": 3927,
      "^/": 3928,
      "Earn": 3929,
      ",#": 3930,
      "%%%%": 3931,
      "several": 3932,
      "]/": 3933,
      "minim": 3934,
      "reduction": 3935,
      "PE": 3936,
      "$(": 3937,
      "euro": 3938,
      "equal": 3939,
      "mid": 3940,
      "OW": 3941,
      "With": 3942,
      "cop": 3943,
      "\\/": 3944,
      ">.": 3945,
      "list": 3946,
      "sus": 3947,
      "HE": 3948,
      "Exhibits": 3949,
      "decreased": 3950,
      "commencement": 3951,
      "intangible": 3952,
      "TV": 3953,
      "affected": 3954,
      "ords": 3955,
      "YD": 3956,
      "mod": 3957,
      "cand": 3958,
      "expenditures": 3959,
      "wide": 3960,
      "infl": 3961,
      "Su": 3962,
      "significantly": 3963,
      "preferred": 3964,
      "IG": 3965,
      "UB": 3966,
      "tom": 3967,
      "disclosure": 3968,
      "necessary": 3969,
      "international": 3970,
      "anticipated": 3971,
      "TEM": 3972,
      "must": 3973,
      "excess": 3974,
      "EXCHANGE": 3975,
      ".:": 3976,
      "CONSOL": 3977,
      "crit": 3978,
      "core": 3979,
      "ves": 3980,
      "believes": 3981,
      "compre": 3982,
      "driven": 3983,
      "ists": 3984,
      "important": 3985,
      "issue": 3986,
      "CB": 3987,
      "recover": 3988,
      "comprehensive": 3989,
      "[-": 3990,
      "policy": 3991,
      "\"@": 3992,
      "requires": 3993,
      "tak": 3994,
      "CD": 3995,
      "complete": 3996,
      "Certain": 3997,
      "outs": 3998,
      "purchased": 3999,
      "Sales": 4000,
      "her": 4001,
      "HK": 4002,
      "weighted": 4003,
      "UL": 4004,
      "CONSOLIDA": 4005,
      "exceed": 4006,
      "SA": 4007,
      "].": 4008,
      "John": 4009,
      "special": 4010,
      "ource": 4011,
      "CP": 4012,
      "ik": 4013,
      "td": 4014,
      "arm": 4015,
      "]:": 4016,
      "Che": 4017,
      "Benef": 4018,
      "[%": 4019,
      "REPOR": 4020,
      "accrued": 4021,
      "jud": 4022,
      "become": 4023,
      "Level": 4024,
      "move": 4025,
      "assurance": 4026,
      "ington": 4027,
      "Min": 4028,
      "prospect": 4029,
      "lor": 4030,
      "However": 4031,
      "Bas": 4032,
      "TY": 4033,
      "LP": 4034,
      "BE": 4035,
      "better": 4036,
      "SG": 4037,
      "_Z": 4038,
      "Corporate": 4039,
      "coming": 4040,
      "TD": 4041,
      "environment": 4042,
      "_O": 4043,
      "enced": 4044,
      "private": 4045,
      "NQ": 4046,
      "ownership": 4047,
      "prob": 4048,
      "=&": 4049,
      "relative": 4050,
      "CONSOLIDATED": 4051,
      "pred": 4052,
      ":>": 4053,
      "candid": 4054,
      "Results": 4055,
      "book": 4056,
      "log": 4057,
      "Information": 4058,
      "circumstances": 4059,
      "rating": 4060,
      "Reporting": 4061,
      "selling": 4062,
      "construction": 4063,
      "words": 4064,
      "active": 4065,
      "!!": 4066,
      "Ltd": 4067,
      "@#": 4068,
      "Earnings": 4069,
      "substantial": 4070,
      "TI": 4071,
      "cut": 4072,
      "goodwill": 4073,
      "buy": 4074,
      "software": 4075,
      "show": 4076,
      "sched": 4077,
      "International": 4078,
      "mor": 4079,
      "course": 4080,
      "Gu": 4081,
      "TOP": 4082,
      "NG": 4083,
      "resources": 4084,
      "Term": 4085,
      "SO": 4086,
      "controls": 4087,
      "reet": 4088,
      "TER": 4089,
      "pret": 4090,
      "contained": 4091,
      "mal": 4092,
      "[?": 4093,
      "That": 4094,
      "seen": 4095,
      "diffic": 4096,
      "ason": 4097,
      "Real": 4098,
      "greater": 4099,
      "platform": 4100,
      "warrants": 4101,
      "concil": 4102,
      "joint": 4103,
      "]*": 4104,
      "millions": 4105,
      "director": 4106,
      "fall": 4107,
      "DDDD": 4108,
      "_Y": 4109,
      "`*": 4110,
      "AV": 4111,
      "banks": 4112,
      ">'": 4113,
      "\\?": 4114,
      "iday": 4115,
      "inion": 4116,
      "---": 4117,
      "drug": 4118,
      "aren": 4119,
      "Over": 4120,
      "Acquis": 4121,
      "former": 4122,
      "making": 4123,
      "Property": 4124,
      "pract": 4125,
      "retain": 4126,
      "patients": 4127,
      "Distr": 4128,
      "conference": 4129,
      "ah": 4130,
      "Ef": 4131,
      "adopt": 4132,
      "ioned": 4133,
      "earlier": 4134,
      "satisfy": 4135,
      "OK": 4136,
      "''": 4137,
      "projects": 4138,
      "Mic": 4139,
      "code": 4140,
      "COM": 4141,
      "reduced": 4142,
      "established": 4143,
      "\"!": 4144,
      "ople": 4145,
      "SION": 4146,
      ";&": 4147,
      "xy": 4148,
      "/^": 4149,
      "employment": 4150,
      "]^": 4151,
      "itors": 4152,
      "................................": 4153,
      "agre": 4154,
      "cannot": 4155,
      "intend": 4156,
      "tra": 4157,
      "ensed": 4158,
      "FS": 4159,
      "website": 4160,
      "Par": 4161,
      "possible": 4162,
      "ry": 4163,
      "[^": 4164,
      "aring": 4165,
      "trust": 4166,
      "\").": 4167,
      "UE": 4168,
      "consideration": 4169,
      "positive": 4170,
      "arma": 4171,
      "Ass": 4172,
      "/\\": 4173,
      "CX": 4174,
      "excluding": 4175,
      "/#": 4176,
      "FDA": 4177,
      "gress": 4178,
      "ped": 4179,
      "network": 4180,
      "Change": 4181,
      "Pay": 4182,
      "Okay": 4183,
      "whol": 4184,
      "IZ": 4185,
      "$$": 4186,
      "apan": 4187,
      "depreciation": 4188,
      "Contro": 4189,
      "docu": 4190,
      "_W": 4191,
      "COR": 4192,
      "strategic": 4193,
      "derivative": 4194,
      "^^^^": 4195,
      "vision": 4196,
      "Be": 4197,
      "rose": 4198,
      "Average": 4199,
      "anced": 4200,
      "Japan": 4201,
      "Contin": 4202,
      "REPORT": 4203,
      "ipel": 4204,
      "ones": 4205,
      "presentation": 4206,
      "ously": 4207,
      "ths": 4208,
      "puts": 4209,
      "Purchase": 4210,
      "Fore": 4211,
      "officer": 4212,
      "Long": 4213,
      "FQ": 4214,
      "DJ": 4215,
      "Cha": 4216,
      "achieve": 4217,
      "click": 4218,
      "\"#": 4219,
      "(%": 4220,
      "AA": 4221,
      "CY": 4222,
      "len": 4223,
      "give": 4224,
      "Sw": 4225,
      "initi": 4226,
      "efforts": 4227,
      "rop": 4228,
      "Merger": 4229,
      "Key": 4230,
      "restruct": 4231,
      "served": 4232,
      "accompany": 4233,
      "#.": 4234,
      "KR": 4235,
      "rules": 4236,
      "arb": 4237,
      "qualified": 4238,
      "pose": 4239,
      "[>": 4240,
      "-\"": 4241,
      "Amendment": 4242,
      "kn": 4243,
      "@(\"": 4244,
      "enh": 4245,
      "earch": 4246,
      "bl": 4247,
      "adequ": 4248,
      "timing": 4249,
      "license": 4250,
      "Off": 4251,
      "posal": 4252,
      "incent": 4253,
      "Facility": 4254,
      "EQU": 4255,
      "volat": 4256,
      "morning": 4257,
      "play": 4258,
      "meeting": 4259,
      "ale": 4260,
      ";%": 4261,
      "oing": 4262,
      "You": 4263,
      "etary": 4264,
      "di": 4265,
      "JV": 4266,
      "separ": 4267,
      "entity": 4268,
      "values": 4269,
      "BA": 4270,
      "termination": 4271,
      "might": 4272,
      "plant": 4273,
      "accompanying": 4274,
      ";:": 4275,
      "KW": 4276,
      "NZ": 4277,
      "-#": 4278,
      "ower": 4279,
      "]>": 4280,
      "ITEM": 4281,
      "Street": 4282,
      "Any": 4283,
      "fici": 4284,
      "MENT": 4285,
      "least": 4286,
      "location": 4287,
      "FI": 4288,
      "C_": 4289,
      "$!": 4290,
      "^?": 4291,
      "declin": 4292,
      "excl": 4293,
      "maturity": 4294,
      "FL": 4295,
      "known": 4296,
      "Princip": 4297,
      "ago": 4298,
      "GR": 4299,
      "predict": 4300,
      "Global": 4301,
      "JJ": 4302,
      "=?": 4303,
      "cell": 4304,
      "Elect": 4305,
      "-+": 4306,
      "\"(": 4307,
      "anta": 4308,
      "U_": 4309,
      "iving": 4310,
      "brand": 4311,
      "ahead": 4312,
      "sufficient": 4313,
      "::": 4314,
      "directly": 4315,
      "MAR": 4316,
      "WE": 4317,
      "margins": 4318,
      "Research": 4319,
      "manage": 4320,
      "],": 4321,
      "versus": 4322,
      "urs": 4323,
      "retirement": 4324,
      "^'": 4325,
      "infr": 4326,
      "quarters": 4327,
      "subsequent": 4328,
      "reng": 4329,
      "matters": 4330,
      "Loans": 4331,
      "YE": 4332,
      "Issu": 4333,
      "increasing": 4334,
      "NR": 4335,
      "Z_": 4336,
      "ames": 4337,
      "Anal": 4338,
      "PH": 4339,
      "plann": 4340,
      "another": 4341,
      "sy": 4342,
      "ention": 4343,
      "GU": 4344,
      "opportunity": 4345,
      "mis": 4346,
      "Product": 4347,
      "seeing": 4348,
      "OV": 4349,
      "difficult": 4350,
      "tific": 4351,
      "emerging": 4352,
      "favorable": 4353,
      "Effect": 4354,
      "update": 4355,
      "]#": 4356,
      "CS": 4357,
      "Thanks": 4358,
      "lev": 4359,
      "largest": 4360,
      ";'": 4361,
      "[=": 4362,
      "wel": 4363,
      "ateg": 4364,
      "uses": 4365,
      "ault": 4366,
      "holding": 4367,
      "ai": 4368,
      "NK": 4369,
      "best": 4370,
      "run": 4371,
      "WA": 4372,
      "<&": 4373,
      "CZ": 4374,
      "single": 4375,
      "Dr": 4376,
      "`%": 4377,
      "bonds": 4378,
      "ACT": 4379,
      "finance": 4380,
      "graph": 4381,
      "DU": 4382,
      "vert": 4383,
      "Based": 4384,
      "underlying": 4385,
      "deposit": 4386,
      "settlement": 4387,
      "materials": 4388,
      "Af": 4389,
      "Supp": 4390,
      "\".": 4391,
      "GH": 4392,
      "DR": 4393,
      "Public": 4394,
      "Index": 4395,
      "GB": 4396,
      "closed": 4397,
      "CV": 4398,
      "\\+": 4399,
      "OB": 4400,
      "final": 4401,
      "comparable": 4402,
      "ived": 4403,
      "FF": 4404,
      "ready": 4405,
      "itled": 4406,
      "]+": 4407,
      "?[": 4408,
      "Bl": 4409,
      "------------": 4410,
      "SIGN": 4411,
      "(&": 4412,
      "rupt": 4413,
      "GP": 4414,
      "sit": 4415,
      "solutions": 4416,
      "AI": 4417,
      "patent": 4418,
      "MIS": 4419,
      "Gross": 4420,
      "/'": 4421,
      "Q_": 4422,
      "people": 4423,
      "KH": 4424,
      "consul": 4425,
      "Wash": 4426,
      "idence": 4427,
      "Dav": 4428,
      "Chair": 4429,
      "wa": 4430,
      "estic": 4431,
      "Enter": 4432,
      "TX": 4433,
      "affiliates": 4434,
      "Data": 4435,
      ">&": 4436,
      "<'": 4437,
      "discussed": 4438,
      "combined": 4439,
      "ling": 4440,
      "collateral": 4441,
      "primary": 4442,
      "Do": 4443,
      "treatment": 4444,
      "my": 4445,
      ".#": 4446,
      "streng": 4447,
      "icate": 4448,
      "warrant": 4449,
      "VX": 4450,
      "mentioned": 4451,
      "olut": 4452,
      "ingly": 4453,
      "NI": 4454,
      "GI": 4455,
      "meaning": 4456,
      "[:": 4457,
      "$&": 4458,
      "Technolo": 4459,
      "OE": 4460,
      ";^": 4461,
      "entities": 4462,
      "izes": 4463,
      "Wed": 4464,
      "banking": 4465,
      "Thurs": 4466,
      "classified": 4467,
      "conversion": 4468,
      "izing": 4469,
      "office": 4470,
      "DIAR": 4471,
      "organization": 4472,
      ")*": 4473,
      "outlook": 4474,
      "/(": 4475,
      "Thursday": 4476,
      "adjustment": 4477,
      "renew": 4478,
      "transition": 4479,
      "ime": 4480,
      "ouse": 4481,
      "ongoing": 4482,
      "Name": 4483,
      "taking": 4484,
      "NW": 4485,
      "Washington": 4486,
      "leading": 4487,
      "dam": 4488,
      "['": 4489,
      "areas": 4490,
      "American": 4491,
      "substantially": 4492,
      "Tues": 4493,
      "South": 4494,
      "termine": 4495,
      "omin": 4496,
      "Tuesday": 4497,
      "Continu": 4498,
      "JZ": 4499,
      "KZ": 4500,
      "@!": 4501,
      "BH": 4502,
      ";?": 4503,
      "-,": 4504,
      "written": 4505,
      "Car": 4506,
      "VID": 4507,
      "clients": 4508,
      "GS": 4509,
      "determine": 4510,
      "_V": 4511,
      "controlling": 4512,
      "operate": 4513,
      "DS": 4514,
      "DY": 4515,
      "consistent": 4516,
      "^(": 4517,
      "EUR": 4518,
      "principles": 4519,
      "members": 4520,
      "$?": 4521,
      "Industr": 4522,
      "^*": 4523,
      "allen": 4524,
      ".'": 4525,
      "Asia": 4526,
      "fuel": 4527,
      "=/": 4528,
      "partnership": 4529,
      "BY": 4530,
      "effects": 4531,
      ")?": 4532,
      "telephone": 4533,
      "omson": 4534,
      "ished": 4535,
      "maybe": 4536,
      "ET": 4537,
      "[]": 4538,
      ";-": 4539,
      "Wednes": 4540,
      "partner": 4541,
      "\\,": 4542,
      "arrangements": 4543,
      "Id": 4544,
      "Wednesday": 4545,
      "System": 4546,
      "itor": 4547,
      ")/": 4548,
      "dollars": 4549,
      "undersigned": 4550,
      "CUR": 4551,
      "ins": 4552,
      "Rate": 4553,
      "opinion": 4554,
      "Commercial": 4555,
      ">>": 4556,
      "National": 4557,
      "Up": 4558,
      "LB": 4559,
      "QQ": 4560,
      "One": 4561,
      "@,": 4562,
      "Control": 4563,
      "ath": 4564,
      "$.": 4565,
      "PAR": 4566,
      "TN": 4567,
      "partially": 4568,
      "FC": 4569,
      "nia": 4570,
      "Cali": 4571,
      "MISSION": 4572,
      "AM": 4573,
      "Friday": 4574,
      "$=": 4575,
      "purchases": 4576,
      "section": 4577,
      ":?": 4578,
      ")'": 4579,
      "fell": 4580,
      "Mess": 4581,
      "charter": 4582,
      "illing": 4583,
      "unable": 4584,
      "box": 4585,
      "agreed": 4586,
      "IO": 4587,
      "space": 4588,
      "ATU": 4589,
      "Related": 4590,
      "EQ": 4591,
      "\"\"": 4592,
      "uctu": 4593,
      "WW": 4594,
      "KL": 4595,
      "attract": 4596,
      "minimum": 4597,
      "Spec": 4598,
      "issues": 4599,
      "+'": 4600,
      "majority": 4601,
      "PT": 4602,
      "%!": 4603,
      "build": 4604,
      "Months": 4605,
      "categ": 4606,
      "CN": 4607,
      "challen": 4608,
      "KY": 4609,
      "essional": 4610,
      "]!": 4611,
      "^&": 4612,
      "Monday": 4613,
      "hand": 4614,
      "borrowings": 4615,
      "imbur": 4616,
      "[#": 4617,
      "Investor": 4618,
      "GD": 4619,
      "previous": 4620,
      ")!": 4621,
      "SFAS": 4622,
      "RV": 4623,
      "RENT": 4624,
      "KV": 4625,
      "iring": 4626,
      "Califor": 4627,
      "reasury": 4628,
      "litigation": 4629,
      "$'": 4630,
      "-'": 4631,
      "convertible": 4632,
      "Chan": 4633,
      "unto": 4634,
      "\\*": 4635,
      "roll": 4636,
      "failure": 4637,
      "GMT": 4638,
      "<#": 4639,
      "components": 4640,
      "California": 4641,
      "repurchase": 4642,
      "rew": 4643,
      "<>": 4644,
      "AE": 4645,
      "Principal": 4646,
      "COMMISSION": 4647,
      "Health": 4648,
      "merger": 4649,
      "outside": 4650,
      "immed": 4651,
      "KU": 4652,
      "Acquisition": 4653,
      "HS": 4654,
      "commod": 4655,
      "added": 4656,
      "providing": 4657,
      "wards": 4658,
      "partners": 4659,
      "$@": 4660,
      "iveness": 4661,
      "longer": 4662,
      "NV": 4663,
      "relationships": 4664,
      "ultim": 4665,
      "Sch": 4666,
      "needs": 4667,
      "ipeline": 4668,
      "]&": 4669,
      "itle": 4670,
      "Ed": 4671,
      "Lim": 4672,
      "Additionally": 4673,
      "Chairman": 4674,
      ":&": 4675,
      "multip": 4676,
      "restructuring": 4677,
      "economy": 4678,
      "jurisdiction": 4679,
      "GZ": 4680,
      "vi": 4681,
      "Develop": 4682,
      "]-": 4683,
      "WI": 4684,
      "\\>": 4685,
      "Stand": 4686,
      "inst": 4687,
      "file": 4688,
      "NU": 4689,
      "fluctu": 4690,
      "While": 4691,
      "SIGNATU": 4692,
      "LT": 4693,
      "subm": 4694,
      "Address": 4695,
      "yal": 4696,
      "Accounts": 4697,
      "*'": 4698,
      "recovery": 4699,
      "]'": 4700,
      "candidates": 4701,
      "questions": 4702,
      ")&": 4703,
      "<=": 4704,
      "concern": 4705,
      "GV": 4706,
      "offices": 4707,
      "\\-": 4708,
      "funding": 4709,
      "GX": 4710,
      "Subsidi": 4711,
      "UNI": 4712,
      "lex": 4713,
      "?#": 4714,
      ")+": 4715,
      "Warr": 4716,
      "spe": 4717,
      ";=": 4718,
      "trends": 4719,
      "environmental": 4720,
      "transfer": 4721,
      ";>": 4722,
      "forecast": 4723,
      "funct": 4724,
      "ake": 4725,
      "$#": 4726,
      "inten": 4727,
      "Out": 4728,
      "segments": 4729,
      "Depreciation": 4730,
      "Ab": 4731,
      "truct": 4732,
      "delivery": 4733,
      "QX": 4734,
      "Tex": 4735,
      "double": 4736,
      "standard": 4737,
      "Well": 4738,
      "techn": 4739,
      "mainten": 4740,
      "EQUITY": 4741,
      "OM": 4742,
      "maintenance": 4743,
      "focused": 4744,
      "^%": 4745,
      "pension": 4746,
      "ultane": 4747,
      "laware": 4748,
      "Delaware": 4749,
      "Exact": 4750,
      "utical": 4751,
      "ps": 4752,
      "dates": 4753,
      "[&": 4754,
      "applications": 4755,
      "Ow": 4756,
      "ansion": 4757,
      "EV": 4758,
      "contractual": 4759,
      "ways": 4760,
      "mix": 4761,
      "adopted": 4762,
      "JW": 4763,
      "YT": 4764,
      "actually": 4765,
      "\\.": 4766,
      "object": 4767,
      "competitors": 4768,
      "leverage": 4769,
      "Diluted": 4770,
      "CURRENT": 4771,
      "suppli": 4772,
      "[*": 4773,
      "lation": 4774,
      "Govern": 4775,
      "amortized": 4776,
      "conting": 4777,
      "adoption": 4778,
      "cas": 4779,
      "`#": 4780,
      "Pe": 4781,
      "select": 4782,
      "advis": 4783,
      "prep": 4784,
      "tem": 4785,
      "Power": 4786,
      "??": 4787,
      "[+": 4788,
      "BX": 4789,
      "accepted": 4790,
      "analyst": 4791,
      "marks": 4792,
      "Incent": 4793,
      "FW": 4794,
      "NH": 4795,
      "award": 4796,
      "identified": 4797,
      "mil": 4798,
      "got": 4799,
      "=+": 4800,
      "Regulation": 4801,
      "armace": 4802,
      "ample": 4803,
      "analysis": 4804,
      "proposed": 4805,
      "request": 4806,
      "News": 4807,
      "sole": 4808,
      "money": 4809,
      "`'": 4810,
      "water": 4811,
      "JU": 4812,
      "-&": 4813,
      "redem": 4814,
      "Ob": 4815,
      "personnel": 4816,
      "continues": 4817,
      "progress": 4818,
      "distributions": 4819,
      "bar": 4820,
      "JK": 4821,
      "armaceutical": 4822,
      "entitled": 4823,
      "LK": 4824,
      "performing": 4825,
      "LY": 4826,
      "^+": 4827,
      "UNITED": 4828,
      "QV": 4829,
      "QZ": 4830,
      "PG": 4831,
      "simultane": 4832,
      "respective": 4833,
      "Mid": 4834,
      "TZ": 4835,
      "ession": 4836,
      "entire": 4837,
      "den": 4838,
      "David": 4839,
      "operational": 4840,
      "generated": 4841,
      ";;": 4842,
      "_K": 4843,
      "Contract": 4844,
      "won": 4845,
      "coverage": 4846,
      "competition": 4847,
      "cru": 4848,
      ".*": 4849,
      "RR": 4850,
      "Bro": 4851,
      "DB": 4852,
      "Weighted": 4853,
      "thomson": 4854,
      "closure": 4855,
      "coven": 4856,
      "ASC": 4857,
      "-/": 4858,
      "countries": 4859,
      "thomsonreuters": 4860,
      "(@": 4861,
      "reimbur": 4862,
      "issions": 4863,
      "Check": 4864,
      "umes": 4865,
      "Incentive": 4866,
      "avings": 4867,
      "[/": 4868,
      "Ma": 4869,
      "JO": 4870,
      "]=": 4871,
      "(+": 4872,
      "yen": 4873,
      "_U": 4874,
      ":*": 4875,
      "://": 4876,
      "AH": 4877,
      "\\^": 4878,
      "application": 4879,
      "advert": 4880,
      ":'": 4881,
      "pol": 4882,
      "PV": 4883,
      "ASU": 4884,
      "\\'": 4885,
      "STATES": 4886,
      "sources": 4887,
      "Texas": 4888,
      "div": 4889,
      ":@": 4890,
      "FV": 4891,
      ":#": 4892,
      ";#": 4893,
      "season": 4894,
      "Austr": 4895,
      "exposure": 4896,
      "furn": 4897,
      "enture": 4898,
      ")#": 4899,
      "conciliation": 4900,
      "JR": 4901,
      "quot": 4902,
      "gether": 4903,
      "FU": 4904,
      "viously": 4905,
      "Mc": 4906,
      "Such": 4907,
      "represents": 4908,
      "./": 4909,
      "llect": 4910,
      "GW": 4911,
      "successful": 4912,
      "Gas": 4913,
      "simultaneously": 4914,
      "FASB": 4915,
      "llectual": 4916,
      "extended": 4917,
      "\"&": 4918,
      "BI": 4919,
      "home": 4920,
      "traded": 4921,
      "III": 4922,
      "anticipate": 4923,
      "Indicate": 4924,
      "Amort": 4925,
      "\\#": 4926,
      "CEO": 4927,
      "COVID": 4928,
      "hic": 4929,
      "building": 4930,
      "profitability": 4931,
      "CU": 4932,
      "coup": 4933,
      "<@": 4934,
      "OX": 4935,
      "!'": 4936,
      "Borrow": 4937,
      "completion": 4938,
      "returns": 4939,
      "ask": 4940,
      "Asset": 4941,
      "->": 4942,
      "laun": 4943,
      "registration": 4944,
      "AZ": 4945,
      "PD": 4946,
      "('": 4947,
      "QR": 4948,
      "JE": 4949,
      "(,": 4950,
      "accelerated": 4951,
      "normal": 4952,
      "West": 4953,
      "acquire": 4954,
      "olving": 4955,
      "ASH": 4956,
      "Cour": 4957,
      "OS": 4958,
      "thank": 4959,
      "Bu": 4960,
      "stain": 4961,
      "Second": 4962,
      "earned": 4963,
      "iii": 4964,
      "\\%": 4965,
      "<^": 4966,
      "FZ": 4967,
      "Ident": 4968,
      "=\"": 4969,
      "J_": 4970,
      "nov": 4971,
      "ivity": 4972,
      "<,": 4973,
      "store": 4974,
      "respond": 4975,
      "swap": 4976,
      "]%": 4977,
      "enn": 4978,
      "Foreign": 4979,
      "approach": 4980,
      "carry": 4981,
      "Forward": 4982,
      "REIT": 4983,
      "NOTES": 4984,
      "improvement": 4985,
      "nL": 4986,
      "CW": 4987,
      "having": 4988,
      "others": 4989,
      ";+": 4990,
      "Insurance": 4991,
      "tructure": 4992,
      "PU": 4993,
      "ulative": 4994,
      "Segment": 4995,
      "arent": 4996,
      "sector": 4997,
      "hael": 4998,
      "TT": 4999,
      "amily": 5000,
      "volatility": 5001,
      ">*": 5002,
      "assessment": 5003,
      "Partners": 5004,
      "BU": 5005,
      "[[": 5006,
      "YS": 5007,
      "NL": 5008,
      "!@": 5009,
      "<*": 5010,
      "dev": 5011,
      "broker": 5012,
      ":=": 5013,
      "seek": 5014,
      ":+": 5015,
      "expansion": 5016,
      "OLD": 5017,
      "<$": 5018,
      "Tele": 5019,
      "volumes": 5020,
      "/+": 5021,
      "obile": 5022,
      "safety": 5023,
      "investing": 5024,
      "Dollar": 5025,
      "together": 5026,
      "-$": 5027,
      "Ger": 5028,
      "================": 5029,
      "decision": 5030,
      "domestic": 5031,
      "?+": 5032,
      "curring": 5033,
      "Gold": 5034,
      "Accord": 5035,
      "_A": 5036,
      "_Q": 5037,
      "taken": 5038,
      "operation": 5039,
      "BL": 5040,
      "[,": 5041,
      "iately": 5042,
      "Canada": 5043,
      "ZU": 5044,
      "-.": 5045,
      "<+": 5046,
      "ager": 5047,
      "SL": 5048,
      "=#": 5049,
      "lemental": 5050,
      "];": 5051,
      "already": 5052,
      "HR": 5053,
      "DX": 5054,
      "ises": 5055,
      "da": 5056,
      "discussion": 5057,
      "ream": 5058,
      "few": 5059,
      "-!": 5060,
      "designed": 5061,
      "Employer": 5062,
      "CQ": 5063,
      "HO": 5064,
      "Wor": 5065,
      "MARKE": 5066,
      "VI": 5067,
      "mn": 5068,
      "Changes": 5069,
      "=.": 5070,
      "pair": 5071,
      "resulted": 5072,
      "technologies": 5073,
      ">/": 5074,
      "-?": 5075,
      "YX": 5076,
      "effectiveness": 5077,
      "(!": 5078,
      "[;": 5079,
      "manufactur": 5080,
      "_B": 5081,
      "Messaging": 5082,
      "\"?": 5083,
      "^#": 5084,
      "FN": 5085,
      "[@": 5086,
      "_L": 5087,
      "KX": 5088,
      ">?": 5089,
      "sort": 5090,
      "aster": 5091,
      "inflation": 5092,
      "growing": 5093,
      "aper": 5094,
      "face": 5095,
      "HI": 5096,
      "icial": 5097,
      "_R": 5098,
      ":/": 5099,
      "ines": 5100,
      "Prior": 5101,
      "highly": 5102,
      "PRO": 5103,
      "Michael": 5104,
      "notice": 5105,
      "Mo": 5106,
      "earliest": 5107,
      "TU": 5108,
      "Additional": 5109,
      "HV": 5110,
      "SW": 5111,
      "STOC": 5112,
      "Austral": 5113,
      "otel": 5114,
      "newsroom": 5115,
      "DV": 5116,
      "near": 5117,
      "join": 5118,
      "indicated": 5119,
      "writing": 5120,
      "field": 5121,
      ")\"": 5122,
      "(/": 5123,
      "calculated": 5124,
      "however": 5125,
      "ping": 5126,
      "Po": 5127,
      "incentive": 5128,
      "QW": 5129,
      "\\$": 5130,
      "-%": 5131,
      "impacted": 5132,
      "nature": 5133,
      "plac": 5134,
      "protect": 5135,
      "izations": 5136,
      "found": 5137,
      "DO": 5138,
      "FA": 5139,
      "rise": 5140,
      "KO": 5141,
      "JX": 5142,
      "GO": 5143,
      "medical": 5144,
      "quare": 5145,
      "appoint": 5146,
      "means": 5147,
      "developed": 5148,
      "bre": 5149,
      "NX": 5150,
      "copy": 5151,
      "industrial": 5152,
      "Description": 5153,
      "reflected": 5154,
      "comply": 5155,
      "-*": 5156,
      "\\@": 5157,
      "vested": 5158,
      "elected": 5159,
      "orders": 5160,
      "Fiscal": 5161,
      "=*": 5162,
      "particularly": 5163,
      "balances": 5164,
      ":\"": 5165,
      "PB": 5166,
      "Combin": 5167,
      "##": 5168,
      "htt": 5169,
      "ANT": 5170,
      "restrictions": 5171,
      "Development": 5172,
      "]]": 5173,
      "Three": 5174,
      ";*": 5175,
      "rect": 5176,
      "\\&": 5177,
      "example": 5178,
      "PC": 5179,
      "ift": 5180,
      "Meas": 5181,
      "Further": 5182,
      "later": 5183,
      "redemption": 5184,
      "commitments": 5185,
      "Amended": 5186,
      "ordinary": 5187,
      "stores": 5188,
      "%+": 5189,
      "astructure": 5190,
      "SV": 5191,
      "^\"": 5192,
      "FG": 5193,
      "[!": 5194,
      "lide": 5195,
      "Court": 5196,
      "SUB": 5197,
      "came": 5198,
      "debted": 5199,
      "EE": 5200,
      "ico": 5201,
      "(*": 5202,
      "Limited": 5203,
      "Sheet": 5204,
      "discontinued": 5205,
      "reasonably": 5206,
      "Ge": 5207,
      "reserve": 5208,
      "ERS": 5209,
      "$,": 5210,
      "accounted": 5211,
      "%'": 5212,
      "Former": 5213,
      "^@": 5214,
      "iqu": 5215,
      "pass": 5216,
      "availability": 5217,
      "TC": 5218,
      "Units": 5219,
      "Please": 5220,
      "QY": 5221,
      "$*": 5222,
      "trials": 5223,
      "``@`": 5224,
      "STO": 5225,
      "Fact": 5226,
      "SR": 5227,
      "country": 5228,
      "%?": 5229,
      "Wr": 5230,
      "JY": 5231,
      "QL": 5232,
      "prise": 5233,
      "Gain": 5234,
      "default": 5235,
      "exclus": 5236,
      "consolid": 5237,
      "debtedness": 5238,
      "/&": 5239,
      "improved": 5240,
      "intellectual": 5241,
      "=,": 5242,
      "session": 5243,
      "times": 5244,
      "unless": 5245,
      "(`\"": 5246,
      "From": 5247,
      "[\"": 5248,
      "late": 5249,
      "HZ": 5250,
      "electric": 5251,
      "filings": 5252,
      "ND": 5253,
      "EPS": 5254,
      "\\!": 5255,
      "maxim": 5256,
      "saw": 5257,
      "Port": 5258,
      "_E": 5259,
      "useful": 5260,
      "futures": 5261,
      "investor": 5262,
      "IND": 5263,
      "=!": 5264,
      "Cent": 5265,
      "incorporation": 5266,
      "Although": 5267,
      "SZ": 5268,
      ":,": 5269,
      "-;": 5270,
      "PX": 5271,
      "Identification": 5272,
      "sent": 5273,
      "initiatives": 5274,
      "Revenues": 5275,
      "GC": 5276,
      "professional": 5277,
      "doing": 5278,
      "statut": 5279,
      "Service": 5280,
      "]\"": 5281,
      "adequate": 5282,
      "Internal": 5283,
      "sustain": 5284,
      "delay": 5285,
      "stor": 5286,
      "Flow": 5287,
      "amed": 5288,
      "atta": 5289,
      "Basic": 5290,
      "NC": 5291,
      "accr": 5292,
      "vehic": 5293,
      "voting": 5294,
      "istics": 5295,
      "Aud": 5296,
      ">+": 5297,
      "\\(": 5298,
      "Stockholders": 5299,
      "`&": 5300,
      "institutions": 5301,
      "recognition": 5302,
      "@+": 5303,
      "eria": 5304,
      "WX": 5305,
      "stitute": 5306,
      "`****": 5307,
      "PI": 5308,
      "TL": 5309,
      "Continued": 5310,
      "ero": 5311,
      ">(": 5312,
      "Keywords": 5313,
      "/!": 5314,
      "ather": 5315,
      "oci": 5316,
      "HU": 5317,
      "accumulated": 5318,
      "nu": 5319,
      "KK": 5320,
      "GJ": 5321,
      "central": 5322,
      "Distribut": 5323,
      "BV": 5324,
      "])": 5325,
      "Hol": 5326,
      "Amortization": 5327,
      "@'": 5328,
      "idential": 5329,
      "^,": 5330,
      "WV": 5331,
      "`,": 5332,
      "keep": 5333,
      "Associ": 5334,
      "apter": 5335,
      "NJ": 5336,
      "Red": 5337,
      "taxable": 5338,
      ":!": 5339,
      "generate": 5340,
      "?'": 5341,
      "Officers": 5342,
      "Finance": 5343,
      "`!``": 5344,
      "subs": 5345,
      "NEWS": 5346,
      "tempor": 5347,
      "improvements": 5348,
      "AY": 5349,
      "bey": 5350,
      "Includ": 5351,
      "nine": 5352,
      "OZ": 5353,
      "S_": 5354,
      "WZ": 5355,
      "TM": 5356,
      "T_": 5357,
      "(\"`@(\"`@(\"`@(\"`@": 5358,
      "tangible": 5359,
      "$+": 5360,
      "typically": 5361,
      "pipeline": 5362,
      "expects": 5363,
      "slight": 5364,
      "bill": 5365,
      "serve": 5366,
      "UZ": 5367,
      "High": 5368,
      "\\\\": 5369,
      "TK": 5370,
      "logy": 5371,
      "FJ": 5372,
      "<;": 5373,
      "involve": 5374,
      "Trad": 5375,
      ">#": 5376,
      "SX": 5377,
      "ifying": 5378,
      "please": 5379,
      "%#": 5380,
      "wholly": 5381,
      "summar": 5382,
      "EY": 5383,
      "happ": 5384,
      "LD": 5385,
      "Len": 5386,
      "effici": 5387,
      "evaluation": 5388,
      "prepared": 5389,
      "````````": 5390,
      "EC": 5391,
      "counter": 5392,
      "GQ": 5393,
      "engine": 5394,
      "-=": 5395,
      "ANCE": 5396,
      "-(": 5397,
      "stream": 5398,
      "Private": 5399,
      "............": 5400,
      "Phase": 5401,
      "%*": 5402,
      "geo": 5403,
      "COMP": 5404,
      ">:": 5405,
      "lock": 5406,
      "mission": 5407,
      "Pat": 5408,
      "%&": 5409,
      "comput": 5410,
      "NB": 5411,
      "ms": 5412,
      "comment": 5413,
      "hereunto": 5414,
      "STOXX": 5415,
      "`/": 5416,
      "Sign": 5417,
      "Option": 5418,
      "Banc": 5419,
      "Str": 5420,
      "%;": 5421,
      "ont": 5422,
      "](": 5423,
      "transport": 5424,
      "pri": 5425,
      "therefore": 5426,
      "ering": 5427,
      "YY": 5428,
      "shareholder": 5429,
      "discuss": 5430,
      "limitations": 5431,
      "^!": 5432,
      ".&": 5433,
      "beyond": 5434,
      "\\:": 5435,
      "\\=": 5436,
      "[(": 5437,
      "Liabilities": 5438,
      "covenants": 5439,
      "placement": 5440,
      "Proceed": 5441,
      "ott": 5442,
      "]@": 5443,
      "UV": 5444,
      "type": 5445,
      "component": 5446,
      "PZ": 5447,
      "Morgan": 5448,
      "Price": 5449,
      "wind": 5450,
      ".?": 5451,
      "htm": 5452,
      "-:": 5453,
      "UX": 5454,
      "ternative": 5455,
      "evaluating": 5456,
      "<:": 5457,
      "therap": 5458,
      "locations": 5459,
      "FB": 5460,
      "itch": 5461,
      "Cus": 5462,
      "receivables": 5463,
      "spending": 5464,
      "amend": 5465,
      "NM": 5466,
      "committee": 5467,
      "emic": 5468,
      "Accumulated": 5469,
      "tact": 5470,
      "ike": 5471,
      "/$": 5472,
      ")$": 5473,
      "\"*": 5474,
      "discre": 5475,
      "Effective": 5476,
      "contains": 5477,
      "recently": 5478,
      "structure": 5479,
      "daq": 5480,
      "ho": 5481,
      "far": 5482,
      "variable": 5483,
      "N_": 5484,
      "itical": 5485,
      "generation": 5486,
      "\"+": 5487,
      "obviously": 5488,
      "listed": 5489,
      "DZ": 5490,
      "FTSE": 5491,
      "Ther": 5492,
      ";,": 5493,
      "prevent": 5494,
      "probably": 5495,
      "AW": 5496,
      "sk": 5497,
      ")^": 5498,
      "pct": 5499,
      "KJ": 5500,
      "?,": 5501,
      "negot": 5502,
      "F_": 5503,
      "CORPOR": 5504,
      "KQ": 5505,
      "Restr": 5506,
      "TQ": 5507,
      "`****`\"": 5508,
      "ino": 5509,
      "Restrict": 5510,
      "penal": 5511,
      "throughout": 5512,
      "%>": 5513,
      "reimburse": 5514,
      "successfully": 5515,
      "YR": 5516,
      "Agent": 5517,
      "Accordingly": 5518,
      "patents": 5519,
      ";!": 5520,
      "ench": 5521,
      "cup": 5522,
      "/@": 5523,
      "Restated": 5524,
      "yet": 5525,
      "HX": 5526,
      "\"$": 5527,
      "&!": 5528,
      "Nas": 5529,
      "vote": 5530,
      "pretty": 5531,
      "residential": 5532,
      "GM": 5533,
      "revised": 5534,
      "delivered": 5535,
      "install": 5536,
      "multiple": 5537,
      "DW": 5538,
      "(`\"``@`": 5539,
      "iversity": 5540,
      "immediately": 5541,
      "Medic": 5542,
      "KB": 5543,
      "electron": 5544,
      "relev": 5545,
      "iam": 5546,
      "VA": 5547,
      "Years": 5548,
      "aur": 5549,
      "Y_": 5550,
      "/,": 5551,
      "forma": 5552,
      "Less": 5553,
      "thern": 5554,
      "IM": 5555,
      "prietary": 5556,
      "allocated": 5557,
      "=:": 5558,
      "`$`!``": 5559,
      "JQ": 5560,
      "PW": 5561,
      "<\\": 5562,
      "paration": 5563,
      "covered": 5564,
      "-)": 5565,
      "bid": 5566,
      "IW": 5567,
      "car": 5568,
      "I_": 5569,
      "^]": 5570,
      "Commun": 5571,
      "agencies": 5572,
      "Offer": 5573,
      "^$": 5574,
      "scal": 5575,
      "ote": 5576,
      ".[": 5577,
      "deduct": 5578,
      "Incorporated": 5579,
      "OO": 5580,
      "timely": 5581,
      "advanta": 5582,
      "rem": 5583,
      "venture": 5584,
      "cases": 5585,
      "ruptcy": 5586,
      "JL": 5587,
      "++": 5588,
      ">@": 5589,
      ">!": 5590,
      "stim": 5591,
      "house": 5592,
      "advertising": 5593,
      "stated": 5594,
      "&,": 5595,
      "Ref": 5596,
      "?]": 5597,
      "IPO": 5598,
      "iff": 5599,
      "protection": 5600,
      "HW": 5601,
      "ZZ": 5602,
      "aft": 5603,
      ";@": 5604,
      "onsor": 5605,
      "IBOR": 5606,
      "channel": 5607,
      "aint": 5608,
      "attached": 5609,
      "measurement": 5610,
      "exhib": 5611,
      "SIGNATURES": 5612,
      "[\\": 5613,
      "HY": 5614,
      "UM": 5615,
      ";/": 5616,
      "elimin": 5617,
      ".!": 5618,
      "hy": 5619,
      "Sum": 5620,
      "%(": 5621,
      "Nasdaq": 5622,
      "count": 5623,
      "GK": 5624,
      "az": 5625,
      "<]": 5626,
      "SB": 5627,
      "http": 5628,
      "disclosures": 5629,
      "savings": 5630,
      "NP": 5631,
      "infrastructure": 5632,
      "hard": 5633,
      "spread": 5634,
      "monthly": 5635,
      "-@": 5636,
      "HIB": 5637,
      "elig": 5638,
      "^)": 5639,
      "bert": 5640,
      "capitalized": 5641,
      "testing": 5642,
      "DIARIES": 5643,
      "Due": 5644,
      "DL": 5645,
      "relevant": 5646,
      "?:": 5647,
      ";\"": 5648,
      "Sched": 5649,
      "indebtedness": 5650,
      "drop": 5651,
      "GT": 5652,
      "investig": 5653,
      "VO": 5654,
      "Will": 5655,
      "Advis": 5656,
      "ford": 5657,
      "NAS": 5658,
      "states": 5659,
      "^:": 5660,
      "UU": 5661,
      "San": 5662,
      "proxy": 5663,
      "tificate": 5664,
      "EL": 5665,
      "assumed": 5666,
      "vesting": 5667,
      "SY": 5668,
      "Factors": 5669,
      "unaudited": 5670,
      "/*": 5671,
      "experienced": 5672,
      "Lease": 5673,
      "Solic": 5674,
      "Each": 5675,
      ".+": 5676,
      "Investments": 5677,
      "KP": 5678,
      "EI": 5679,
      "phys": 5680,
      "HJ": 5681,
      "AF": 5682,
      "&*": 5683,
      "^\\": 5684,
      "TION": 5685,
      "Mex": 5686,
      "/\"": 5687,
      "kers": 5688,
      "measured": 5689,
      "H_": 5690,
      "slow": 5691,
      "HIBIT": 5692,
      "digital": 5693,
      "foot": 5694,
      "draw": 5695,
      ".@": 5696,
      "persons": 5697,
      "When": 5698,
      "Markets": 5699,
      "Ber": 5700,
      "%=": 5701,
      "Page": 5702,
      "EXHIBIT": 5703,
      "ipt": 5704,
      "aily": 5705,
      "innov": 5706,
      "IQ": 5707,
      "iod": 5708,
      "RU": 5709,
      "BD": 5710,
      "responsible": 5711,
      "enforce": 5712,
      "stra": 5713,
      "cho": 5714,
      "reflects": 5715,
      "Convert": 5716,
      "revolving": 5717,
      "Ms": 5718,
      "itative": 5719,
      "grad": 5720,
      "IRS": 5721,
      "?!": 5722,
      "CJ": 5723,
      "<(": 5724,
      "uss": 5725,
      "flo": 5726,
      "ZO": 5727,
      "corporation": 5728,
      "evaluate": 5729,
      "AO": 5730,
      "Char": 5731,
      "SUBSI": 5732,
      "Security": 5733,
      "DAQ": 5734,
      "^>": 5735,
      "drive": 5736,
      "Restricted": 5737,
      "inputs": 5738,
      ")=": 5739,
      "Bec": 5740,
      "performed": 5741,
      "ration": 5742,
      "+*": 5743,
      "?*": 5744,
      "along": 5745,
      "<%": 5746,
      "Third": 5747,
      "track": 5748,
      ".(": 5749,
      "FP": 5750,
      "proprietary": 5751,
      "SN": 5752,
      "^[": 5753,
      "manner": 5754,
      "#'": 5755,
      "criteria": 5756,
      "welve": 5757,
      "onse": 5758,
      "totaled": 5759,
      "Unaudited": 5760,
      "<\"": 5761,
      "mic": 5762,
      "idge": 5763,
      "summary": 5764,
      "Because": 5765,
      "^=": 5766,
      "`%%%%": 5767,
      "]$": 5768,
      "A_": 5769,
      "mb": 5770,
      "Custo": 5771,
      "optim": 5772,
      "`(": 5773,
      "size": 5774,
      "TP": 5775,
      "AK": 5776,
      "accrual": 5777,
      "basic": 5778,
      "hedge": 5779,
      "suppliers": 5780,
      "Since": 5781,
      "BZ": 5782,
      "YO": 5783,
      "None": 5784,
      "uled": 5785,
      "cred": 5786,
      "WR": 5787,
      "CK": 5788,
      "THER": 5789,
      "CORPORATION": 5790,
      "accur": 5791,
      "bon": 5792,
      "istrants": 5793,
      "CF": 5794,
      "original": 5795,
      "ifically": 5796,
      "?$": 5797,
      "unrealized": 5798,
      "+&": 5799,
      "<-": 5800,
      ":$": 5801,
      "cure": 5802,
      "HQ": 5803,
      "rever": 5804,
      "VV": 5805,
      "herent": 5806,
      "indemn": 5807,
      "intro": 5808,
      "Incre": 5809,
      "guess": 5810,
      "healthcare": 5811,
      "D_": 5812,
      "[$": 5813,
      "couple": 5814,
      "'!": 5815,
      "Convertible": 5816,
      "Title": 5817,
      "Reserve": 5818,
      "Mortgage": 5819,
      ")-": 5820,
      "+#": 5821,
      "@*": 5822,
      "remains": 5823,
      "projected": 5824,
      "contributions": 5825,
      "Sc": 5826,
      "temporary": 5827,
      "Home": 5828,
      "partment": 5829,
      "LU": 5830,
      "Benefit": 5831,
      "self": 5832,
      "^;": 5833,
      "raise": 5834,
      "Defin": 5835,
      "P_": 5836,
      "uncertainty": 5837,
      ")>": 5838,
      "royal": 5839,
      "Air": 5840,
      "iber": 5841,
      "?>": 5842,
      "^.": 5843,
      "fluctuations": 5844,
      "Let": 5845,
      "sured": 5846,
      "enchmark": 5847,
      "hu": 5848,
      "ground": 5849,
      "authorities": 5850,
      "participants": 5851,
      "WY": 5852,
      "Products": 5853,
      "RI": 5854,
      "Inte": 5855,
      "Written": 5856,
      "Mac": 5857,
      "variety": 5858,
      "processing": 5859,
      "WQ": 5860,
      "study": 5861,
      "ening": 5862,
      "?&": 5863,
      "][": 5864,
      "quick": 5865,
      "SQ": 5866,
      "ZX": 5867,
      "whole": 5868,
      "differences": 5869,
      "alternative": 5870,
      "collabor": 5871,
      "recognize": 5872,
      "\\\"": 5873,
      "kes": 5874,
      "LX": 5875,
      "Investors": 5876,
      "funded": 5877,
      "RX": 5878,
      ",'": 5879,
      "uter": 5880,
      "dilut": 5881,
      "EP": 5882,
      "ordinated": 5883,
      "pand": 5884,
      "<[": 5885,
      "slightly": 5886,
      "Relations": 5887,
      "recurring": 5888,
      "Goodwill": 5889,
      "indicate": 5890,
      "regulation": 5891,
      "ull": 5892,
      "lements": 5893,
      "#!": 5894,
      "TB": 5895,
      "City": 5896,
      "stead": 5897,
      "TJ": 5898,
      "purpose": 5899,
      "practices": 5900,
      "franch": 5901,
      "FK": 5902,
      "guide": 5903,
      "source": 5904,
      "personal": 5905,
      "monitor": 5906,
      "Taxes": 5907,
      "hop": 5908,
      "pending": 5909,
      "Oil": 5910,
      "judgment": 5911,
      "Subsidiaries": 5912,
      "plies": 5913,
      "ancy": 5914,
      ".>": 5915,
      "technical": 5916,
      "%/": 5917,
      "strength": 5918,
      "ery": 5919,
      ")@": 5920,
      "IY": 5921,
      "discretion": 5922,
      "exam": 5923,
      "derivatives": 5924,
      "breach": 5925,
      ",,": 5926,
      "square": 5927,
      "NASDAQ": 5928,
      "role": 5929,
      "HL": 5930,
      "euros": 5931,
      "Perform": 5932,
      "aul": 5933,
      "inherent": 5934,
      "%-": 5935,
      "ave": 5936,
      "IU": 5937,
      "goods": 5938,
      "geograph": 5939,
      "]\\": 5940,
      "%:": 5941,
      "RY": 5942,
      "planned": 5943,
      "Accrued": 5944,
      "=$": 5945,
      "bi": 5946,
      "?@": 5947,
      "deg": 5948,
      "lived": 5949,
      "legis": 5950,
      "guys": 5951,
      "Treasury": 5952,
      "=;": 5953,
      "providers": 5954,
      "VQ": 5955,
      "premiums": 5956,
      "WU": 5957,
      "Dec": 5958,
      "bed": 5959,
      "VZ": 5960,
      "=@": 5961,
      "connect": 5962,
      "worth": 5963,
      "chem": 5964,
      "conclud": 5965,
      "Plans": 5966,
      "*\"": 5967,
      "Registration": 5968,
      "ody": 5969,
      "patient": 5970,
      "AQ": 5971,
      "DG": 5972,
      "strategies": 5973,
      "Amount": 5974,
      "Period": 5975,
      "CM": 5976,
      "consult": 5977,
      "commodity": 5978,
      "HP": 5979,
      ".$": 5980,
      "pressure": 5981,
      "analysts": 5982,
      "done": 5983,
      "exc": 5984,
      "filer": 5985,
      "wan": 5986,
      "documents": 5987,
      "pack": 5988,
      "ware": 5989,
      "feel": 5990,
      "bring": 5991,
      "Audit": 5992,
      "`%%%%`!": 5993,
      "ministration": 5994,
      "%@": 5995,
      "FairValue": 5996,
      "Av": 5997,
      "&&": 5998,
      "aired": 5999,
      ";(": 6000,
      "Condition": 6001,
      "?/": 6002,
      "Dividend": 6003,
      "pet": 6004,
      "ensure": 6005,
      "contingent": 6006,
      "compr": 6007,
      "*,": 6008,
      "pite": 6009,
      "eligible": 6010,
      "IJ": 6011,
      "`+": 6012,
      "proceedings": 6013,
      "disclosed": 6014,
      "=(": 6015,
      ";[": 6016,
      "compete": 6017,
      "flat": 6018,
      ">$": 6019,
      "separate": 6020,
      "assign": 6021,
      "Div": 6022,
      "iture": 6023,
      "OY": 6024,
      "explor": 6025,
      "amendment": 6026,
      "lled": 6027,
      "FM": 6028,
      "enhance": 6029,
      "?\"": 6030,
      "EZ": 6031,
      "GG": 6032,
      "suit": 6033,
      "Technology": 6034,
      "correct": 6035,
      "identify": 6036,
      "IK": 6037,
      "indirect": 6038,
      "junct": 6039,
      "Guarant": 6040,
      "Der": 6041,
      "dependent": 6042,
      "V_": 6043,
      "(`\"``@`(`\"``@`": 6044,
      "uck": 6045,
      "publicly": 6046,
      "effectively": 6047,
      "PQ": 6048,
      "redeem": 6049,
      "thereto": 6050,
      "auto": 6051,
      "=-": 6052,
      "permitted": 6053,
      "caut": 6054,
      "SUBSIDIARIES": 6055,
      "VW": 6056,
      "RA": 6057,
      ";]": 6058,
      "Wall": 6059,
      "*#": 6060,
      "UQ": 6061,
      "VL": 6062,
      "pandemic": 6063,
      "response": 6064,
      "'-": 6065,
      "developing": 6066,
      "Soliciting": 6067,
      "Now": 6068,
      "chapter": 6069,
      "\\)": 6070,
      "DQ": 6071,
      "something": 6072,
      "rental": 6073,
      "SK": 6074,
      "observ": 6075,
      ",@": 6076,
      "/:": 6077,
      "grade": 6078,
      "Look": 6079,
      "complex": 6080,
      "potentially": 6081,
      "hereto": 6082,
      "Costs": 6083,
      "cance": 6084,
      "UY": 6085,
      "Employee": 6086,
      "%\"": 6087,
      "Program": 6088,
      "ature": 6089,
      "according": 6090,
      "launch": 6091,
      "dise": 6092,
      "World": 6093,
      "uation": 6094,
      "page": 6095,
      "^-": 6096,
      ">\"": 6097,
      "*+": 6098,
      "remed": 6099,
      "obtained": 6100,
      "PY": 6101,
      "Quarterly": 6102,
      "PRE": 6103,
      "Release": 6104,
      "chain": 6105,
      "`.": 6106,
      "autom": 6107,
      "PJ": 6108,
      "X_": 6109,
      "storage": 6110,
      "ney": 6111,
      "XY": 6112,
      "VY": 6113,
      "bearing": 6114,
      "Nov": 6115,
      "WH": 6116,
      "Expenses": 6117,
      "OG": 6118,
      "oud": 6119,
      "smaller": 6120,
      "Prof": 6121,
      "Also": 6122,
      "refin": 6123,
      "profits": 6124,
      "TF": 6125,
      "OPER": 6126,
      "Just": 6127,
      "ATED": 6128,
      "quant": 6129,
      "Met": 6130,
      "BJ": 6131,
      "spital": 6132,
      "PART": 6133,
      "drilling": 6134,
      "/[": 6135,
      "&'": 6136,
      "empt": 6137,
      "chief": 6138,
      "matter": 6139,
      "types": 6140,
      "OH": 6141,
      "vary": 6142,
      "Rich": 6143,
      ".-": 6144,
      "#@": 6145,
      "Performance": 6146,
      ")]": 6147,
      "ZY": 6148,
      "conducted": 6149,
      "named": 6150,
      "calcul": 6151,
      "&@": 6152,
      "Nik": 6153,
      "Disclosure": 6154,
      "document": 6155,
      "chip": 6156,
      "crude": 6157,
      "UA": 6158,
      "offerings": 6159,
      "cret": 6160,
      "Docu": 6161,
      "penalties": 6162,
      "straight": 6163,
      "Sun": 6164,
      "negatively": 6165,
      "itation": 6166,
      "Resources": 6167,
      "furnished": 6168,
      "status": 6169,
      "+,": 6170,
      "=%": 6171,
      "break": 6172,
      "Jef": 6173,
      "---------": 6174,
      "Dan": 6175,
      "Shareholders": 6176,
      ":;": 6177,
      "critical": 6178,
      "HD": 6179,
      "Coun": 6180,
      "consumm": 6181,
      "BW": 6182,
      "*!": 6183,
      "determination": 6184,
      "\\;": 6185,
      "James": 6186,
      ":-": 6187,
      "invested": 6188,
      "XI": 6189,
      "cies": 6190,
      "Life": 6191,
      "RL": 6192,
      "hit": 6193,
      "UW": 6194,
      "family": 6195,
      "Pac": 6196,
      "reen": 6197,
      "MARKETS": 6198,
      "agency": 6199,
      "maximum": 6200,
      "diary": 6201,
      "Swiss": 6202,
      "capabilities": 6203,
      "lending": 6204,
      "equivalent": 6205,
      "=)": 6206,
      "ison": 6207,
      "SM": 6208,
      "gold": 6209,
      "BP": 6210,
      "/?": 6211,
      "UO": 6212,
      "+\"": 6213,
      "TG": 6214,
      "los": 6215,
      "Press": 6216,
      "biggest": 6217,
      "RZ": 6218,
      "Properties": 6219,
      "occurred": 6220,
      "managed": 6221,
      "SD": 6222,
      "SJ": 6223,
      "_J": 6224,
      "NYSE": 6225,
      "&$": 6226,
      "Claim": 6227,
      "UC": 6228,
      "interim": 6229,
      "(-": 6230,
      "IF": 6231,
      "NN": 6232,
      "/;": 6233,
      "ici": 6234,
      "PER": 6235,
      "University": 6236,
      "Compre": 6237,
      "apply": 6238,
      "EF": 6239,
      "oment": 6240,
      "INDEX": 6241,
      "PK": 6242,
      "Comprehensive": 6243,
      "agent": 6244,
      ">-": 6245,
      "sens": 6246,
      "ratings": 6247,
      "LIBOR": 6248,
      "\"'": 6249,
      "pert": 6250,
      "India": 6251,
      "^^^^^^^^": 6252,
      ">%": 6253,
      "+!": 6254,
      "ica": 6255,
      "Solut": 6256,
      "viol": 6257,
      "OQ": 6258,
      "ston": 6259,
      "Rece": 6260,
      "Rights": 6261,
      "\\]": 6262,
      "Op": 6263,
      "LZ": 6264,
      "They": 6265,
      "Canadian": 6266,
      "terminated": 6267,
      "Call": 6268,
      "Standards": 6269,
      "*@": 6270,
      "sectors": 6271,
      "Oblig": 6272,
      "card": 6273,
      "preparation": 6274,
      "thereof": 6275,
      "Depos": 6276,
      "eting": 6277,
      "<)": 6278,
      "step": 6279,
      "transportation": 6280,
      "_M": 6281,
      "_G": 6282,
      "BQ": 6283,
      "reconciliation": 6284,
      "ened": 6285,
      "scheduled": 6286,
      ":]": 6287,
      "WJ": 6288,
      "representing": 6289,
      "audits": 6290,
      "UJ": 6291,
      "Bra": 6292,
      "VR": 6293,
      "integration": 6294,
      "Proceeds": 6295,
      "charged": 6296,
      "contribution": 6297,
      "XZ": 6298,
      "'#": 6299,
      "Center": 6300,
      "LA": 6301,
      "spective": 6302,
      "create": 6303,
      "heav": 6304,
      "(.": 6305,
      "consists": 6306,
      "_H": 6307,
      "CG": 6308,
      "maker": 6309,
      "_D": 6310,
      "OTHER": 6311,
      "Systems": 6312,
      "preced": 6313,
      ":[": 6314,
      "Emer": 6315,
      "=^": 6316,
      "quoted": 6317,
      ";$": 6318,
      "Dollars": 6319,
      ",!": 6320,
      "Consumer": 6321,
      "moving": 6322,
      ";.": 6323,
      "developments": 6324,
      "IH": 6325,
      "?%": 6326,
      "super": 6327,
      "&%": 6328,
      "Mexico": 6329,
      "Revol": 6330,
      "&/": 6331,
      "icated": 6332,
      "Tai": 6333,
      "Kore": 6334,
      "OJ": 6335,
      "IVE": 6336,
      "stockholder": 6337,
      "aff": 6338,
      "manufacturers": 6339,
      "scale": 6340,
      "VM": 6341,
      "EW": 6342,
      "mobile": 6343,
      "weeks": 6344,
      "online": 6345,
      "advantage": 6346,
      "sites": 6347,
      "LLP": 6348,
      "_T": 6349,
      "Robert": 6350,
      "@\"": 6351,
      ":.": 6352,
      "entures": 6353,
      "ication": 6354,
      "LR": 6355,
      "occup": 6356,
      "numbers": 6357,
      "coal": 6358,
      "Polic": 6359,
      "?(": 6360,
      "INGS": 6361,
      ")\\": 6362,
      "commitment": 6363,
      "announce": 6364,
      "allocation": 6365,
      "Bar": 6366,
      "AJ": 6367,
      "Office": 6368,
      "udget": 6369,
      "East": 6370,
      "declared": 6371,
      "twelve": 6372,
      "Media": 6373,
      "hotel": 6374,
      "benchmark": 6375,
      "discounted": 6376,
      "raw": 6377,
      "OD": 6378,
      "moment": 6379,
      "Leg": 6380,
      ":^": 6381,
      "advance": 6382,
      "ousing": 6383,
      "Electric": 6384,
      "Incorporation": 6385,
      "front": 6386,
      "/-": 6387,
      "ique": 6388,
      "alle": 6389,
      "$\"": 6390,
      "ours": 6391,
      "tre": 6392,
      "PF": 6393,
      "maturities": 6394,
      ":(": 6395,
      "proving": 6396,
      "Expense": 6397,
      "content": 6398,
      "terr": 6399,
      "decisions": 6400,
      "acter": 6401,
      "food": 6402,
      "YZ": 6403,
      "reli": 6404,
      "HT": 6405,
      "/%": 6406,
      "processes": 6407,
      "ols": 6408,
      "promot": 6409,
      "disru": 6410,
      "BN": 6411,
      "unsecured": 6412,
      "VD": 6413,
      "WM": 6414,
      "#\"": 6415,
      "Looking": 6416,
      "BT": 6417,
      "ublish": 6418,
      "ser": 6419,
      "Your": 6420,
      "$>": 6421,
      "Administrative": 6422,
      "Great": 6423,
      "Cor": 6424,
      "daily": 6425,
      "Invent": 6426,
      "certainly": 6427,
      "&\"": 6428,
      "ATIONS": 6429,
      "speak": 6430,
      "objectives": 6431,
      "pursu": 6432,
      "Taiwan": 6433,
      "Litigation": 6434,
      "ff": 6435,
      "brands": 6436,
      "declined": 6437,
      "court": 6438,
      "safe": 6439,
      "?;": 6440,
      "Fut": 6441,
      "_I": 6442,
      "getting": 6443,
      "prospects": 6444,
      "XR": 6445,
      "&]": 6446,
      "________________________________": 6447,
      "Estim": 6448,
      "Warrants": 6449,
      "tic": 6450,
      "ifications": 6451,
      "`-": 6452,
      "client": 6453,
      "valid": 6454,
      "Law": 6455,
      "buying": 6456,
      "=]": 6457,
      "write": 6458,
      "specifically": 6459,
      "governmental": 6460,
      "ida": 6461,
      "Special": 6462,
      "kei": 6463,
      "degree": 6464,
      "Division": 6465,
      "Internet": 6466,
      "grew": 6467,
      "comments": 6468,
      "EM": 6469,
      "YQ": 6470,
      "Analysis": 6471,
      "Four": 6472,
      "GF": 6473,
      "Nikkei": 6474,
      "WL": 6475,
      "ASE": 6476,
      "Allow": 6477,
      "&.": 6478,
      "Zip": 6479,
      "Black": 6480,
      "salary": 6481,
      "stage": 6482,
      "Funds": 6483,
      "yo": 6484,
      "understand": 6485,
      "dealers": 6486,
      "impaired": 6487,
      "region": 6488,
      "feet": 6489,
      "Registrants": 6490,
      "Applic": 6491,
      "WK": 6492,
      "talked": 6493,
      "/>": 6494,
      ",*": 6495,
      "although": 6496,
      "UI": 6497,
      "?-": 6498,
      "esale": 6499,
      "About": 6500,
      "ductions": 6501,
      ":%": 6502,
      "+>": 6503,
      "gency": 6504,
      "dealer": 6505,
      "demon": 6506,
      "FFO": 6507,
      "larger": 6508,
      "studies": 6509,
      "Meeting": 6510,
      "Deriv": 6511,
      "ception": 6512,
      "observable": 6513,
      "extend": 6514,
      "answer": 6515,
      "YK": 6516,
      "Eng": 6517,
      "Qual": 6518,
      "RQ": 6519,
      "sco": 6520,
      "incremental": 6521,
      "relatively": 6522,
      "Entergy": 6523,
      ",$": 6524,
      "difference": 6525,
      "weakness": 6526,
      "WN": 6527,
      "priv": 6528,
      "lives": 6529,
      "restaur": 6530,
      "involved": 6531,
      "ANY": 6532,
      "!\"": 6533,
      "everyone": 6534,
      "Park": 6535,
      "Braz": 6536,
      "EG": 6537,
      "COME": 6538,
      "atch": 6539,
      "William": 6540,
      "Australia": 6541,
      "VJ": 6542,
      "erson": 6543,
      "VK": 6544,
      "VN": 6545,
      "Geor": 6546,
      "BG": 6547,
      "ternal": 6548,
      "Unit": 6549,
      "'^": 6550,
      "+$": 6551,
      "isable": 6552,
      "always": 6553,
      "parts": 6554,
      "#(": 6555,
      "designated": 6556,
      "Borrower": 6557,
      "ller": 6558,
      "#*": 6559,
      "seven": 6560,
      "pleased": 6561,
      "correspond": 6562,
      "details": 6563,
      "Sing": 6564,
      "Estate": 6565,
      "[)": 6566,
      ";\\": 6567,
      "statutory": 6568,
      "ledge": 6569,
      "print": 6570,
      "media": 6571,
      "&>": 6572,
      "determining": 6573,
      "SECTION": 6574,
      "+@": 6575,
      "arising": 6576,
      "Grow": 6577,
      "Pres": 6578,
      "iration": 6579,
      "LS": 6580,
      "Clo": 6581,
      "DK": 6582,
      "Analyst": 6583,
      "VU": 6584,
      "evidence": 6585,
      "expire": 6586,
      "borrowing": 6587,
      "ille": 6588,
      "QK": 6589,
      "Provision": 6590,
      "XJ": 6591,
      "ars": 6592,
      "forwards": 6593,
      "ZK": 6594,
      "examin": 6595,
      "foregoing": 6596,
      "PN": 6597,
      "Some": 6598,
      "REL": 6599,
      "mot": 6600,
      "QJ": 6601,
      "Solutions": 6602,
      "try": 6603,
      "Pension": 6604,
      "consolidation": 6605,
      "users": 6606,
      "ert": 6607,
      "+:": 6608,
      "Brazil": 6609,
      "After": 6610,
      "conform": 6611,
      "aining": 6612,
      "$%": 6613,
      "ondon": 6614,
      "multi": 6615,
      "&?": 6616,
      "Frank": 6617,
      "ZE": 6618,
      "Web": 6619,
      "cumulative": 6620,
      "apid": 6621,
      "character": 6622,
      "eut": 6623,
      "LC": 6624,
      "firms": 6625,
      "concent": 6626,
      "visit": 6627,
      "responsibility": 6628,
      "Bio": 6629,
      "wells": 6630,
      "UH": 6631,
      "proble": 6632,
      "!(": 6633,
      "rown": 6634,
      "ually": 6635,
      "_N": 6636,
      "Ten": 6637,
      "',": 6638,
      "usion": 6639,
      "Measure": 6640,
      "Vir": 6641,
      "----------------------------------------------------------------": 6642,
      "reimbursement": 6643,
      "job": 6644,
      "achieved": 6645,
      "London": 6646,
      "find": 6647,
      "negoti": 6648,
      "placed": 6649,
      "=[": 6650,
      ".;": 6651,
      "execution": 6652,
      "PM": 6653,
      "fill": 6654,
      "Editing": 6655,
      "Cr": 6656,
      "doubt": 6657,
      "Supplemental": 6658,
      "ush": 6659,
      "Adv": 6660,
      "'@": 6661,
      "staff": 6662,
      "Land": 6663,
      "DT": 6664,
      "shor": 6665,
      "organic": 6666,
      "#,": 6667,
      "\\[": 6668,
      "efficiency": 6669,
      "ZW": 6670,
      ")[": 6671,
      "&(": 6672,
      "+?": 6673,
      "Tim": 6674,
      "annually": 6675,
      "$-": 6676,
      "_C": 6677,
      "expressed": 6678,
      "rup": 6679,
      "cretary": 6680,
      "ett": 6681,
      "ada": 6682,
      "+(": 6683,
      "exploration": 6684,
      "Significant": 6685,
      "+;": 6686,
      "Russ": 6687,
      "LW": 6688,
      "INCOME": 6689,
      "LJ": 6690,
      "provider": 6691,
      "junction": 6692,
      "Chris": 6693,
      "Trading": 6694,
      "Curren": 6695,
      "weather": 6696,
      "ever": 6697,
      "owns": 6698,
      "represented": 6699,
      "sl": 6700,
      "HA": 6701,
      "Flor": 6702,
      "budget": 6703,
      "CASH": 6704,
      "ZQ": 6705,
      "XK": 6706,
      "HC": 6707,
      "ARE": 6708,
      "!`": 6709,
      "regular": 6710,
      "BKL": 6711,
      "DN": 6712,
      "maintaining": 6713,
      "OI": 6714,
      "applied": 6715,
      "comprised": 6716,
      "mining": 6717,
      "dut": 6718,
      "_S": 6719,
      ":\\": 6720,
      "projections": 6721,
      "DM": 6722,
      "underwriting": 6723,
      "Har": 6724,
      "RW": 6725,
      "political": 6726,
      "ensing": 6727,
      "damages": 6728,
      "/)": 6729,
      "iana": 6730,
      "category": 6731,
      "credits": 6732,
      "spend": 6733,
      "periodic": 6734,
      "Commit": 6735,
      "HN": 6736,
      "Organ": 6737,
      "XQ": 6738,
      "Time": 6739,
      "endar": 6740,
      "noted": 6741,
      "consumers": 6742,
      "quite": 6743,
      "election": 6744,
      "Indenture": 6745,
      "-]": 6746,
      "collectively": 6747,
      "backed": 6748,
      "vend": 6749,
      "Pacific": 6750,
      "Material": 6751,
      "exclusive": 6752,
      "XB": 6753,
      ",?": 6754,
      ",(": 6755,
      "franchise": 6756,
      "!*": 6757,
      "!#": 6758,
      "outcome": 6759,
      "Combination": 6760,
      "Options": 6761,
      "engaged": 6762,
      "Fil": 6763,
      "Ev": 6764,
      "highest": 6765,
      "regional": 6766,
      "owners": 6767,
      "exercised": 6768,
      "assist": 6769,
      "planning": 6770,
      "LQ": 6771,
      "More": 6772,
      "`)": 6773,
      "'*": 6774,
      "anes": 6775,
      "HB": 6776,
      "Hong": 6777,
      "amework": 6778,
      "flex": 6779,
      "prohib": 6780,
      "'(": 6781,
      ">)": 6782,
      "nearly": 6783,
      "RJ": 6784,
      "Percent": 6785,
      "itional": 6786,
      "/.": 6787,
      "largely": 6788,
      "%$": 6789,
      "pec": 6790,
      "ounds": 6791,
      "publish": 6792,
      "hedging": 6793,
      "ounce": 6794,
      "Pet": 6795,
      "ZG": 6796,
      "OU": 6797,
      "PUR": 6798,
      ":)": 6799,
      "currencies": 6800,
      "=\\": 6801,
      "VT": 6802,
      "ruct": 6803,
      "Main": 6804,
      "'&": 6805,
      "Financing": 6806,
      "RK": 6807,
      "Regul": 6808,
      "deploy": 6809,
      "Chin": 6810,
      "Industrial": 6811,
      "lenders": 6812,
      "EJ": 6813,
      "EK": 6814,
      "arrangement": 6815,
      "analy": 6816,
      "YJ": 6817,
      "disposal": 6818,
      "dle": 6819,
      "external": 6820,
      "secur": 6821,
      "']": 6822,
      "she": 6823,
      "uan": 6824,
      "E_": 6825,
      "jurisdictions": 6826,
      "Tw": 6827,
      "err": 6828,
      "Exclud": 6829,
      "Portfolio": 6830,
      "'\\": 6831,
      "Transaction": 6832,
      "posted": 6833,
      "Ital": 6834,
      "Fixed": 6835,
      "-^": 6836,
      "SF": 6837,
      "began": 6838,
      "frequ": 6839,
      "holds": 6840,
      "Florida": 6841,
      "allows": 6842,
      "load": 6843,
      "delays": 6844,
      "inqu": 6845,
      "ov": 6846,
      "authority": 6847,
      "concerning": 6848,
      "LG": 6849,
      "ibles": 6850,
      "\">": 6851,
      "derived": 6852,
      "BF": 6853,
      "RP": 6854,
      "managing": 6855,
      ",>": 6856,
      "L_": 6857,
      "$]": 6858,
      "YW": 6859,
      "+^": 6860,
      "?=": 6861,
      "\"`": 6862,
      "Topic": 6863,
      "shown": 6864,
      "ZC": 6865,
      "committed": 6866,
      "utility": 6867,
      "Lender": 6868,
      "ZA": 6869,
      "Hu": 6870,
      "consent": 6871,
      "implementation": 6872,
      "+=": 6873,
      "Pol": 6874,
      "District": 6875,
      "dur": 6876,
      "calendar": 6877,
      "Currency": 6878,
      "often": 6879,
      "worldwide": 6880,
      "VG": 6881,
      "numer": 6882,
      "Reform": 6883,
      "Summary": 6884,
      "Paul": 6885,
      "joining": 6886,
      "!&": 6887,
      "else": 6888,
      "ancer": 6889,
      "(^": 6890,
      "QT": 6891,
      "schedule": 6892,
      "+%": 6893,
      "recomm": 6894,
      "R_": 6895,
      "BS": 6896,
      "B_": 6897,
      "Kong": 6898,
      "Secretary": 6899,
      "?.": 6900,
      "!,": 6901,
      "produce": 6902,
      "abs": 6903,
      "NF": 6904,
      "owner": 6905,
      "licenses": 6906,
      "Employment": 6907,
      "amendments": 6908,
      "valued": 6909,
      "estern": 6910,
      "calculation": 6911,
      "makes": 6912,
      "VP": 6913,
      "offered": 6914,
      ">;": 6915,
      ">^": 6916,
      "beneficial": 6917,
      "Charter": 6918,
      "advanced": 6919,
      "Ut": 6920,
      "Transactions": 6921,
      "HM": 6922,
      "Emerging": 6923,
      "Central": 6924,
      "XP": 6925,
      "YG": 6926,
      "submitted": 6927,
      "craft": 6928,
      "DF": 6929,
      ">=": 6930,
      "Distribution": 6931,
      "Activ": 6932,
      "terminate": 6933,
      "harm": 6934,
      "offs": 6935,
      "fre": 6936,
      "participation": 6937,
      "center": 6938,
      "Grant": 6939,
      "slide": 6940,
      "link": 6941,
      "sume": 6942,
      "XU": 6943,
      "XN": 6944,
      "targets": 6945,
      "#&": 6946,
      "defic": 6947,
      "too": 6948,
      "+]": 6949,
      "ZJ": 6950,
      "ump": 6951,
      "remained": 6952,
      "once": 6953,
      "mail": 6954,
      "Impair": 6955,
      "$\\": 6956,
      "Receiv": 6957,
      "EO": 6958,
      "cents": 6959,
      "totaling": 6960,
      "sight": 6961,
      "Schedule": 6962,
      "Count": 6963,
      "solic": 6964,
      "!%": 6965,
      "reductions": 6966,
      "Thom": 6967,
      "limitation": 6968,
      "hom": 6969,
      "subscr": 6970,
      "converted": 6971,
      "sheets": 6972,
      ",\"!": 6973,
      "interpret": 6974,
      "BAN": 6975,
      "/=": 6976,
      "Retail": 6977,
      "encing": 6978,
      "rely": 6979,
      "deb": 6980,
      "render": 6981,
      "Proxy": 6982,
      "towards": 6983,
      "Revolving": 6984,
      "Phil": 6985,
      "KI": 6986,
      "`\"@`": 6987,
      "consulting": 6988,
      "';": 6989,
      ">]": 6990,
      "expert": 6991,
      "individuals": 6992,
      "divers": 6993,
      "devices": 6994,
      ">[": 6995,
      "starting": 6996,
      "confidence": 6997,
      "Chinese": 6998,
      "Far": 6999,
      "#^": 7000,
      "barrel": 7001,
      "XW": 7002,
      "Sy": 7003,
      "*&": 7004,
      "Actual": 7005,
      "rics": 7006,
      "RC": 7007,
      "Selling": 7008,
      "DH": 7009,
      "Adjustments": 7010,
      "Vol": 7011,
      "structions": 7012,
      "rapid": 7013,
      "usu": 7014,
      "bonus": 7015,
      "espec": 7016,
      "QI": 7017,
      "Exerc": 7018,
      "*.": 7019,
      "community": 7020,
      "!$": 7021,
      "especially": 7022,
      "olution": 7023,
      "VC": 7024,
      "-\\": 7025,
      "KT": 7026,
      "ides": 7027,
      "%^": 7028,
      "satisfact": 7029,
      "LH": 7030,
      "KA": 7031,
      "*$": 7032,
      "Fees": 7033,
      "series": 7034,
      "gical": 7035,
      "iable": 7036,
      "ained": 7037,
      "fairly": 7038,
      "exist": 7039,
      "El": 7040,
      "Lou": 7041,
      "Project": 7042,
      "*]": 7043,
      "letter": 7044,
      "Outstanding": 7045,
      "COUN": 7046,
      "KG": 7047,
      "RS": 7048,
      "anti": 7049,
      "@?": 7050,
      "insured": 7051,
      "+.": 7052,
      "Discus": 7053,
      "DP": 7054,
      "Care": 7055,
      "Nat": 7056,
      "umb": 7057,
      "milest": 7058,
      "industries": 7059,
      "merch": 7060,
      "reflecting": 7061,
      "ze": 7062,
      "ABLE": 7063,
      "'?": 7064,
      "cation": 7065,
      "wood": 7066,
      "(`": 7067,
      "@$": 7068,
      "shore": 7069,
      "Association": 7070,
      "body": 7071,
      "___": 7072,
      "!^": 7073,
      "KF": 7074,
      "guarantee": 7075,
      "gent": 7076,
      "(\\": 7077,
      "ony": 7078,
      "BM": 7079,
      "ville": 7080,
      "contem": 7081,
      "hai": 7082,
      "\"/": 7083,
      "Secured": 7084,
      "([": 7085,
      "QP": 7086,
      "'/": 7087,
      "%]": 7088,
      "Sta": 7089,
      "pharmaceutical": 7090,
      "#?": 7091,
      "YU": 7092,
      "hospital": 7093,
      "entially": 7094,
      "became": 7095,
      "Technologies": 7096,
      "changing": 7097,
      "YI": 7098,
      "alter": 7099,
      "secut": 7100,
      "#\\": 7101,
      "ism": 7102,
      "gl": 7103,
      "-----------": 7104,
      "approvals": 7105,
      "casts": 7106,
      "lost": 7107,
      ",&": 7108,
      "exercisable": 7109,
      "'[": 7110,
      "ZT": 7111,
      "classification": 7112,
      "WO": 7113,
      "Trade": 7114,
      "YH": 7115,
      "Suite": 7116,
      "Growth": 7117,
      "YL": 7118,
      "What": 7119,
      "XV": 7120,
      "QS": 7121,
      "centers": 7122,
      "+\\": 7123,
      "grants": 7124,
      "Instru": 7125,
      "participate": 7126,
      "'$": 7127,
      "Amounts": 7128,
      "knowledge": 7129,
      "_F": 7130,
      "insur": 7131,
      "advances": 7132,
      "+/": 7133,
      "QC": 7134,
      "cycl": 7135,
      "Base": 7136,
      ";)": 7137,
      "Termin": 7138,
      "EA": 7139,
      "#$": 7140,
      "men": 7141,
      "KN": 7142,
      "QA": 7143,
      "XL": 7144,
      "manufacture": 7145,
      "divid": 7146,
      "Agreements": 7147,
      "goals": 7148,
      "')": 7149,
      ",=": 7150,
      "why": 7151,
      "!/": 7152,
      "operator": 7153,
      "deficit": 7154,
      "depending": 7155,
      "encour": 7156,
      "attractive": 7157,
      "Discussion": 7158,
      "paper": 7159,
      "concluded": 7160,
      "rig": 7161,
      "DEN": 7162,
      "()": 7163,
      "QD": 7164,
      "Inputs": 7165,
      "offic": 7166,
      "Sim": 7167,
      "engineering": 7168,
      "needed": 7169,
      "contributed": 7170,
      "RD": 7171,
      "lands": 7172,
      "ology": 7173,
      "':": 7174,
      ",\\": 7175,
      ".]": 7176,
      "appointed": 7177,
      "ZV": 7178,
      "leet": 7179,
      "(]": 7180,
      "relimin": 7181,
      "\":": 7182,
      "vo": 7183,
      "ona": 7184,
      "conjunction": 7185,
      "Activities": 7186,
      "Department": 7187,
      "Equipment": 7188,
      "Restruct": 7189,
      "OA": 7190,
      "*?": 7191,
      "yields": 7192,
      "<`": 7193,
      "takes": 7194,
      "Lic": 7195,
      "swaps": 7196,
      "concerns": 7197,
      "lack": 7198,
      "&-": 7199,
      "ZM": 7200,
      "----------": 7201,
      "solution": 7202,
      "WC": 7203,
      "*\\": 7204,
      "ZL": 7205,
      "challenges": 7206,
      "noncontrolling": 7207,
      "#;": 7208,
      "UG": 7209,
      "XH": 7210,
      "RH": 7211,
      "preceding": 7212,
      "eed": 7213,
      "&:": 7214,
      "*/": 7215,
      "operated": 7216,
      "rather": 7217,
      ",)": 7218,
      "!]": 7219,
      "proposal": 7220,
      "QN": 7221,
      "ected": 7222,
      "Parent": 7223,
      "definitive": 7224,
      "+[": 7225,
      "efficient": 7226,
      "despite": 7227,
      "@\\": 7228,
      "pled": 7229,
      "HOLD": 7230,
      "van": 7231,
      "influ": 7232,
      ",/": 7233,
      "Nev": 7234,
      "'\"": 7235,
      "XC": 7236,
      "!)": 7237,
      "QG": 7238,
      "Sponsor": 7239,
      "Econom": 7240,
      "JT": 7241,
      "RM": 7242,
      "QM": 7243,
      "Jer": 7244,
      "YC": 7245,
      "'%": 7246,
      "intends": 7247,
      "aser": 7248,
      "cycle": 7249,
      "JM": 7250,
      "det": 7251,
      "WB": 7252,
      "Certificate": 7253,
      "introdu": 7254,
      "Matters": 7255,
      "lights": 7256,
      "atures": 7257,
      ".%": 7258,
      "DATA": 7259,
      "Init": 7260,
      "exhibit": 7261,
      "RF": 7262,
      "Cle": 7263,
      "-[": 7264,
      "Partner": 7265,
      "pop": 7266,
      "enterprise": 7267,
      "impacts": 7268,
      "`*`\"@`": 7269,
      "ild": 7270,
      "perspective": 7271,
      "#]": 7272,
      "XO": 7273,
      "YN": 7274,
      "JD": 7275,
      "enable": 7276,
      "Liquid": 7277,
      ".=": 7278,
      "Government": 7279,
      "Rent": 7280,
      "sc": 7281,
      "Penn": 7282,
      "YV": 7283,
      "reliminary": 7284,
      "understanding": 7285,
      "constitute": 7286,
      "Medical": 7287,
      "Offering": 7288,
      "WT": 7289,
      "uts": 7290,
      "rising": 7291,
      "stay": 7292,
      "ZI": 7293,
      "@^": 7294,
      "Richard": 7295,
      "ster": 7296,
      "dro": 7297,
      "XE": 7298,
      ".^": 7299,
      "distributed": 7300,
      "categories": 7301,
      "speed": 7302,
      "Person": 7303,
      "contempl": 7304,
      "QE": 7305,
      "WD": 7306,
      "@>": 7307,
      "disposition": 7308,
      "almost": 7309,
      "*^": 7310,
      "restated": 7311,
      "mut": 7312,
      "\"%": 7313,
      "rob": 7314,
      "dist": 7315,
      "modified": 7316,
      "\"]": 7317,
      "anything": 7318,
      "ZN": 7319,
      "Dow": 7320,
      "!\\": 7321,
      "atin": 7322,
      "VB": 7323,
      "expiration": 7324,
      "#:": 7325,
      "acted": 7326,
      "VH": 7327,
      "Saf": 7328,
      "lever": 7329,
      "`?": 7330,
      "legislation": 7331,
      "trying": 7332,
      "har": 7333,
      "Bancorp": 7334,
      "Core": 7335,
      "#/": 7336,
      "XT": 7337,
      "Independent": 7338,
      ",%": 7339,
      "$:": 7340,
      "servicing": 7341,
      "implied": 7342,
      "disease": 7343,
      "+-": 7344,
      "ZD": 7345,
      "Jones": 7346,
      "records": 7347,
      "mun": 7348,
      "lan": 7349,
      "tification": 7350,
      "ACCOUN": 7351,
      "affecting": 7352,
      "angibles": 7353,
      "numerous": 7354,
      "permit": 7355,
      "earning": 7356,
      "evaluated": 7357,
      "Particip": 7358,
      "win": 7359,
      "rt": 7360,
      "steel": 7361,
      "QH": 7362,
      "wire": 7363,
      "seasonal": 7364,
      "offers": 7365,
      "Impairment": 7366,
      "Allowance": 7367,
      "`>": 7368,
      "Warrant": 7369,
      "XM": 7370,
      "engage": 7371,
      "Select": 7372,
      ",;": 7373,
      "astern": 7374,
      "liquidation": 7375,
      "yes": 7376,
      "Korea": 7377,
      "JA": 7378,
      "story": 7379,
      "Ear": 7380,
      "opening": 7381,
      "KM": 7382,
      "depends": 7383,
      "JI": 7384,
      "JG": 7385,
      "YA": 7386,
      "og": 7387,
      "Fourth": 7388,
      "*>": 7389,
      "reput": 7390,
      "$^": 7391,
      "WP": 7392,
      "RT": 7393,
      "![": 7394,
      "VF": 7395,
      "\"-": 7396,
      "Banks": 7397,
      "sci": 7398,
      ",^": 7399,
      "Intangible": 7400,
      "*=": 7401,
      "JN": 7402,
      "'>": 7403,
      "ASSE": 7404,
      "!?": 7405,
      "integrated": 7406,
      "Flows": 7407,
      "Nevada": 7408,
      "clar": 7409,
      "KC": 7410,
      "judgments": 7411,
      "RG": 7412,
      "remarks": 7413,
      "reinsurance": 7414,
      "iced": 7415,
      "factor": 7416,
      "Prov": 7417,
      "stake": 7418,
      "(?": 7419,
      "operates": 7420,
      "cat": 7421,
      "*%": 7422,
      "complying": 7423,
      "+)": 7424,
      "QO": 7425,
      "@;": 7426,
      "@-": 7427,
      "&[": 7428,
      "merce": 7429,
      "@=": 7430,
      "EH": 7431,
      "VS": 7432,
      "improving": 7433,
      "gained": 7434,
      "damage": 7435,
      "executed": 7436,
      "(;": 7437,
      "$/": 7438,
      "commission": 7439,
      "Ox": 7440,
      "$;": 7441,
      "ung": 7442,
      "clim": 7443,
      "backlog": 7444,
      "Upon": 7445,
      "Lu": 7446,
      "XS": 7447,
      "Restructuring": 7448,
      "&^": 7449,
      "requirement": 7450,
      "#=": 7451,
      "!;": 7452,
      "aming": 7453,
      "royalty": 7454,
      "*:": 7455,
      "supplement": 7456,
      "deter": 7457,
      "travel": 7458,
      "ene": 7459,
      "XD": 7460,
      "'.": 7461,
      "maintained": 7462,
      "ently": 7463,
      "west": 7464,
      "COMM": 7465,
      "Short": 7466,
      "ills": 7467,
      "official": 7468,
      "infring": 7469,
      "TON": 7470,
      "RN": 7471,
      "vehicle": 7472,
      "iel": 7473,
      "'=": 7474,
      "County": 7475,
      "PEN": 7476,
      "relate": 7477,
      "XG": 7478,
      "uish": 7479,
      "Brit": 7480,
      "Tok": 7481,
      "commissions": 7482,
      "host": 7483,
      "probable": 7484,
      "vey": 7485,
      "JS": 7486,
      "ri": 7487,
      "closures": 7488,
      "YF": 7489,
      "seem": 7490,
      "released": 7491,
      "MBER": 7492,
      "#+": 7493,
      "unpaid": 7494,
      "ultimately": 7495,
      "&=": 7496,
      "scope": 7497,
      "Party": 7498,
      "limits": 7499,
      "Conference": 7500,
      "!:": 7501,
      "Tier": 7502,
      "Are": 7503,
      ",+": 7504,
      "Post": 7505,
      "plants": 7506,
      "affiliated": 7507,
      "bankruptcy": 7508,
      "JC": 7509,
      "version": 7510,
      "Appro": 7511,
      "$)": 7512,
      ",:": 7513,
      "\";": 7514,
      "advisory": 7515,
      "HF": 7516,
      ",.": 7517,
      "Don": 7518,
      "started": 7519,
      "intent": 7520,
      "itting": 7521,
      "Ho": 7522,
      "reasons": 7523,
      "ZB": 7524,
      "execute": 7525,
      "sense": 7526,
      "%\\": 7527,
      "affiliate": 7528,
      "live": 7529,
      "fig": 7530,
      "subordinated": 7531,
      "corresponding": 7532,
      "branch": 7533,
      "Sheets": 7534,
      "Southern": 7535,
      "plit": 7536,
      "vehicles": 7537,
      "@]": 7538,
      "*[": 7539,
      "stable": 7540,
      "#)": 7541,
      "forecasts": 7542,
      "Louis": 7543,
      "Atl": 7544,
      "(#`@": 7545,
      "regulated": 7546,
      "Construction": 7547,
      "consisted": 7548,
      "Increase": 7549,
      "history": 7550,
      "reme": 7551,
      "reducing": 7552,
      "organizations": 7553,
      "mainly": 7554,
      "DDDDE": 7555,
      "LM": 7556,
      "ZR": 7557,
      ",]": 7558,
      "#[": 7559,
      "manager": 7560,
      "generating": 7561,
      "Scott": 7562,
      "@:": 7563,
      "selected": 7564,
      "XA": 7565,
      "JF": 7566,
      "STR": 7567,
      "\"^": 7568,
      "Banking": 7569,
      "collection": 7570,
      "defend": 7571,
      "UF": 7572,
      "goal": 7573,
      "(=": 7574,
      "announcing": 7575,
      "bio": 7576,
      "ITION": 7577,
      "*;": 7578,
      "leasing": 7579,
      "eration": 7580,
      "Marketing": 7581,
      "\"=": 7582,
      "JH": 7583,
      "shift": 7584,
      "inability": 7585,
      "Star": 7586,
      "driving": 7587,
      "chemical": 7588,
      "Dou": 7589,
      "unique": 7590,
      "wonder": 7591,
      "declines": 7592,
      "showed": 7593,
      "adding": 7594,
      "detailed": 7595,
      "occurren": 7596,
      "Document": 7597,
      "#%": 7598,
      "Sale": 7599,
      "Fo": 7600,
      "Sci": 7601,
      "Companies": 7602,
      "Pharmaceutical": 7603,
      "meaningful": 7604,
      "RELATED": 7605,
      "stronger": 7606,
      "YB": 7607,
      "Reco": 7608,
      "wholesale": 7609,
      "Food": 7610,
      "tainment": 7611,
      "YP": 7612,
      "?\\`": 7613,
      "bear": 7614,
      "methods": 7615,
      "FTE": 7616,
      "!>": 7617,
      "Network": 7618,
      "concl": 7619,
      "Strate": 7620,
      "Reports": 7621,
      "traditional": 7622,
      "models": 7623,
      "companys": 7624,
      "JB": 7625,
      "guarantees": 7626,
      "resol": 7627,
      "appear": 7628,
      "ado": 7629,
      "mart": 7630,
      "asp": 7631,
      "!=": 7632,
      "@&": 7633,
      "transmission": 7634,
      "aware": 7635,
      "color": 7636,
      "ipp": 7637,
      "formed": 7638,
      "#>": 7639,
      "TING": 7640,
      "ZS": 7641,
      "@[": 7642,
      "XF": 7643,
      "BAL": 7644,
      "KD": 7645,
      "`\\": 7646,
      "issory": 7647,
      "Instruction": 7648,
      "Present": 7649,
      ".\\": 7650,
      "Green": 7651,
      ",-": 7652,
      "Holding": 7653,
      "Medicare": 7654,
      "(:": 7655,
      "gainers": 7656,
      "forms": 7657,
      "%[": 7658,
      "Var": 7659,
      "licensed": 7660,
      "USA": 7661,
      "RB": 7662,
      "description": 7663,
      "agers": 7664,
      "relates": 7665,
      "rated": 7666,
      "paying": 7667,
      "TERS": 7668,
      "*-": 7669,
      "reliance": 7670,
      "Communications": 7671,
      "(>": 7672,
      "principally": 7673,
      "severance": 7674,
      "tender": 7675,
      "bul": 7676,
      "issuer": 7677,
      "otive": 7678,
      "appe": 7679,
      "\"[": 7680,
      "Oct": 7681,
      "!+": 7682,
      "called": 7683,
      "lict": 7684,
      "ZH": 7685,
      "Union": 7686,
      "WG": 7687,
      "Thomas": 7688,
      "Bond": 7689,
      "parent": 7690,
      "'+": 7691,
      "housing": 7692,
      "Dividends": 7693,
      "produced": 7694,
      "ZF": 7695,
      "reb": 7696,
      "?)": 7697,
      "NET": 7698,
      "WF": 7699,
      "strengthen": 7700,
      "ought": 7701,
      "mbol": 7702,
      "ratios": 7703,
      "Ty": 7704,
      "Obligations": 7705,
      "$[": 7706,
      "Mike": 7707,
      "licensing": 7708,
      "Losses": 7709,
      "cancer": 7710,
      "@.": 7711,
      "diver": 7712,
      "translation": 7713,
      "hedges": 7714,
      "reasur": 7715,
      "\"\\": 7716,
      "!.": 7717,
      "&\\": 7718,
      "How": 7719,
      "QF": 7720,
      "Customer": 7721,
      "Applicable": 7722,
      "Tokyo": 7723,
      "@/": 7724,
      "Natural": 7725,
      "soon": 7726,
      "King": 7727,
      "&)": 7728,
      "German": 7729,
      "Refer": 7730,
      "Includes": 7731,
      "instrument": 7732,
      "CORP": 7733,
      "road": 7734,
      "Manager": 7735,
      "Integr": 7736,
      "Afr": 7737,
      "iers": 7738,
      "qualify": 7739,
      "@)": 7740,
      "emption": 7741,
      "via": 7742,
      "Last": 7743,
      "capt": 7744,
      "iffs": 7745,
      "institution": 7746,
      "mineral": 7747,
      "facts": 7748,
      "........................": 7749,
      "RED": 7750,
      "inception": 7751,
      "LN": 7752,
      "geographic": 7753,
      "`=": 7754,
      "MAN": 7755,
      "UD": 7756,
      "srt": 7757,
      "ORS": 7758,
      "necessarily": 7759,
      "sey": 7760,
      "moved": 7761,
      "RSU": 7762,
      ">\\": 7763,
      "accret": 7764,
      "HG": 7765,
      "Stan": 7766,
      "implemented": 7767,
      "round": 7768,
      "ZP": 7769,
      "rang": 7770,
      "Payments": 7771,
      "took": 7772,
      "FDIC": 7773,
      "leadership": 7774,
      "*(": 7775,
      "&+": 7776,
      "Closing": 7777,
      "`^": 7778,
      "tenant": 7779,
      "war": 7780,
      "customary": 7781,
      "divest": 7782,
      "Sm": 7783,
      "&;": 7784,
      "seeking": 7785,
      "istic": 7786,
      "resign": 7787,
      "giving": 7788,
      "transferred": 7789,
      "Brian": 7790,
      "blue": 7791,
      ",[": 7792,
      "QB": 7793,
      "ventures": 7794,
      "controlled": 7795,
      "PURSU": 7796,
      "ais": 7797,
      "expanded": 7798,
      "YM": 7799,
      "Mart": 7800,
      "agno": 7801,
      "Claims": 7802,
      "!-": 7803,
      "Sto": 7804,
      "historically": 7805,
      "constant": 7806,
      "excluded": 7807,
      "annum": 7808,
      "PURSUANT": 7809,
      "Imp": 7810,
      "mand": 7811,
      "eight": 7812,
      "settled": 7813,
      "guaranteed": 7814,
      "Sett": 7815,
      "eah": 7816,
      "whose": 7817,
      "Residential": 7818,
      "#-": 7819,
      "Contact": 7820,
      "ifies": 7821,
      "Mot": 7822,
      "allowances": 7823,
      "writ": 7824,
      "wanted": 7825,
      "Virgin": 7826,
      "Tom": 7827,
      "STX": 7828,
      "boost": 7829,
      "letters": 7830,
      "emp": 7831,
      "utilization": 7832,
      "Sof": 7833,
      "unrecognized": 7834,
      "Mal": 7835,
      "repayment": 7836,
      "CFO": 7837,
      "secure": 7838,
      "Cond": 7839,
      "fleet": 7840,
      "receipt": 7841,
      "COMPANY": 7842,
      "noon": 7843,
      "aircraft": 7844,
      "VIE": 7845,
      "FER": 7846,
      "fax": 7847,
      "pan": 7848,
      "acceptable": 7849,
      "raised": 7850,
      "La": 7851,
      "Bill": 7852,
      "Environ": 7853,
      "*)": 7854,
      "device": 7855,
      "excludes": 7856,
      "Future": 7857,
      "traders": 7858,
      "mort": 7859,
      "Ratio": 7860,
      "obtaining": 7861,
      "human": 7862,
      "FIC": 7863,
      "label": 7864,
      "profitable": 7865,
      "consisting": 7866,
      "supplemental": 7867,
      "thousand": 7868,
      "ultimate": 7869,
      "utilize": 7870,
      "DIARY": 7871,
      "OPERATIONS": 7872,
      "Margin": 7873,
      "extensive": 7874,
      "preliminary": 7875,
      "commercialization": 7876,
      "digit": 7877,
      "INGTON": 7878,
      "Ken": 7879,
      "Commitments": 7880,
      "Hi": 7881,
      "quickly": 7882,
      "compl": 7883,
      "carryforwards": 7884,
      "treated": 7885,
      "occurrence": 7886,
      "Debtors": 7887,
      "supplies": 7888,
      "forfe": 7889,
      "Germany": 7890,
      "ynam": 7891,
      "Hed": 7892,
      "expertise": 7893,
      "dilutive": 7894,
      "retained": 7895,
      "assume": 7896,
      "@%": 7897,
      "Slide": 7898,
      "created": 7899,
      "Bel": 7900,
      "Award": 7901,
      "distributors": 7902,
      "Fol": 7903,
      "Instructions": 7904,
      "rench": 7905,
      "summarizes": 7906,
      "entirety": 7907,
      "Payment": 7908,
      "moder": 7909,
      "sug": 7910,
      "App": 7911,
      "away": 7912,
      "unconsolidated": 7913,
      "division": 7914,
      "ESS": 7915,
      "agents": 7916,
      "realize": 7917,
      "venue": 7918,
      "exting": 7919,
      "Day": 7920,
      "ideo": 7921,
      "Before": 7922,
      "Instruments": 7923,
      "dep": 7924,
      "LF": 7925,
      "pick": 7926,
      "carried": 7927,
      "ba": 7928,
      "Reconciliation": 7929,
      "arp": 7930,
      "Japanese": 7931,
      "demonstr": 7932,
      "duration": 7933,
      "cross": 7934,
      "reached": 7935,
      "ft": 7936,
      "Trustee": 7937,
      "Author": 7938,
      "exceeds": 7939,
      "reviewed": 7940,
      "@(": 7941,
      "vs": 7942,
      "thanks": 7943,
      "therein": 7944,
      "stop": 7945,
      "yuan": 7946,
      "utilized": 7947,
      "rule": 7948,
      "arbor": 7949,
      "acceptance": 7950,
      "treasury": 7951,
      "serves": 7952,
      "`:": 7953,
      "Miss": 7954,
      "unchanged": 7955,
      "auct": 7956,
      "Tel": 7957,
      "Steve": 7958,
      "hereof": 7959,
      "Turn": 7960,
      "suffer": 7961,
      "losers": 7962,
      "monetary": 7963,
      "tenants": 7964,
      "osition": 7965,
      "solely": 7966,
      "resh": 7967,
      "PGL": 7968,
      "gers": 7969,
      "assessing": 7970,
      "ulf": 7971,
      "Therefore": 7972,
      "denomin": 7973,
      "Defined": 7974,
      "assuming": 7975,
      "repay": 7976,
      "president": 7977,
      "Standard": 7978,
      "ided": 7979,
      "tests": 7980,
      "Return": 7981,
      "fers": 7982,
      "Arrange": 7983,
      "Flo": 7984,
      "saying": 7985,
      "`%`!": 7986,
      "ARY": 7987,
      "ANS": 7988,
      "respects": 7989,
      "told": 7990,
      "marketplace": 7991,
      "Pan": 7992,
      "Unrealized": 7993,
      "deterior": 7994,
      "ivil": 7995,
      "actively": 7996,
      "thinking": 7997,
      "`]": 7998,
      "cris": 7999,
      "itz": 8000,
      "Treasur": 8001,
      "`;": 8002,
      "pursue": 8003,
      "helped": 8004,
      "talking": 8005,
      "vac": 8006,
      "latest": 8007,
      "expressly": 8008,
      "compare": 8009,
      "computed": 8010,
      "Place": 8011,
      "permits": 8012,
      "apore": 8013,
      "spot": 8014,
      "TAL": 8015,
      "Issuance": 8016,
      "AGE": 8017,
      "Excluding": 8018,
      "Wells": 8019,
      "Fred": 8020,
      "Dom": 8021,
      "Hy": 8022,
      "inventories": 8023,
      "Those": 8024,
      "heavy": 8025,
      "electronic": 8026,
      "metrics": 8027,
      "momentum": 8028,
      "discounts": 8029,
      "repair": 8030,
      "specialty": 8031,
      "Benefits": 8032,
      "renewal": 8033,
      "Ownership": 8034,
      "clearly": 8035,
      "conflict": 8036,
      "-------": 8037,
      "Agency": 8038,
      "FairValueInputs": 8039,
      "Oxley": 8040,
      "Sarb": 8041,
      "mine": 8042,
      "FairValueInputsLevel": 8043,
      "Ill": 8044,
      "Sarbanes": 8045,
      "Asian": 8046,
      "BKLV": 8047,
      "peak": 8048,
      "brokers": 8049,
      "eas": 8050,
      "dial": 8051,
      "Governance": 8052,
      "Regulatory": 8053,
      "withdraw": 8054,
      "threat": 8055,
      "Fed": 8056,
      "Ver": 8057,
      "iment": 8058,
      "aps": 8059,
      "Furthermore": 8060,
      "Events": 8061,
      "`[": 8062,
      "deals": 8063,
      "exclude": 8064,
      "becomes": 8065,
      "ICS": 8066,
      "defer": 8067,
      "Artic": 8068,
      "lementary": 8069,
      "borrower": 8070,
      "feed": 8071,
      "consequ": 8072,
      "Point": 8073,
      "WASH": 8074,
      "afternoon": 8075,
      "communities": 8076,
      "rad": 8077,
      "Retirement": 8078,
      "export": 8079,
      "lowest": 8080,
      "producing": 8081,
      "monitoring": 8082,
      "indices": 8083,
      "reputation": 8084,
      "Holders": 8085,
      "Singapore": 8086,
      "pers": 8087,
      "WASHINGTON": 8088,
      "built": 8089,
      "ran": 8090,
      "mitig": 8091,
      "finite": 8092,
      "functions": 8093,
      "Initial": 8094,
      "Subsidiary": 8095,
      "fraud": 8096,
      "My": 8097,
      "Rob": 8098,
      "Awards": 8099,
      "allowed": 8100,
      "Stat": 8101,
      "GRO": 8102,
      "BRL": 8103,
      "resolution": 8104,
      "Through": 8105,
      "Master": 8106,
      "....................": 8107,
      "opened": 8108,
      "intangibles": 8109,
      "Fitch": 8110,
      "Contracts": 8111,
      "susp": 8112,
      "extinguish": 8113,
      "SED": 8114,
      "ota": 8115,
      "Lab": 8116,
      "flexibility": 8117,
      "Derivative": 8118,
      "lined": 8119,
      "Follow": 8120,
      "Ve": 8121,
      "ailing": 8122,
      "Ent": 8123,
      "band": 8124,
      "Avenue": 8125,
      "Measurements": 8126,
      "cloud": 8127,
      "Letter": 8128,
      "tables": 8129,
      "Western": 8130,
      "targeted": 8131,
      "solicitation": 8132,
      "bad": 8133,
      "thereafter": 8134,
      "reviews": 8135,
      "Yeah": 8136,
      "candidate": 8137,
      "ets": 8138,
      "French": 8139,
      "ny": 8140,
      "ships": 8141,
      "channels": 8142,
      "initially": 8143,
      "webcast": 8144,
      "Rock": 8145,
      "functional": 8146,
      "occupancy": 8147,
      "star": 8148,
      "belief": 8149,
      "illed": 8150,
      "Registered": 8151,
      "capitalization": 8152,
      "contemplated": 8153,
      "weight": 8154,
      "disput": 8155,
      "regions": 8156,
      "tificates": 8157,
      "recommend": 8158,
      "Free": 8159,
      "broader": 8160,
      "positioned": 8161,
      "Bankruptcy": 8162,
      "pace": 8163,
      "partnerships": 8164,
      "Smith": 8165,
      "training": 8166,
      "firmed": 8167,
      "marketable": 8168,
      "pes": 8169,
      "involving": 8170,
      "ilit": 8171,
      "Oh": 8172,
      "problems": 8173,
      "Tur": 8174,
      "die": 8175,
      "extension": 8176,
      "ABIL": 8177,
      "Except": 8178,
      "delinqu": 8179,
      "Wal": 8180,
      "LEASE": 8181,
      "Gulf": 8182,
      "considers": 8183,
      "rought": 8184,
      "...<.": 8185,
      "scr": 8186,
      ".<": 8187,
      "borrowers": 8188,
      "Cit": 8189,
      "ana": 8190,
      "ority": 8191,
      "Legal": 8192,
      "FORMATION": 8193,
      "requiring": 8194,
      "drugs": 8195,
      "securit": 8196,
      "shows": 8197,
      "Rem": 8198,
      "split": 8199,
      "prospectus": 8200,
      "/\\`": 8201,
      "Sil": 8202,
      "Tar": 8203,
      "Greg": 8204,
      "effort": 8205,
      "Del": 8206,
      "administration": 8207,
      "Many": 8208,
      "governing": 8209,
      "NOL": 8210,
      "attack": 8211,
      "Ke": 8212,
      "replacement": 8213,
      "INFORMATION": 8214,
      "Jose": 8215,
      "Deuts": 8216,
      "aspect": 8217,
      "mac": 8218,
      "Australian": 8219,
      "helpful": 8220,
      "ASSETS": 8221,
      "Environmental": 8222,
      "NOI": 8223,
      "attention": 8224,
      "bor": 8225,
      "expanding": 8226,
      "crisis": 8227,
      "alloc": 8228,
      "priority": 8229,
      "hereby": 8230,
      "metals": 8231,
      "Affil": 8232,
      "Issuer": 8233,
      "Peter": 8234,
      "vendors": 8235,
      "lender": 8236,
      "onduct": 8237,
      "Er": 8238,
      "covering": 8239,
      "Tod": 8240,
      "solute": 8241,
      "brokerage": 8242,
      "decreases": 8243,
      "guidelines": 8244,
      "secutive": 8245,
      "profile": 8246,
      "PRC": 8247,
      "subscription": 8248,
      "tell": 8249,
      "confident": 8250,
      "bedded": 8251,
      "funda": 8252,
      "merchand": 8253,
      "shop": 8254,
      "France": 8255,
      "Carol": 8256,
      "agree": 8257,
      "confidential": 8258,
      "Most": 8259,
      "alone": 8260,
      "SPE": 8261,
      "ming": 8262,
      "Du": 8263,
      "Administration": 8264,
      "roleum": 8265,
      "ICES": 8266,
      "serving": 8267,
      "sharp": 8268,
      "contact": 8269,
      "edu": 8270,
      "doubtful": 8271,
      "match": 8272,
      "Mult": 8273,
      "annualized": 8274,
      "vers": 8275,
      "function": 8276,
      "groups": 8277,
      "Industries": 8278,
      "managers": 8279,
      "phase": 8280,
      "selves": 8281,
      "retention": 8282,
      "Recent": 8283,
      "Week": 8284,
      "consecutive": 8285,
      "recoverable": 8286,
      "redeemable": 8287,
      "Nu": 8288,
      "align": 8289,
      "supporting": 8290,
      "avo": 8291,
      "enforcement": 8292,
      "enacted": 8293,
      "reverse": 8294,
      "therapy": 8295,
      "ENER": 8296,
      "subsequently": 8297,
      "Prepaid": 8298,
      "pool": 8299,
      "Firm": 8300,
      "electricity": 8301,
      "shorter": 8302,
      "Mary": 8303,
      "physical": 8304,
      "Stanley": 8305,
      "STOCKS": 8306,
      "situation": 8307,
      "Virginia": 8308,
      "trader": 8309,
      "steady": 8310,
      "clean": 8311,
      "proportion": 8312,
      "Water": 8313,
      "Compet": 8314,
      "hur": 8315,
      "DISC": 8316,
      "bour": 8317,
      "ham": 8318,
      "uar": 8319,
      "truck": 8320,
      "prises": 8321,
      "operators": 8322,
      "Two": 8323,
      "features": 8324,
      "productivity": 8325,
      "Stockholder": 8326,
      "Six": 8327,
      "trademarks": 8328,
      "networks": 8329,
      "institutional": 8330,
      "extinguishment": 8331,
      "platforms": 8332,
      "mach": 8333,
      "================================": 8334,
      "communication": 8335,
      "practice": 8336,
      "resid": 8337,
      "Reported": 8338,
      "participating": 8339,
      "thus": 8340,
      "listing": 8341,
      "objective": 8342,
      "berg": 8343,
      "STOCKH": 8344,
      "$`": 8345,
      "copper": 8346,
      "Purchases": 8347,
      "indicators": 8348,
      "replace": 8349,
      "Lyn": 8350,
      "Expected": 8351,
      "executives": 8352,
      "Deutsche": 8353,
      "MBS": 8354,
      "Deal": 8355,
      "tight": 8356,
      "announcement": 8357,
      "retro": 8358,
      "Mor": 8359,
      "equities": 8360,
      "weaker": 8361,
      "CER": 8362,
      "...[.": 8363,
      "Eastern": 8364,
      "Steph": 8365,
      "excited": 8366,
      "Sur": 8367,
      "manufacturer": 8368,
      "mechan": 8369,
      "Wil": 8370,
      "agr": 8371,
      "icians": 8372,
      "Sever": 8373,
      "computer": 8374,
      "Sol": 8375,
      "syn": 8376,
      "OND": 8377,
      "CONT": 8378,
      "innovation": 8379,
      "Telecom": 8380,
      "indemnification": 8381,
      "M_P": 8382,
      "XBRL": 8383,
      "=')": 8384,
      "ples": 8385,
      "leader": 8386,
      "LTS": 8387,
      "Rating": 8388,
      "Prot": 8389,
      "definition": 8390,
      "satisfaction": 8391,
      "Sam": 8392,
      "launched": 8393,
      "Road": 8394,
      "repurchases": 8395,
      "FLO": 8396,
      "))))))))": 8397,
      "integral": 8398,
      "Dig": 8399,
      "ierarch": 8400,
      "extreme": 8401,
      "emissions": 8402,
      "occurs": 8403,
      "conformity": 8404,
      "civil": 8405,
      "topnews": 8406,
      "waste": 8407,
      "wondering": 8408,
      "syner": 8409,
      "Line": 8410,
      "prospective": 8411,
      "#`": 8412,
      "lvan": 8413,
      "consultants": 8414,
      "unfavorable": 8415,
      "video": 8416,
      "<<": 8417,
      "Deposit": 8418,
      "Inventories": 8419,
      "ald": 8420,
      "Leases": 8421,
      "ramp": 8422,
      "Design": 8423,
      "Avail": 8424,
      "vessel": 8425,
      "brought": 8426,
      "YEAR": 8427,
      "sil": 8428,
      "camp": 8429,
      "supported": 8430,
      "Ext": 8431,
      "elsewhere": 8432,
      "suits": 8433,
      "Therap": 8434,
      "ierarchy": 8435,
      "RESU": 8436,
      "FRX": 8437,
      "Chr": 8438,
      "haz": 8439,
      "assigned": 8440,
      "She": 8441,
      "subscriber": 8442,
      "lose": 8443,
      "never": 8444,
      "user": 8445,
      "Policies": 8446,
      "Go": 8447,
      "Pharmaceuticals": 8448,
      "remainder": 8449,
      "lip": 8450,
      "Cy": 8451,
      "Prem": 8452,
      "updated": 8453,
      "sponsor": 8454,
      "Andrew": 8455,
      "Shang": 8456,
      "challenging": 8457,
      "affic": 8458,
      "prompt": 8459,
      "Illino": 8460,
      "hood": 8461,
      "published": 8462,
      "eutics": 8463,
      "replay": 8464,
      "carb": 8465,
      "Following": 8466,
      "editing": 8467,
      "turnover": 8468,
      "trig": 8469,
      "FTEU": 8470,
      "Illinois": 8471,
      "comparison": 8472,
      "sylvan": 8473,
      "indicative": 8474,
      "leng": 8475,
      "Pennsylvan": 8476,
      "Ben": 8477,
      "USD": 8478,
      "Production": 8479,
      "Conn": 8480,
      "ned": 8481,
      "purchasing": 8482,
      "ama": 8483,
      "evin": 8484,
      "LIABIL": 8485,
      "cession": 8486,
      "suggest": 8487,
      "igence": 8488,
      "repurchased": 8489,
      "ALL": 8490,
      "indirectly": 8491,
      "social": 8492,
      "REG": 8493,
      "Ohio": 8494,
      "STOCKHOLD": 8495,
      "hours": 8496,
      "Pennsylvania": 8497,
      "Subsequent": 8498,
      "infringe": 8499,
      "downs": 8500,
      "ug": 8501,
      "Valuation": 8502,
      "calls": 8503,
      "Carr": 8504,
      "warranty": 8505,
      "denominated": 8506,
      "zone": 8507,
      "proceeding": 8508,
      "gives": 8509,
      "supplier": 8510,
      "Hotel": 8511,
      "Settlement": 8512,
      "fast": 8513,
      "License": 8514,
      "rat": 8515,
      "tow": 8516,
      "macro": 8517,
      "plaint": 8518,
      "tel": 8519,
      "imposed": 8520,
      "considering": 8521,
      "Counsel": 8522,
      "reliability": 8523,
      "Presentation": 8524,
      "regulators": 8525,
      "path": 8526,
      "Jeff": 8527,
      "appreci": 8528,
      "thics": 8529,
      "welcome": 8530,
      "Shanghai": 8531,
      "bot": 8532,
      "block": 8533,
      "End": 8534,
      "Russia": 8535,
      "------": 8536,
      "expensed": 8537,
      "ACCOUNTING": 8538,
      "establishing": 8539,
      "discussions": 8540,
      "duties": 8541,
      "enough": 8542,
      "organized": 8543,
      "thought": 8544,
      "Buil": 8545,
      "Prev": 8546,
      "separately": 8547,
      "perman": 8548,
      "mature": 8549,
      "payroll": 8550,
      "Manufact": 8551,
      "chair": 8552,
      "collaboration": 8553,
      "ute": 8554,
      "delivering": 8555,
      "closely": 8556,
      "Mae": 8557,
      "Engine": 8558,
      "Disclosures": 8559,
      "dynam": 8560,
      "herewith": 8561,
      "sensitive": 8562,
      "____________": 8563,
      "verse": 8564,
      "embedded": 8565,
      "nomin": 8566,
      "Goldman": 8567,
      "rendered": 8568,
      "undertake": 8569,
      "Use": 8570,
      "assure": 8571,
      "Link": 8572,
      "onductor": 8573,
      "sentiment": 8574,
      "Condensed": 8575,
      "Indian": 8576,
      "Dem": 8577,
      "Broad": 8578,
      "enroll": 8579,
      "wireless": 8580,
      "Jim": 8581,
      "modest": 8582,
      "RESULTS": 8583,
      "yan": 8584,
      "Collateral": 8585,
      "Measures": 8586,
      "Freddie": 8587,
      "oration": 8588,
      "arise": 8589,
      "disruptions": 8590,
      "Os": 8591,
      "Origin": 8592,
      "Source": 8593,
      "Recogn": 8594,
      "%`": 8595,
      "absolute": 8596,
      "diagno": 8597,
      "Cum": 8598,
      "ENT": 8599,
      "certificate": 8600,
      "hierarchy": 8601,
      "foresee": 8602,
      "===": 8603,
      "Profit": 8604,
      "Fann": 8605,
      "Liquidity": 8606,
      "approve": 8607,
      "cular": 8608,
      "icipal": 8609,
      "Acquisitions": 8610,
      "Jersey": 8611,
      "prime": 8612,
      "reclassified": 8613,
      "ranging": 8614,
      "NEW": 8615,
      "hor": 8616,
      "aggress": 8617,
      "stabil": 8618,
      "````````````````": 8619,
      "automat": 8620,
      "running": 8621,
      "compens": 8622,
      "LIABILITIES": 8623,
      "Vot": 8624,
      "ATING": 8625,
      "uarial": 8626,
      "ends": 8627,
      "teams": 8628,
      "Risks": 8629,
      "direction": 8630,
      "facilit": 8631,
      "fix": 8632,
      "perior": 8633,
      "framework": 8634,
      "gages": 8635,
      "exists": 8636,
      "employed": 8637,
      "Alex": 8638,
      "VEST": 8639,
      "enab": 8640,
      "oph": 8641,
      "anticipates": 8642,
      ")`": 8643,
      "Electron": 8644,
      "restaurants": 8645,
      "Stocks": 8646,
      "Software": 8647,
      "fundamental": 8648,
      "Hist": 8649,
      "push": 8650,
      "assumption": 8651,
      "ell": 8652,
      "Louisiana": 8653,
      "impose": 8654,
      "acquiring": 8655,
      "prepayment": 8656,
      "efficiencies": 8657,
      "aut": 8658,
      "Royal": 8659,
      "Hou": 8660,
      "enhanced": 8661,
      "lie": 8662,
      "Cas": 8663,
      "revise": 8664,
      "traffic": 8665,
      "tools": 8666,
      "sustained": 8667,
      "prefer": 8668,
      "DED": 8669,
      "SIGNATURE": 8670,
      "Beneficial": 8671,
      "ats": 8672,
      "ansas": 8673,
      "CAP": 8674,
      "expectation": 8675,
      "finished": 8676,
      "defici": 8677,
      "Conting": 8678,
      "omet": 8679,
      "formul": 8680,
      "investigation": 8681,
      "appreciation": 8682,
      "iated": 8683,
      "volatile": 8684,
      "disruption": 8685,
      "Equities": 8686,
      "Mill": 8687,
      "Exercise": 8688,
      "auction": 8689,
      "ls": 8690,
      "awarded": 8691,
      "soft": 8692,
      "indefinite": 8693,
      "ican": 8694,
      "exit": 8695,
      "------------------------------------------------": 8696,
      "consummation": 8697,
      "ience": 8698,
      "exempt": 8699,
      "Kevin": 8700,
      "Certification": 8701,
      "gia": 8702,
      "FHLB": 8703,
      "deep": 8704,
      "contribute": 8705,
      "setting": 8706,
      "Back": 8707,
      "nuclear": 8708,
      "Joint": 8709,
      "determines": 8710,
      "haven": 8711,
      "relations": 8712,
      "SHARE": 8713,
      "interested": 8714,
      "Merr": 8715,
      "roughly": 8716,
      "billed": 8717,
      "accelerate": 8718,
      "exposed": 8719,
      "Den": 8720,
      "ARD": 8721,
      "River": 8722,
      "Work": 8723,
      "rout": 8724,
      "representations": 8725,
      "robust": 8726,
      "virt": 8727,
      "names": 8728,
      "Fort": 8729,
      "sharing": 8730,
      "MARKET": 8731,
      "logical": 8732,
      "covery": 8733,
      "ithol": 8734,
      "cern": 8735,
      "presence": 8736,
      "><": 8737,
      "Jun": 8738,
      "War": 8739,
      "impairments": 8740,
      "($)": 8741,
      "Deposits": 8742,
      "title": 8743,
      "asers": 8744,
      "workers": 8745,
      "divided": 8746,
      "UBS": 8747,
      "ITAL": 8748,
      "Sure": 8749,
      "Bay": 8750,
      "edia": 8751,
      "zero": 8752,
      "annivers": 8753,
      "relief": 8754,
      "looks": 8755,
      "DAX": 8756,
      "Jack": 8757,
      "-------------": 8758,
      "satisfied": 8759,
      "British": 8760,
      "Gl": 8761,
      "postretirement": 8762,
      "Eric": 8763,
      "attempt": 8764,
      "difficulties": 8765,
      "Again": 8766,
      "retailers": 8767,
      "franc": 8768,
      "submit": 8769,
      "Local": 8770,
      "Africa": 8771,
      "thereby": 8772,
      "possibility": 8773,
      "orado": 8774,
      ",`": 8775,
      "Jurisdict": 8776,
      "ulture": 8777,
      "orporations": 8778,
      "dependence": 8779,
      "pattern": 8780,
      "Healthcare": 8781,
      "commenced": 8782,
      "Sach": 8783,
      "^^^^^^^^^^^^^^^^": 8784,
      "amil": 8785,
      "prescr": 8786,
      "DDDDI": 8787,
      "Policy": 8788,
      "INVEST": 8789,
      "Lenders": 8790,
      "))))*": 8791,
      "discip": 8792,
      "steps": 8793,
      "Estimated": 8794,
      "rum": 8795,
      "resolved": 8796,
      "raising": 8797,
      "rally": 8798,
      "ks": 8799,
      "incentives": 8800,
      "-`": 8801,
      "Analysts": 8802,
      "Consul": 8803,
      "Mass": 8804,
      "bps": 8805,
      "aspects": 8806,
      "Its": 8807,
      "ensions": 8808,
      "CapEx": 8809,
      "reconcil": 8810,
      "awa": 8811,
      "remediation": 8812,
      "lif": 8813,
      "oney": 8814,
      "Fannie": 8815,
      "atter": 8816,
      "]`": 8817,
      "recognizes": 8818,
      "technological": 8819,
      "length": 8820,
      "recovered": 8821,
      "crimin": 8822,
      "ifiable": 8823,
      "ifth": 8824,
      "Drive": 8825,
      "RSUs": 8826,
      "newly": 8827,
      "contractors": 8828,
      "ounces": 8829,
      "measurements": 8830,
      "exceeded": 8831,
      "BALANCE": 8832,
      "warranties": 8833,
      "consequences": 8834,
      "yr": 8835,
      "Telephone": 8836,
      "============": 8837,
      "George": 8838,
      "oles": 8839,
      "Basis": 8840,
      "Integrated": 8841,
      "moves": 8842,
      "outcomes": 8843,
      "automotive": 8844,
      "oral": 8845,
      "REE": 8846,
      "DECE": 8847,
      "Commod": 8848,
      "ipts": 8849,
      "Drug": 8850,
      "Specified": 8851,
      "Event": 8852,
      "homes": 8853,
      "TEN": 8854,
      "ficacy": 8855,
      "OTC": 8856,
      "restaurant": 8857,
      "achievement": 8858,
      "willing": 8859,
      "Chic": 8860,
      "DECEMBER": 8861,
      "Fargo": 8862,
      "trigger": 8863,
      "san": 8864,
      "arry": 8865,
      "Columb": 8866,
      "Right": 8867,
      "tou": 8868,
      "rail": 8869,
      "innovative": 8870,
      "Fl": 8871,
      "mag": 8872,
      "characteristics": 8873,
      "Card": 8874,
      "DefinedBenefit": 8875,
      "otech": 8876,
      "umin": 8877,
      "priced": 8878,
      "TOTAL": 8879,
      "stone": 8880,
      "NGL": 8881,
      "demn": 8882,
      "pressures": 8883,
      "text": 8884,
      "FERC": 8885,
      "TAIN": 8886,
      "accurate": 8887,
      "thres": 8888,
      "seems": 8889,
      "elements": 8890,
      "obligated": 8891,
      "UND": 8892,
      "itself": 8893,
      "gather": 8894,
      "reportable": 8895,
      "LME": 8896,
      "royalties": 8897,
      "REU": 8898,
      "authorization": 8899,
      "Generally": 8900,
      "MON": 8901,
      "watch": 8902,
      "utch": 8903,
      "cells": 8904,
      "mit": 8905,
      "contingencies": 8906,
      "DJI": 8907,
      "exact": 8908,
      "Full": 8909,
      "Carolina": 8910,
      "izon": 8911,
      "Available": 8912,
      "Combined": 8913,
      "Industry": 8914,
      "Houston": 8915,
      "counsel": 8916,
      "Sachs": 8917,
      "Daniel": 8918,
      "ij": 8919,
      "Jurisdiction": 8920,
      "appeal": 8921,
      "none": 8922,
      "didn": 8923,
      "examination": 8924,
      "Realty": 8925,
      "Next": 8926,
      "bridge": 8927,
      "true": 8928,
      "accordingly": 8929,
      "summarized": 8930,
      "severe": 8931,
      "shipments": 8932,
      "din": 8933,
      "constr": 8934,
      "CES": 8935,
      "simp": 8936,
      "Overview": 8937,
      "output": 8938,
      "esc": 8939,
      "Pal": 8940,
      "condensed": 8941,
      "acting": 8942,
      "untary": 8943,
      "ression": 8944,
      "ban": 8945,
      "Begin": 8946,
      "Cop": 8947,
      "stein": 8948,
      "ario": 8949,
      "/`": 8950,
      "downturn": 8951,
      "RELEASE": 8952,
      "commerce": 8953,
      "healthy": 8954,
      "involves": 8955,
      "'`": 8956,
      "delayed": 8957,
      "Georgia": 8958,
      "onounce": 8959,
      "foreseeable": 8960,
      "resource": 8961,
      "Protection": 8962,
      "Target": 8963,
      "Mil": 8964,
      "portfolios": 8965,
      "Treasurer": 8966,
      "decess": 8967,
      "Micro": 8968,
      "yer": 8969,
      "joined": 8970,
      "TECH": 8971,
      "Arrangements": 8972,
      "yle": 8973,
      "metal": 8974,
      "Even": 8975,
      "spaper": 8976,
      "comfor": 8977,
      "Lynch": 8978,
      "EPA": 8979,
      "wid": 8980,
      "Assum": 8981,
      "Sk": 8982,
      "Paid": 8983,
      "assessments": 8984,
      "Reserv": 8985,
      "extra": 8986,
      "shipping": 8987,
      "maintains": 8988,
      "Prom": 8989,
      "Chicago": 8990,
      "intr": 8991,
      "Cumulative": 8992,
      "expressions": 8993,
      "STOCK": 8994,
      "counterparties": 8995,
      "Represents": 8996,
      "achieving": 8997,
      "milestone": 8998,
      "SES": 8999,
      "ASIA": 9000,
      "appointment": 9001,
      "distribute": 9002,
      "Americas": 9003,
      "participant": 9004,
      "utilities": 9005,
      "Blue": 9006,
      "uity": 9007,
      "^`": 9008,
      "ses": 9009,
      "hotels": 9010,
      "efficacy": 9011,
      "assessed": 9012,
      "Steven": 9013,
      "alleged": 9014,
      "Customers": 9015,
      "mitigate": 9016,
      "Receivables": 9017,
      "ounder": 9018,
      "Controls": 9019,
      "Beginning": 9020,
      "=`": 9021,
      "ardous": 9022,
      "Forma": 9023,
      "?`": 9024,
      "entific": 9025,
      "overnight": 9026,
      "definite": 9027,
      "periodically": 9028,
      "rick": 9029,
      "gaining": 9030,
      "poll": 9031,
      "Int": 9032,
      "exhibits": 9033,
      "Jr": 9034,
      "Building": 9035,
      "originally": 9036,
      "Bridge": 9037,
      "immediate": 9038,
      "admin": 9039,
      "[`": 9040,
      "OUR": 9041,
      "hind": 9042,
      "excell": 9043,
      "Economic": 9044,
      "crown": 9045,
      "entering": 9046,
      "expensive": 9047,
      "Decre": 9048,
      "regardless": 9049,
      "merchandise": 9050,
      "settlements": 9051,
      "offshore": 9052,
      "Wood": 9053,
      "prepaid": 9054,
      "Bonds": 9055,
      ":`": 9056,
      "Franc": 9057,
      "Middle": 9058,
      "Retained": 9059,
      "ara": 9060,
      "Fee": 9061,
      "complaint": 9062,
      "Merrill": 9063,
      "(\"`@(\"`@(\"`@(\"`@(\"`@(\"`@(\"`@(\"`@": 9064,
      "him": 9065,
      "approximate": 9066,
      "drivers": 9067,
      "Contribut": 9068,
      "Percentage": 9069,
      "promissory": 9070,
      "increasingly": 9071,
      "Rev": 9072,
      "Filed": 9073,
      "tonnes": 9074,
      "conserv": 9075,
      "dispositions": 9076,
      "iations": 9077,
      "Latin": 9078,
      "construct": 9079,
      "letion": 9080,
      "buyers": 9081,
      "Order": 9082,
      "worr": 9083,
      "buildings": 9084,
      "Book": 9085,
      "Chem": 9086,
      "Valley": 9087,
      "commercialize": 9088,
      "Employees": 9089,
      "(`\"``@`(`\"``@`(`\"``@`(`\"``@`": 9090,
      "governance": 9091,
      "defense": 9092,
      "Moreover": 9093,
      "television": 9094,
      "gov": 9095,
      "anniversary": 9096,
      "classes": 9097,
      "Offices": 9098,
      "Supply": 9099,
      "writers": 9100,
      "Thous": 9101,
      "enz": 9102,
      "death": 9103,
      "rapidly": 9104,
      "acts": 9105,
      "disclose": 9106,
      "certificates": 9107,
      "iques": 9108,
      "BUS": 9109,
      "umped": 9110,
      "Matur": 9111,
      "commodities": 9112,
      "influence": 9113,
      "Ba": 9114,
      "gaming": 9115,
      "floor": 9116,
      "hedged": 9117,
      "fresh": 9118,
      "INTER": 9119,
      "Inventory": 9120,
      "Spr": 9121,
      "producer": 9122,
      "ark": 9123,
      "tm": 9124,
      "dilution": 9125,
      "Indemn": 9126,
      "basically": 9127,
      "bottom": 9128,
      "synergies": 9129,
      "dropped": 9130,
      "Given": 9131,
      "aints": 9132,
      "Termination": 9133,
      "goes": 9134,
      "population": 9135,
      "greg": 9136,
      "gi": 9137,
      "expired": 9138,
      "SCH": 9139,
      "insurers": 9140,
      "schedules": 9141,
      "Di": 9142,
      "Ray": 9143,
      "confirm": 9144,
      "Discontinued": 9145,
      "wal": 9146,
      "mortgages": 9147,
      "GROUP": 9148,
      "Staff": 9149,
      "aving": 9150,
      ";`": 9151,
      "inding": 9152,
      "origination": 9153,
      "reorganization": 9154,
      "Kingdom": 9155,
      "usual": 9156,
      "......": 9157,
      "cers": 9158,
      "&`": 9159,
      "izable": 9160,
      "pul": 9161,
      "attor": 9162,
      "entry": 9163,
      "newspaper": 9164,
      "nar": 9165,
      "ourcing": 9166,
      "Mood": 9167,
      "unknown": 9168,
      "Lead": 9169,
      "inj": 9170,
      "Maryland": 9171,
      "eliminated": 9172,
      "uk": 9173,
      "Small": 9174,
      "Her": 9175,
      "territ": 9176,
      "diversified": 9177,
      "linked": 9178,
      "oung": 9179,
      "amid": 9180,
      "Histor": 9181,
      "strateg": 9182,
      "cyber": 9183,
      ">`": 9184,
      "whom": 9185,
      ".<.": 9186,
      "fulfill": 9187,
      "secondary": 9188,
      "followed": 9189,
      "Lake": 9190,
      "went": 9191,
      ".`": 9192,
      "Turning": 9193,
      "Managing": 9194,
      "forced": 9195,
      "Colorado": 9196,
      "Joseph": 9197,
      "Plant": 9198,
      "Bur": 9199,
      "lawsuits": 9200,
      "Auto": 9201,
      "assumes": 9202,
      "Vest": 9203,
      "Dated": 9204,
      "context": 9205,
      "leaders": 9206,
      "sequentially": 9207,
      "repaid": 9208,
      "Digital": 9209,
      "survey": 9210,
      "Lien": 9211,
      "SERV": 9212,
      "ano": 9213,
      "cert": 9214,
      "mond": 9215,
      "headwind": 9216,
      "PEUR": 9217,
      "Cover": 9218,
      "omb": 9219,
      "Interests": 9220,
      "appreciate": 9221,
      "collected": 9222,
      "Seller": 9223,
      "receiving": 9224,
      "Supplementary": 9225,
      "constitut": 9226,
      "utes": 9227,
      "appr": 9228,
      "figures": 9229,
      "ains": 9230,
      "Gains": 9231,
      "Subordinated": 9232,
      "cancell": 9233,
      "caution": 9234,
      "*`": 9235,
      "left": 9236,
      "mutual": 9237,
      "behind": 9238,
      "tons": 9239,
      "Italy": 9240,
      "usage": 9241,
      "Both": 9242,
      "releases": 9243,
      "recoveries": 9244,
      "fire": 9245,
      "REUTERS": 9246,
      "Cam": 9247,
      "symbol": 9248,
      "methodology": 9249,
      "ental": 9250,
      "spreads": 9251,
      "JPMorgan": 9252,
      "Associates": 9253,
      "carbon": 9254,
      "sustainable": 9255,
      "ultimedia": 9256,
      "TRANS": 9257,
      "Safety": 9258,
      "creating": 9259,
      "keeping": 9260,
      "terror": 9261,
      "email": 9262,
      "requested": 9263,
      "Equival": 9264,
      "interru": 9265,
      "electronics": 9266,
      "Nine": 9267,
      "enario": 9268,
      "Utility": 9269,
      "updates": 9270,
      "scre": 9271,
      "redeemed": 9272,
      "reek": 9273,
      "toward": 9274,
      "ulg": 9275,
      "Mit": 9276,
      "spent": 9277,
      "igan": 9278,
      "sen": 9279,
      "gave": 9280,
      "lihood": 9281,
      "feature": 9282,
      "Community": 9283,
      "Plus": 9284,
      "enty": 9285,
      "FROM": 9286,
      "exceptions": 9287,
      "ittees": 9288,
      "shut": 9289,
      "Parties": 9290,
      "reserved": 9291,
      "VEN": 9292,
      "ipelines": 9293,
      "ibilities": 9294,
      "Highlights": 9295,
      "Recurring": 9296,
      "accomp": 9297,
      "indication": 9298,
      "managements": 9299,
      "dil": 9300,
      "actuarial": 9301,
      "hardware": 9302,
      "repe": 9303,
      "unithol": 9304,
      "rid": 9305,
      "fa": 9306,
      "Selected": 9307,
      "Scholes": 9308,
      "na": 9309,
      "stance": 9310,
      "Requ": 9311,
      "Cir": 9312,
      "fines": 9313,
      "bringing": 9314,
      "Sand": 9315,
      "FLOWS": 9316,
      "falling": 9317,
      "CLO": 9318,
      "thereunto": 9319,
      "whereby": 9320,
      "Receivable": 9321,
      "likelihood": 9322,
      "atell": 9323,
      "codes": 9324,
      "theast": 9325,
      "Consent": 9326,
      "commercially": 9327,
      "Manufacturing": 9328,
      "ultural": 9329,
      "Compliance": 9330,
      "techniques": 9331,
      "nice": 9332,
      "isco": 9333,
      "indications": 9334,
      "Boston": 9335,
      "Conversion": 9336,
      "Medicaid": 9337,
      "onso": 9338,
      "mind": 9339,
      "sou": 9340,
      "holdings": 9341,
      "isse": 9342,
      "holiday": 9343,
      "exception": 9344,
      "eutic": 9345,
      "Adjustment": 9346,
      "Enterprise": 9347,
      "minority": 9348,
      "attacks": 9349,
      "expecting": 9350,
      "Isra": 9351,
      "extremely": 9352,
      "noninterest": 9353,
      "medium": 9354,
      "+`": 9355,
      "Christ": 9356,
      "grades": 9357,
      "agraph": 9358,
      "................................................................": 9359,
      "Martin": 9360,
      "Bon": 9361,
      "Ze": 9362,
      "Election": 9363,
      "Relation": 9364,
      "meetings": 9365,
      "lien": 9366,
      "Tor": 9367,
      "recru": 9368,
      "implementing": 9369,
      "Notice": 9370,
      "brief": 9371,
      "Savings": 9372,
      "Acquired": 9373,
      "faster": 9374,
      "spo": 9375,
      "solar": 9376,
      "hope": 9377,
      "Procedures": 9378,
      "............................": 9379,
      "Chang": 9380,
      "usually": 9381,
      "dose": 9382,
      "modification": 9383,
      "Hen": 9384,
      "hazardous": 9385,
      "decessor": 9386,
      "bought": 9387,
      "hour": 9388,
      "formerly": 9389,
      "integrate": 9390,
      "Liability": 9391,
      "RIS": 9392,
      "calculate": 9393,
      "kel": 9394,
      "Oversight": 9395,
      "receives": 9396,
      "beliefs": 9397,
      "Bi": 9398,
      "Steel": 9399,
      "atic": 9400,
      "counterparty": 9401,
      "--------------": 9402,
      "Head": 9403,
      "BUSIN": 9404,
      "mem": 9405,
      "utilizing": 9406,
      "wealth": 9407,
      "arding": 9408,
      "Framework": 9409,
      "valuations": 9410,
      "olo": 9411,
      "Prime": 9412,
      "happen": 9413,
      "Pot": 9414,
      "salaries": 9415,
      "tum": 9416,
      "STATEMENT": 9417,
      "sec": 9418,
      "accurately": 9419,
      "forecasted": 9420,
      "Estimates": 9421,
      "ENERGY": 9422,
      "preclinical": 9423,
      "hydro": 9424,
      "motion": 9425,
      "MAT": 9426,
      "ualty": 9427,
      "semic": 9428,
      "RECT": 9429,
      "assert": 9430,
      "Transfer": 9431,
      "tos": 9432,
      "Area": 9433,
      "negotiated": 9434,
      "Lar": 9435,
      "FIR": 9436,
      "lesser": 9437,
      "Noninterest": 9438,
      "surv": 9439,
      "Amon": 9440,
      "Approxim": 9441,
      "membership": 9442,
      "Deb": 9443,
      "duty": 9444,
      "Fuel": 9445,
      "SegmentMember": 9446,
      "Update": 9447,
      "worked": 9448,
      "usive": 9449,
      "Chase": 9450,
      "ountain": 9451,
      "players": 9452,
      "Advisor": 9453,
      "ibly": 9454,
      "PRESS": 9455,
      "custom": 9456,
      "floating": 9457,
      "mostly": 9458,
      "chairman": 9459,
      "***": 9460,
      "Stephen": 9461,
      "burg": 9462,
      "professionals": 9463,
      "Minim": 9464,
      "Among": 9465,
      "Facilities": 9466,
      "Clin": 9467,
      "ENDED": 9468,
      "Broker": 9469,
      "onouncements": 9470,
      "packaging": 9471,
      "falls": 9472,
      "rounding": 9473,
      "hen": 9474,
      "Overall": 9475,
      "Rules": 9476,
      "ears": 9477,
      "Station": 9478,
      "ADR": 9479,
      "flu": 9480,
      "identical": 9481,
      "ORK": 9482,
      "physicians": 9483,
      "tages": 9484,
      "xx": 9485,
      "Connect": 9486,
      "substitute": 9487,
      "applies": 9488,
      "Maxim": 9489,
      "Super": 9490,
      "ibe": 9491,
      "freight": 9492,
      "mi": 9493,
      "discretionary": 9494,
      "Malays": 9495,
      "ARTER": 9496,
      "Included": 9497,
      "Fre": 9498,
      "owed": 9499,
      "weigh": 9500,
      "rebound": 9501,
      "Brad": 9502,
      "...[": 9503,
      "Indones": 9504,
      "tick": 9505,
      "becoming": 9506,
      "onsored": 9507,
      "Subject": 9508,
      "ips": 9509,
      "Dutch": 9510,
      "Pipeline": 9511,
      "compo": 9512,
      "seas": 9513,
      "infringement": 9514,
      "Matt": 9515,
      "Suisse": 9516,
      "barrels": 9517,
      "onto": 9518,
      "OPERATING": 9519,
      "Mich": 9520,
      "plays": 9521,
      "BUSINESS": 9522,
      "lay": 9523,
      "Joe": 9524,
      "ites": 9525,
      "undue": 9526,
      "files": 9527,
      "debentures": 9528,
      "surplus": 9529,
      "milestones": 9530,
      "individually": 9531,
      "Unsecured": 9532,
      "Professional": 9533,
      "MIN": 9534,
      "sequently": 9535,
      "pertain": 9536,
      "Italian": 9537,
      "cable": 9538,
      "onom": 9539,
      "uling": 9540,
      "rata": 9541,
      "trustee": 9542,
      "ICE": 9543,
      "rupees": 9544,
      "Vi": 9545,
      "Placement": 9546,
      "Ren": 9547,
      "icially": 9548,
      "workforce": 9549,
      "TRS": 9550,
      "Support": 9551,
      "broadcast": 9552,
      "rank": 9553,
      "Execut": 9554,
      "Russian": 9555,
      "Articles": 9556,
      "ka": 9557,
      "depreci": 9558,
      "odification": 9559,
      "concile": 9560,
      "IONS": 9561,
      "---------------": 9562,
      "hospitals": 9563,
      "Sect": 9564,
      "asked": 9565,
      "cel": 9566,
      "renewable": 9567,
      "Interactive": 9568,
      "fract": 9569,
      "handling": 9570,
      "Repurchase": 9571,
      "carriers": 9572,
      "HOLDINGS": 9573,
      "NON": 9574,
      "Hill": 9575,
      "MANAGE": 9576,
      "identifiable": 9577,
      "(\"]": 9578,
      "iter": 9579,
      "reform": 9580,
      "advisors": 9581,
      "Got": 9582,
      "Transport": 9583,
      "bes": 9584,
      "unvested": 9585,
      "refund": 9586,
      "engagement": 9587,
      "Distributions": 9588,
      "ORE": 9589,
      "issuable": 9590,
      "Owned": 9591,
      "aver": 9592,
      "Hor": 9593,
      "minutes": 9594,
      "natives": 9595,
      "driver": 9596,
      "pounds": 9597,
      "sellers": 9598,
      "iptions": 9599,
      "slip": 9600,
      "conven": 9601,
      "Low": 9602,
      "thy": 9603,
      "Autom": 9604,
      "Therapeutics": 9605,
      "regularly": 9606,
      "Vis": 9607,
      "cease": 9608,
      "gene": 9609,
      "posite": 9610,
      "lift": 9611,
      "Items": 9612,
      "footprint": 9613,
      "town": 9614,
      "Hedging": 9615,
      "acceleration": 9616,
      "DIRECT": 9617,
      "Northern": 9618,
      "OUT": 9619,
      "failed": 9620,
      "STXNEWS": 9621,
      "WIT": 9622,
      "privacy": 9623,
      "Improve": 9624,
      "violation": 9625,
      "deductible": 9626,
      "Coast": 9627,
      "MEX": 9628,
      "permanent": 9629,
      "mp": 9630,
      "inn": 9631,
      "waiver": 9632,
      "Opt": 9633,
      "Continuing": 9634,
      "Commodity": 9635,
      "producers": 9636,
      "TABLE": 9637,
      "Ant": 9638,
      "criminal": 9639,
      "settle": 9640,
      "advisor": 9641,
      "GLANCE": 9642,
      "Finally": 9643,
      "places": 9644,
      "vice": 9645,
      "Fail": 9646,
      "porters": 9647,
      "successor": 9648,
      "Syn": 9649,
      "Mining": 9650,
      "reconcile": 9651,
      "views": 9652,
      "avoid": 9653,
      "overhead": 9654,
      "discern": 9655,
      "Documents": 9656,
      "talent": 9657,
      "Johnson": 9658,
      "Bob": 9659,
      "Derivatives": 9660,
      "Minimum": 9661,
      "fur": 9662,
      "telecom": 9663,
      "Square": 9664,
      "Materials": 9665,
      "makers": 9666,
      "showing": 9667,
      "Sa": 9668,
      "narrow": 9669,
      "sanct": 9670,
      "Including": 9671,
      "PROPER": 9672,
      "Charles": 9673,
      "LOND": 9674,
      "bourse": 9675,
      "disrupt": 9676,
      "LONDON": 9677,
      "istry": 9678,
      "Partnerships": 9679,
      "transfers": 9680,
      "votes": 9681,
      "rservices": 9682,
      "roup": 9683,
      "imes": 9684,
      "internally": 9685,
      "zz": 9686,
      "andon": 9687,
      "intercompany": 9688,
      "absor": 9689,
      "Discount": 9690,
      "curve": 9691,
      "middle": 9692,
      "omine": 9693,
      "unauthorized": 9694,
      "MEDI": 9695,
      "lap": 9696,
      "exposures": 9697,
      "antic": 9698,
      "transl": 9699,
      "instead": 9700,
      "municipal": 9701,
      "error": 9702,
      "legacy": 9703,
      "binding": 9704,
      "BBBB": 9705,
      "catast": 9706,
      "stations": 9707,
      "Ethics": 9708,
      "Columbia": 9709,
      "Barcl": 9710,
      "hear": 9711,
[...]
