{
  "version": "1.0",
  "truncation": null,
  "padding": null,
  "added_tokens": [
    {
      "id": 0,
      "content": "[seq]",
      "single_word": false,
      "lstrip": false,
      "rstrip": false,
      "normalized": false,
      "special": true
    },
    {
      "id": 1,
      "content": "[pad]",
      "single_word": false,
      "lstrip": false,
      "rstrip": false,
      "normalized": false,
      "special": true
    },
    {
      "id": 2,
      "content": "[mask]",
      "single_word": false,
      "lstrip": false,
      "rstrip": false,
      "normalized": false,
      "special": true
    },
    {
      "id": 3,
      "content": "[unk]",
      "single_word": false,
      "lstrip": false,
      "rstrip": false,
      "normalized": false,
      "special": true
    }
  ],
  "normalizer": {
    "type": "Sequence",
    "normalizers": [
      {
        "type": "NFC"
      },
      {
        "type": "Strip",
        "strip_left": true,
        "strip_right": true
      }
    ]
  },
  "pre_tokenizer": {
    "type": "Sequence",
    "pretokenizers": [
      {
        "type": "ByteLevel",
        "add_prefix_space": true,
        "trim_offsets": true,
        "use_regex": true
      },
      {
        "type": "Digits",
        "individual_digits": true
      }
    ]
  },
  "post_processor": {
    "type": "TemplateProcessing",
    "single": [
      {
        "SpecialToken": {
          "id": "[seq]",
          "type_id": 0
        }
      },
      {
        "Sequence": {
          "id": "A",
          "type_id": 0
        }
      }
    ],
    "pair": [
      {
        "Sequence": {
          "id": "A",
          "type_id": 0
        }
      },
      {
        "Sequence": {
          "id": "B",
          "type_id": 1
        }
      }
    ],
    "special_tokens": {
      "[seq]": {
        "id": "[seq]",
        "ids": [
          0
        ],
        "tokens": [
          "[seq]"
        ]
      }
    }
  },
  "decoder": null,
  "model": {
    "type": "BPE",
    "dropout": null,
    "unk_token": "[unk]",
    "continuing_subword_prefix": null,
    "end_of_word_suffix": null,
    "fuse_unk": false,
    "byte_fallback": false,
    "ignore_merges": false,
    "vocab": {
      "[seq]": 0,
      "[pad]": 1,
      "[mask]": 2,
      "[unk]": 3,
      "!": 4,
      "\"": 5,
      "#": 6,
      "$": 7,
      "%": 8,
      "&": 9,
      "'": 10,
      "(": 11,
      ")": 12,
      "*": 13,
      "+": 14,
      ",": 15,
      "-": 16,
      ".": 17,
      "/": 18,
      "0": 19,
      "1": 20,
      "2": 21,
      "3": 22,
      "4": 23,
      "5": 24,
      "6": 25,
      "7": 26,
      "8": 27,
      "9": 28,
      ":": 29,
      ";": 30,
      "<": 31,
      "=": 32,
      ">": 33,
      "?": 34,
      "@": 35,
      "A": 36,
      "B": 37,
      "C": 38,
      "D": 39,
      "E": 40,
      "F": 41,
      "G": 42,
      "H": 43,
      "I": 44,
      "J": 45,
      "K": 46,
      "L": 47,
      "M": 48,
      "N": 49,
      "O": 50,
      "P": 51,
      "Q": 52,
      "R": 53,
      "S": 54,
      "T": 55,
      "U": 56,
      "V": 57,
      "W": 58,
      "X": 59,
      "Y": 60,
      "Z": 61,
      "[": 62,
      "\\": 63,
      "]": 64,
      "^": 65,
      "_": 66,
      "`": 67,
      "a": 68,
      "b": 69,
      "c": 70,
      "d": 71,
      "e": 72,
      "f": 73,
      "g": 74,
      "h": 75,
      "i": 76,
      "j": 77,
      "k": 78,
      "l": 79,
      "m": 80,
      "n": 81,
      "o": 82,
      "p": 83,
      "q": 84,
      "r": 85,
      "s": 86,
      "t": 87,
      "u": 88,
      "v": 89,
      "w": 90,
      "x": 91,
      "y": 92,
      "z": 93,
      "{": 94,
      "|": 95,
      "}": 96,
      "~": 97,
      "¡": 98,
      "¢": 99,
      "£": 100,
      "¤": 101,
      "¥": 102,
      "¦": 103,
      "§": 104,
      "¨": 105,
      "©": 106,
      "ª": 107,
      "«": 108,
      "¬": 109,
      "®": 110,
      "¯": 111,
      "°": 112,
      "±": 113,
      "²": 114,
      "³": 115,
      "´": 116,
      "µ": 117,
      "¶": 118,
      "·": 119,
      "¸": 120,
      "¹": 121,
      "º": 122,
      "»": 123,
      "¼": 124,
      "½": 125,
      "¾": 126,
      "¿": 127,
      "Â": 128,
      "Ã": 129,
      "Ä": 130,
      "Å": 131,
      "Æ": 132,
      "Ç": 133,
      "È": 134,
      "É": 135,
      "Ê": 136,
      "Ë": 137,
      "Ì": 138,
      "Í": 139,
      "Î": 140,
      "Ï": 141,
      "Ð": 142,
      "Ñ": 143,
      "Ò": 144,
      "Ó": 145,
      "Ô": 146,
      "Õ": 147,
      "Ö": 148,
      "×": 149,
      "Ø": 150,
      "Ù": 151,
      "Ú": 152,
      "Û": 153,
      "Ü": 154,
      "Ý": 155,
      "ß": 156,
      "à": 157,
      "á": 158,
      "â": 159,
      "ã": 160,
      "ä": 161,
      "å": 162,
      "æ": 163,
      "ç": 164,
      "è": 165,
      "é": 166,
      "ê": 167,
      "ë": 168,
      "ì": 169,
      "í": 170,
      "î": 171,
      "ï": 172,
      "ð": 173,
      "Ā": 174,
      "ā": 175,
      "Ă": 176,
      "ă": 177,
      "Ą": 178,
      "ą": 179,
      "Ć": 180,
      "ć": 181,
      "Ĉ": 182,
      "ĉ": 183,
      "Ċ": 184,
      "č": 185,
      "Ď": 186,
      "ď": 187,
      "Đ": 188,
      "đ": 189,
      "Ē": 190,
      "ē": 191,
      "Ĕ": 192,
      "ĕ": 193,
      "Ė": 194,
      "ė": 195,
      "Ę": 196,
      "ę": 197,
      "Ě": 198,
      "ě": 199,
      "Ġ": 200,
      "ġ": 201,
      "Ģ": 202,
      "ģ": 203,
      "Ĥ": 204,
      "ĥ": 205,
      "Ħ": 206,
      "ħ": 207,
      "Ĩ": 208,
      "ĩ": 209,
      "Ī": 210,
      "ī": 211,
      "Ĭ": 212,
      "ĭ": 213,
      "Į": 214,
      "į": 215,
      "İ": 216,
      "ı": 217,
      "Ĳ": 218,
      "ĳ": 219,
      "Ĵ": 220,
      "ĵ": 221,
      "Ķ": 222,
      "ķ": 223,
      "ĸ": 224,
      "Ĺ": 225,
      "ĺ": 226,
      "Ļ": 227,
      "ļ": 228,
      "Ľ": 229,
      "ľ": 230,
      "Ŀ": 231,
      "ŀ": 232,
      "Ł": 233,
      "ł": 234,
      "Ń": 235,
      "Ġt": 236,
      "in": 237,
      "Ġa": 238,
      "er": 239,
      "Ġo": 240,
      "re": 241,
      "Ġth": 242,
      "on": 243,
      "at": 244,
      "en": 245,
      "es": 246,
      "Ġthe": 247,
      "an": 248,
      "ed": 249,
      "it": 250,
      "Ġc": 251,
      "or": 252,
      "Ġs": 253,
      "al": 254,
      "Ġin": 255,
      "Ġof": 256,
      "ion": 257,
      "nd": 258,
      "Ġp": 259,
      "Ġf": 260,
      "ar": 261,
      "ing": 262,
      "Ġw": 263,
      "Ġand": 264,
      "ent": 265,
      "om": 266,
      "is": 267,
      "Ġb": 268,
      "Ġto": 269,
      "Ġre": 270,
      "ur": 271,
      "Ġm": 272,
      "ct": 273,
      "Ġd": 274,
      "ic": 275,
      "as": 276,
      "ĠĠ": 277,
      "il": 278,
      "ro": 279,
      "ĠC": 280,
      "Ġe": 281,
      "et": 282,
      "ment": 283,
      "ĠM": 284,
      "ĠA": 285,
      "ĠS": 286,
      "le": 287,
      "us": 288,
      "ation": 289,
      "ve": 290,
      "ĠT": 291,
      "lo": 292,
      "--": 293,
      "ce": 294,
      "Ġ(": 295,
      "Ġn": 296,
      "ut": 297,
      "Ġh": 298,
      "ĠI": 299,
      "ly": 300,
      "Ġ$": 301,
      "ate": 302,
      "id": 303,
      "Ġas": 304,
      "Ġfor": 305,
      "omp": 306,
      "ul": 307,
      "ch": 308,
      "th": 309,
      "qu": 310,
      "im": 311,
      "ter": 312,
      "ol": 313,
      "Ġon": 314,
      "un": 315,
      "st": 316,
      "..": 317,
      "Ġcon": 318,
      "Ġbe": 319,
      "est": 320,
      "Ġpro": 321,
      "Ġg": 322,
      "ĠP": 323,
      "ĠF": 324,
      "ers": 325,
      "Ġex": 326,
      "Ġor": 327,
      "Ġour": 328,
      "ies": 329,
      "ĠD": 330,
      "ill": 331,
      "Ġst": 332,
      "Ġl": 333,
      "ĠE": 334,
      "ĠTh": 335,
      "ot": 336,
      "ay": 337,
      "ig": 338,
      "ect": 339,
      "ab": 340,
      "Ġwe": 341,
      "Ġis": 342,
      "ec": 343,
      "ĠR": 344,
      "ĠĠĠĠ": 345,
      "ial": 346,
      "Ġthat": 347,
      "Ġinc": 348,
      "ge": 349,
      "Ġan": 350,
      "ĠO": 351,
      "ith": 352,
      "ĠN": 353,
      "ated": 354,
      "ver": 355,
      "res": 356,
      "ort": 357,
      "Ġwith": 358,
      "ive": 359,
      "Ġy": 360,
      "ir": 361,
      "ant": 362,
      "ompan": 363,
      "ity": 364,
      "ĠB": 365,
      "ess": 366,
      "if": 367,
      "ain": 368,
      "per": 369,
      "el": 370,
      "Ġsu": 371,
      "ments": 372,
      "ber": 373,
      "ĠIn": 374,
      "Ġwh": 375,
      "Ġare": 376,
      "ĠThe": 377,
      "ompany": 378,
      "Ġby": 379,
      "end": 380,
      "red": 381,
      "----": 382,
      "iv": 383,
      "tr": 384,
      "Ġr": 385,
      "em": 386,
      "Ġper": 387,
      "Ġsh": 388,
      "ĠW": 389,
      "ear": 390,
      "Ġco": 391,
      "ue": 392,
      "Ġit": 393,
      "pp": 394,
      "ad": 395,
      "ud": 396,
      "ck": 397,
      "anc": 398,
      "Ġde": 399,
      "Ġv": 400,
      "act": 401,
      "rom": 402,
      "ions": 403,
      "Ġres": 404,
      "ĠL": 405,
      "Ġat": 406,
      "ance": 407,
      "able": 408,
      "Ġlo": 409,
      "ations": 410,
      "und": 411,
      "os": 412,
      "ther": 413,
      "Ġexp": 414,
      "ities": 415,
      "ere": 416,
      "illion": 417,
      "ens": 418,
      "Ġfrom": 419,
      "ĠCompany": 420,
      "um": 421,
      "omm": 422,
      "Ġac": 423,
      "'s": 424,
      "ff": 425,
      "....": 426,
      "Ġad": 427,
      "od": 428,
      "ust": 429,
      "Ġal": 430,
      "ome": 431,
      "ts": 432,
      "pt": 433,
      "and": 434,
      "ase": 435,
      "Ġpr": 436,
      "oun": 437,
      "Ġnot": 438,
      "orm": 439,
      "ib": 440,
      "ĠG": 441,
      "uct": 442,
      "Ġcomp": 443,
      "inanc": 444,
      "age": 445,
      "Ġmillion": 446,
      "Ġass": 447,
      "ark": 448,
      "__": 449,
      "ip": 450,
      "ard": 451,
      "am": 452,
      "iz": 453,
      "ition": 454,
      "ĠDe": 455,
      "ock": 456,
      "ap": 457,
      "Ġqu": 458,
      "Ġyear": 459,
      "Ġha": 460,
      "art": 461,
      "lud": 462,
      "inancial": 463,
      "ure": 464,
      "ich": 465,
      "are": 466,
      "ĠU": 467,
      "igh": 468,
      "ow": 469,
      "fer": 470,
      "ore": 471,
      "ans": 472,
      "ew": 473,
      "port": 474,
      "low": 475,
      "ĠJ": 476,
      "Ġus": 477,
      "ire": 478,
      "Ġhave": 479,
      "Ġother": 480,
      "Ġtr": 481,
      "Ġoper": 482,
      "ss": 483,
      "ou": 484,
      "ĠSt": 485,
      "arket": 486,
      "Ġwhich": 487,
      "tain": 488,
      "ĠH": 489,
      "Ġch": 490,
      "Ġapp": 491,
      "up": 492,
      "ĠEx": 493,
      "ary": 494,
      "uld": 495,
      "ĠRe": 496,
      "ree": 497,
      "mber": 498,
      "duct": 499,
      "Ġ-": 500,
      "arter": 501,
      "Ġwas": 502,
      "form": 503,
      "Ġwill": 504,
      "Ġcomm": 505,
      "Ġ)": 506,
      "Ġund": 507,
      "Ġinclud": 508,
      "ors": 509,
      "ased": 510,
      "ating": 511,
      "Ġim": 512,
      "Ġinter": 513,
      "su": 514,
      "ĠWe": 515,
      "Ġthis": 516,
      "Ġits": 517,
      "Ġany": 518,
      "Ġdis": 519,
      "Ġun": 520,
      "old": 521,
      "ax": 522,
      "vest": 523,
      "ange": 524,
      "Ġacc": 525,
      "Ġam": 526,
      "Ġmay": 527,
      "Ġmarket": 528,
      "ign": 529,
      "Ġunder": 530,
      "Ġstock": 531,
      "ash": 532,
      "cember": 533,
      "ĠDecember": 534,
      "ount": 535,
      "ates": 536,
      "iness": 537,
      "Ġ\"": 538,
      "erm": 539,
      "ice": 540,
      "ility": 541,
      "usiness": 542,
      "ee": 543,
      "ven": 544,
      "erv": 545,
      "Ġcont": 546,
      "Ġle": 547,
      "Ġresul": 548,
      "Ġ--": 549,
      "Ġfinancial": 550,
      "--------": 551,
      "Ġrec": 552,
      "Ġreg": 553,
      "Ġcons": 554,
      "Ġab": 555,
      "Ġag": 556,
      "ecur": 557,
      "ank": 558,
      "Ġsub": 559,
      "ets": 560,
      "Ġimp": 561,
      "ren": 562,
      "Ġquarter": 563,
      "all": 564,
      "==": 565,
      "ak": 566,
      "ings": 567,
      "ual": 568,
      "Ġbusiness": 569,
      "li": 570,
      "Ġint": 571,
      "Ġind": 572,
      "our": 573,
      "Ġprov": 574,
      "Ġval": 575,
      "Ġstate": 576,
      "Ġli": 577,
      "Ġyou": 578,
      "ll": 579,
      "Ġproduct": 580,
      "ef": 581,
      "ac": 582,
      "ĠInc": 583,
      "Ġincome": 584,
      "ffect": 585,
      "ended": 586,
      "Ġman": 587,
      "ical": 588,
      "ese": 589,
      "Ġpl": 590,
      "Ġcost": 591,
      "Ġnet": 592,
      "Ġ<": 593,
      "Ġpart": 594,
      "io": 595,
      "Ġincre": 596,
      "Ġpur": 597,
      "ĠCon": 598,
      "Ġtax": 599,
      "row": 600,
      "urren": 601,
      "Ġhas": 602,
      "ices": 603,
      "Ġinvest": 604,
      "ail": 605,
      "orp": 606,
      "Ġrel": 607,
      "eral": 608,
      "ents": 609,
      "ecurities": 610,
      "ific": 611,
      "ong": 612,
      "dition": 613,
      "ug": 614,
      "Ġreport": 615,
      "ĠCh": 616,
      "Ġsuch": 617,
      "ist": 618,
      "Ġrequ": 619,
      "ares": 620,
      "ord": 621,
      "air": 622,
      "........": 623,
      "Ġgo": 624,
      "ine": 625,
      "Ġexpens": 626,
      "Ġup": 627,
      "TE": 628,
      "ence": 629,
      "Ġsal": 630,
      "Ġshare": 631,
      "out": 632,
      "Ġinterest": 633,
      "Ġappro": 634,
      "Ġ%": 635,
      "ri": 636,
      "ital": 637,
      "istr": 638,
      "Ġpre": 639,
      "Ġcash": 640,
      "Ġact": 641,
      "ang": 642,
      "ok": 643,
      "cc": 644,
      "just": 645,
      "Ġassets": 646,
      "ertain": 647,
      "Ġme": 648,
      "its": 649,
      "lect": 650,
      "ex": 651,
      "ast": 652,
      "bl": 653,
      "ized": 654,
      "orpor": 655,
      "aid": 656,
      "Ġwere": 657,
      "Ġover": 658,
      "Ġequ": 659,
      "irect": 660,
      "Ġout": 661,
      "ater": 662,
      "ember": 663,
      "iod": 664,
      "Ġvalue": 665,
      "ĠAct": 666,
      "Ġserv": 667,
      "uring": 668,
      "ould": 669,
      "cent": 670,
      "ject": 671,
      "eg": 672,
      "arg": 673,
      "Ġprovid": 674,
      "ond": 675,
      "Ġ*": 676,
      "ight": 677,
      "ON": 678,
      "ag": 679,
      "ach": 680,
      "ĠV": 681,
      "Ġshares": 682,
      "pect": 683,
      "apital": 684,
      "____": 685,
      "Ġnew": 686,
      "ward": 687,
      "Ġsp": 688,
      "Ġall": 689,
      "Ġperiod": 690,
      "Ġpay": 691,
      "ative": 692,
      "Ġest": 693,
      "Ġreven": 694,
      "ĠĠĠĠĠĠĠĠ": 695,
      "IT": 696,
      "op": 697,
      "Ġstatements": 698,
      "change": 699,
      "Ġtim": 700,
      "so": 701,
      "Ġexpect": 702,
      "urrent": 703,
      "reement": 704,
      "ĠY": 705,
      "Ġterm": 706,
      "Ġpercent": 707,
      "ru": 708,
      "Ġthese": 709,
      "Ġdo": 710,
      "Ġen": 711,
      "Ġear": 712,
      "Ġoperations": 713,
      "ited": 714,
      "Ġtrans": 715,
      "ES": 716,
      "Ġif": 717,
      "Ġincluding": 718,
      "Ġdisc": 719,
      "Ġloss": 720,
      "gy": 721,
      "Ġcould": 722,
      "olid": 723,
      "Ġmore": 724,
      "Ġfil": 725,
      "ilities": 726,
      "ory": 727,
      "OR": 728,
      "Ġcontin": 729,
      "Ġresults": 730,
      "ustom": 731,
      "Ġalso": 732,
      "Ġoff": 733,
      "Ġthere": 734,
      "ell": 735,
      "ĠK": 736,
      "agement": 737,
      "Ġdec": 738,
      "ty": 739,
      "pos": 740,
      "Ġaddition": 741,
      "Ġended": 742,
      "AN": 743,
      "ress": 744,
      "Ġgrow": 745,
      "ibut": 746,
      "Ġeffect": 747,
      "ia": 748,
      "se": 749,
      "Ġcl": 750,
      "bt": 751,
      "mp": 752,
      "ures": 753,
      "Ġcommon": 754,
      "Ġgen": 755,
      "aw": 756,
      "ior": 757,
      "hold": 758,
      "velo": 759,
      "isk": 760,
      "isc": 761,
      "ugh": 762,
      "ĠComm": 763,
      "ollow": 764,
      "ost": 765,
      "formation": 766,
      "velop": 767,
      "oc": 768,
      "Ġcustom": 769,
      "Ġacqu": 770,
      "Ġcosts": 771,
      "Ġoperating": 772,
      "ection": 773,
      "oin": 774,
      "IN": 775,
      "Ġstr": 776,
      "ĠPro": 777,
      "ired": 778,
      "Ġsales": 779,
      "redit": 780,
      "ption": 781,
      "Ġrelated": 782,
      "loy": 783,
      "Ġfut": 784,
      "ĠAg": 785,
      "Ġfollow": 786,
      "ecut": 787,
      "imate": 788,
      "ise": 789,
      "onth": 790,
      "itt": 791,
      "Ġcompany": 792,
      "Ġtime": 793,
      "rough": 794,
      "ĠAs": 795,
      "Ġev": 796,
      "EN": 797,
      "Ġhigh": 798,
      "Ġissu": 799,
      "Ġnon": 800,
      "Ġthan": 801,
      "Ġrep": 802,
      "tribut": 803,
      "Ġbeen": 804,
      "ke": 805,
      "))": 806,
      "aterial": 807,
      "Ġ[": 808,
      "inc": 809,
      "Ġsign": 810,
      "tract": 811,
      "âĢ": 812,
      "Ġwould": 813,
      "Ġfir": 814,
      "ĠSecurities": 815,
      "Ġresult": 816,
      "ack": 817,
      "ork": 818,
      "ĠNo": 819,
      "ident": 820,
      "Ġcapital": 821,
      "Ġliab": 822,
      "Ġrate": 823,
      "ues": 824,
      "Ġent": 825,
      "Ġcertain": 826,
      "Ġse": 827,
      "EC": 828,
      "``": 829,
      "suant": 830,
      "ult": 831,
      "Ġte": 832,
      "olidated": 833,
      "Ġfuture": 834,
      "ose": 835,
      "ĠAnd": 836,
      "ĠIt": 837,
      "ĠAd": 838,
      "enef": 839,
      "ĠExchange": 840,
      "DA": 841,
      "enc": 842,
      "otal": 843,
      "Ġmaterial": 844,
      "Ġcurrent": 845,
      "own": 846,
      "ĠUn": 847,
      "Ġinto": 848,
      "Ġyears": 849,
      "ffic": 850,
      "Ġdevelop": 851,
      "ER": 852,
      "Ġcan": 853,
      "ferred": 854,
      "ĠQ": 855,
      "aus": 856,
      "ible": 857,
      "mploy": 858,
      "Ġtheir": 859,
      "ied": 860,
      "ounts": 861,
      "ĠFinancial": 862,
      "ĠOur": 863,
      "verage": 864,
      "erc": 865,
      "Ġrespect": 866,
      "ĠTotal": 867,
      "very": 868,
      "ĠAm": 869,
      "ous": 870,
      "Ġgrowth": 871,
      "Ġinformation": 872,
      "AR": 873,
      "ĠNet": 874,
      "Ġrisk": 875,
      "Ġthrough": 876,
      "ees": 877,
      "ĠNot": 878,
      "UR": 879,
      "og": 880,
      "iss": 881,
      "itions": 882,
      "con": 883,
      "fter": 884,
      "Ġbo": 885,
      "Ġproducts": 886,
      "vers": 887,
      "Ġperform": 888,
      "eth": 889,
      "Ġsaid": 890,
      "ined": 891,
      "),": 892,
      "Ġabout": 893,
      "ĠSh": 894,
      "ass": 895,
      "ade": 896,
      "Ġdue": 897,
      "ĠForm": 898,
      "umber": 899,
      "ile": 900,
      "Ġso": 901,
      "====": 902,
      "AP": 903,
      "rant": 904,
      "Ġrevenue": 905,
      "Ġbut": 906,
      "Ġone": 907,
      "Ġrece": 908,
      "Ġdirect": 909,
      "ame": 910,
      "AS": 911,
      "resent": 912,
      ",\"": 913,
      "Ġregul": 914,
      "ake": 915,
      "ious": 916,
      "hip": 917,
      "hib": 918,
      "Ġbas": 919,
      "ink": 920,
      "ization": 921,
      "uters": 922,
      "ared": 923,
      "urn": 924,
      "Ġincrease": 925,
      "Ġann": 926,
      "oll": 927,
      "Ġprice": 928,
      "one": 929,
      ").": 930,
      "ĠFor": 931,
      "ĠStock": 932,
      "Ġdet": 933,
      "istrant": 934,
      "ificant": 935,
      "Ġno": 936,
      "ĠSe": 937,
      "Ġaccount": 938,
      "ecutive": 939,
      "Ġexpenses": 940,
      "Ġexpense": 941,
      "Ġbased": 942,
      "Ġmanagement": 943,
      "ptions": 944,
      "Ġpos": 945,
      "nings": 946,
      "TS": 947,
      "ish": 948,
      "ace": 949,
      "Ġreal": 950,
      "ners": 951,
      "sid": 952,
      "Ġrem": 953,
      "Ġfair": 954,
      "ified": 955,
      "ĠAgreement": 956,
      "vel": 957,
      "**": 958,
      "ĠAn": 959,
      "tal": 960,
      "âĢĻ": 961,
      "Ġimpact": 962,
      "com": 963,
      "AL": 964,
      "los": 965,
      "TI": 966,
      "ĠMar": 967,
      "ases": 968,
      "Ġsupp": 969,
      "imately": 970,
      "ĠState": 971,
      "Ġcom": 972,
      "Ġwell": 973,
      "ĠInter": 974,
      "rol": 975,
      "----------------": 976,
      "Ġfirst": 977,
      "Ġrequire": 978,
      "ND": 979,
      "ite": 980,
      "holders": 981,
      "ily": 982,
      "stand": 983,
      "Ġdef": 984,
      "no": 985,
      "Ġbenef": 986,
      "Ġj": 987,
      "ference": 988,
      "ustr": 989,
      "Ġafter": 990,
      "Ġret": 991,
      "iscal": 992,
      "Ġservices": 993,
      "Member": 994,
      "Ġfollowing": 995,
      "Ġsome": 996,
      "blig": 997,
      "day": 998,
      "Ġdebt": 999,
      "Ġapprox": 1000,
      "Ġmonth": 1001,
      "yst": 1002,
      "Ġchang": 1003,
      "Ġsignificant": 1004,
      "Ġduring": 1005,
      "ĠAcc": 1006,
      "Ġcontract": 1007,
      "ix": 1008,
      "lic": 1009,
      "ĠTr": 1010,
      "ĠOn": 1011,
      "Ġk": 1012,
      "Ġamount": 1013,
      "HH": 1014,
      "av": 1015,
      "ced": 1016,
      "ĠSo": 1017,
      "Ġsubject": 1018,
      "Ġgeneral": 1019,
      "ensation": 1020,
      "Ġsee": 1021,
      "Ġhe": 1022,
      "ĠInd": 1023,
      "Ġcredit": 1024,
      "Ġ.": 1025,
      "eld": 1026,
      "chase": 1027,
      "ivid": 1028,
      "vail": 1029,
      "ĠBank": 1030,
      "Ġgu": 1031,
      "Ġthose": 1032,
      "Ġproper": 1033,
      "ational": 1034,
      "ner": 1035,
      "Ġdif": 1036,
      "Ġeach": 1037,
      "ĠSu": 1038,
      "incip": 1039,
      "ively": 1040,
      "Ġpursuant": 1041,
      "Ġapproximately": 1042,
      "ause": 1043,
      "Ġsec": 1044,
      "Ġhad": 1045,
      "Ġtotal": 1046,
      "ata": 1047,
      "ning": 1048,
      "Ġthink": 1049,
      "Ġdes": 1050,
      "ĠOther": 1051,
      "Ġactiv": 1052,
      "Ġbasis": 1053,
      "oking": 1054,
      "une": 1055,
      "ird": 1056,
      "Ġow": 1057,
      "Ġlow": 1058,
      "standing": 1059,
      "Ġoblig": 1060,
      "ĠPl": 1061,
      "Ġsecurities": 1062,
      "Ġdate": 1063,
      "du": 1064,
      "Ġliabilities": 1065,
      "les": 1066,
      "Ġdr": 1067,
      "Ġport": 1068,
      "Ġrest": 1069,
      "Ġemploy": 1070,
      "ĠReport": 1071,
      "Ġestim": 1072,
      "ubl": 1073,
      "icip": 1074,
      "Ġacquis": 1075,
      "pr": 1076,
      "Ġequity": 1077,
      "Ġforward": 1078,
      "Ġfiscal": 1079,
      "Ġavail": 1080,
      "Ġprim": 1081,
      "ĠMarch": 1082,
      "ĠExhib": 1083,
      "Ġperformance": 1084,
      "gr": 1085,
      "ind": 1086,
      "Ġspec": 1087,
      "Ġrecord": 1088,
      "cess": 1089,
      "Ġadditional": 1090,
      "Ġbet": 1091,
      "ule": 1092,
      "urance": 1093,
      "Ġfund": 1094,
      "ĠJune": 1095,
      "Ġnumber": 1096,
      "Ġcustomers": 1097,
      "Ġfact": 1098,
      "ĠReg": 1099,
      "Ġ,": 1100,
      "Ġearnings": 1101,
      "lease": 1102,
      "ogn": 1103,
      "ties": 1104,
      "ross": 1105,
      "AAP": 1106,
      "TA": 1107,
      "Ġtransact": 1108,
      "Ġadjust": 1109,
      "Ġinvestment": 1110,
      "Ġrates": 1111,
      "oint": 1112,
      "Ġlim": 1113,
      "Ġbank": 1114,
      "Ġfore": 1115,
      "BB": 1116,
      "Ġref": 1117,
      "orporation": 1118,
      "Ġmeas": 1119,
      "Ġ&": 1120,
      "uly": 1121,
      "ĠOper": 1122,
      "Ġcontrol": 1123,
      "eve": 1124,
      "ination": 1125,
      "Ġloans": 1126,
      "ons": 1127,
      "DD": 1128,
      "Ġprof": 1129,
      "ĠBo": 1130,
      "________": 1131,
      "Ġbeli": 1132,
      "ĠItem": 1133,
      "ceed": 1134,
      "alance": 1135,
      "Ġinst": 1136,
      "Ġrequired": 1137,
      "................": 1138,
      "ĠThis": 1139,
      "ĠSept": 1140,
      "Ġthey": 1141,
      "Ġhere": 1142,
      "Ġflow": 1143,
      "Ġob": 1144,
      "Ġissued": 1145,
      "Ġfac": 1146,
      "Ġterms": 1147,
      "arily": 1148,
      "Ġreceiv": 1149,
      "Ġincreased": 1150,
      "ĠĠĠ": 1151,
      "ide": 1152,
      "Ġaut": 1153,
      "Ġcompared": 1154,
      "lement": 1155,
      "OM": 1156,
      "Ġchanges": 1157,
      "nolo": 1158,
      "Ġend": 1159,
      "Ġlong": 1160,
      "chnolo": 1161,
      "pend": 1162,
      "Ġthird": 1163,
      "let": 1164,
      "%%": 1165,
      "ĠOffic": 1166,
      "(\"": 1167,
      "Ġapplic": 1168,
      "ĠCont": 1169,
      "ublic": 1170,
      "Ġbec": 1171,
      "over": 1172,
      "we": 1173,
      "ĠRes": 1174,
      "ision": 1175,
      "Ġplan": 1176,
      "Ġcontinue": 1177,
      "Ġprior": 1178,
      "Ġexpected": 1179,
      "Ġdel": 1180,
      "Ġgain": 1181,
      "OL": 1182,
      "ability": 1183,
      "ential": 1184,
      "ered": 1185,
      "iation": 1186,
      "Ġprincip": 1187,
      "conom": 1188,
      "Ġdevelopment": 1189,
      "Ġavailable": 1190,
      "Ġtw": 1191,
      "IC": 1192,
      "sidi": 1193,
      "ued": 1194,
      "Ġwhen": 1195,
      "ĠSeptember": 1196,
      "Ġmain": 1197,
      "verse": 1198,
      "the": 1199,
      "Ġbillion": 1200,
      "Ġconsolidated": 1201,
      ".,": 1202,
      "ĠIN": 1203,
      "Ġlast": 1204,
      "Ġdeterm": 1205,
      "erg": 1206,
      "Ġoutstanding": 1207,
      "ved": 1208,
      "Ġset": 1209,
      "Ġrev": 1210,
      "ays": 1211,
      "IS": 1212,
      "ystem": 1213,
      "Ġext": 1214,
      "cept": 1215,
      "olic": 1216,
      "Ġaffect": 1217,
      "Ġrecogn": 1218,
      "ĠJan": 1219,
      "ives": 1220,
      "Ġjust": 1221,
      "ry": 1222,
      "ĠPart": 1223,
      "ruct": 1224,
      "ĠCons": 1225,
      "roup": 1226,
      "Ġtrad": 1227,
      "ID": 1228,
      "Ġability": 1229,
      "Ġwhat": 1230,
      "ĠNew": 1231,
      "Ġlevel": 1232,
      "ief": 1233,
      "gram": 1234,
      "ĠDirect": 1235,
      "Ġdata": 1236,
      "Ġfiled": 1237,
      "ission": 1238,
      "ian": 1239,
      "Ġaccounting": 1240,
      "ands": 1241,
      "eed": 1242,
      "ĠPur": 1243,
      "ĠSection": 1244,
      "ances": 1245,
      "ason": 1246,
      "'re": 1247,
      "Ġcompet": 1248,
      "ĠMan": 1249,
      "ercial": 1250,
      "TO": 1251,
      "Ġmat": 1252,
      "Ġful": 1253,
      "argin": 1254,
      "iew": 1255,
      "Ġlaw": 1256,
      "hor": 1257,
      "Ġinclude": 1258,
      "nal": 1259,
      "Ġvar": 1260,
      "Ġcompensation": 1261,
      "Ġlike": 1262,
      "Ġlosses": 1263,
      "Ġeconom": 1264,
      "Ġloan": 1265,
      "Ġform": 1266,
      "term": 1267,
      "vent": 1268,
      "Ġgood": 1269,
      "Ġindustr": 1270,
      "Ġoffer": 1271,
      "ĠSEC": 1272,
      "Ġprimarily": 1273,
      "Ġincluded": 1274,
      "Ġsecond": 1275,
      "ĠPre": 1276,
      "nership": 1277,
      "Ġmarkets": 1278,
      "Ġquest": 1279,
      "Ġupon": 1280,
      "fore": 1281,
      "Ġreporting": 1282,
      "ompanies": 1283,
      "Ġconsid": 1284,
      "gan": 1285,
      "LC": 1286,
      "Ġdistribut": 1287,
      "Ġrequirements": 1288,
      "ĠComp": 1289,
      "ĠAND": 1290,
      "iated": 1291,
      "Ġremain": 1292,
      "Ġpat": 1293,
      "Ġro": 1294,
      "Ġrevenues": 1295,
      "ĠExhibit": 1296,
      "ove": 1297,
      "uary": 1298,
      "Ġbu": 1299,
      "Ġmonths": 1300,
      "ĠAl": 1301,
      "Ġprovide": 1302,
      "Ġdown": 1303,
      "Ġactivities": 1304,
      "Ġagreement": 1305,
      "ric": 1306,
      "Ġuse": 1307,
      "arge": 1308,
      "ving": 1309,
      "Ġwork": 1310,
      "atory": 1311,
      "ĠJanuary": 1312,
      "ĠIncome": 1313,
      "ext": 1314,
      "ope": 1315,
      "Ġdiffer": 1316,
      "ĠOfficer": 1317,
      "Ġused": 1318,
      "Ġvol": 1319,
      "ween": 1320,
      "ĠRE": 1321,
      "uss": 1322,
      "surance": 1323,
      "cy": 1324,
      "ood": 1325,
      "ĠEur": 1326,
      "ĠThese": 1327,
      "looking": 1328,
      "ĠRule": 1329,
      "ollar": 1330,
      "Ġtre": 1331,
      "Ġpresent": 1332,
      "Ġmade": 1333,
      "iven": 1334,
      "ederal": 1335,
      "Ġdecre": 1336,
      "Ġbetween": 1337,
      "Ġfour": 1338,
      "FR": 1339,
      "Ġbelow": 1340,
      "Ġregistrant": 1341,
      "Ġassum": 1342,
      "rec": 1343,
      "ict": 1344,
      "Ġtwo": 1345,
      "fact": 1346,
      "\")": 1347,
      "ys": 1348,
      "Ġcomplet": 1349,
      "ether": 1350,
      "Ġaverage": 1351,
      "ĠBoard": 1352,
      "Ġmargin": 1353,
      "vert": 1354,
      "ants": 1355,
      "Ġhold": 1356,
      "Ġsale": 1357,
      "Ġhigher": 1358,
      "Ġthree": 1359,
      "Ġadverse": 1360,
      "Ġimpro": 1361,
      "ĠIf": 1362,
      "CH": 1363,
      "ights": 1364,
      "CI": 1365,
      "ĠInvest": 1366,
      "ividend": 1367,
      "Ġcar": 1368,
      "Ġagain": 1369,
      "aim": 1370,
      "ned": 1371,
      "vious": 1372,
      "rict": 1373,
      "Ġcall": 1374,
      "Ġreference": 1375,
      "itive": 1376,
      "Ġcompanies": 1377,
      "ize": 1378,
      "ĠMr": 1379,
      "ically": 1380,
      "ditions": 1381,
      "Ġar": 1382,
      "ured": 1383,
      "Ġacquisition": 1384,
      "Ġprogram": 1385,
      "Ġrespectively": 1386,
      "ally": 1387,
      "`@": 1388,
      "ĠAss": 1389,
      "Ġwithin": 1390,
      "Ġsubsidi": 1391,
      "resident": 1392,
      "Ġpers": 1393,
      "ĠChief": 1394,
      "^^": 1395,
      "Ġprovided": 1396,
      "BIT": 1397,
      "ator": 1398,
      "Ġgover": 1399,
      "ĠStatements": 1400,
      "ĠPlan": 1401,
      "Ġchange": 1402,
      "ines": 1403,
      "Ġloc": 1404,
      "eb": 1405,
      "otential": 1406,
      "fol": 1407,
      "Ġannual": 1408,
      "ph": 1409,
      "Ġallow": 1410,
      "Ġreported": 1411,
      "Ġauthor": 1412,
      "Ġsim": 1413,
      "orporated": 1414,
      "Ġ+": 1415,
      "ra": 1416,
      "Ġpurchase": 1417,
      "Ġtechnolo": 1418,
      "clud": 1419,
      "Ġamounts": 1420,
      "Ġvery": 1421,
      "ĠExecutive": 1422,
      "Ġservice": 1423,
      "Ġproject": 1424,
      "ince": 1425,
      "Ġwhere": 1426,
      "rit": 1427,
      "Ġmod": 1428,
      "ful": 1429,
      "Ġproperty": 1430,
      "Ġinvestments": 1431,
      "ED": 1432,
      "line": 1433,
      "Ġdem": 1434,
      "Ġthen": 1435,
      "Ġ<.": 1436,
      "ilut": 1437,
      "Ġfactors": 1438,
      "Ġadd": 1439,
      "ics": 1440,
      "Ġgoing": 1441,
      "Ġstrate": 1442,
      "Ġnow": 1443,
      "Ġseg": 1444,
      "min": 1445,
      "Ġord": 1446,
      "Ġsell": 1447,
      "ĠPr": 1448,
      "alth": 1449,
      "als": 1450,
      "ces": 1451,
      "isions": 1452,
      "TION": 1453,
      "ick": 1454,
      "Ġprices": 1455,
      "Ġaccord": 1456,
      "ii": 1457,
      "Ġreflect": 1458,
      "alu": 1459,
      "aries": 1460,
      "Ġpublic": 1461,
      "Ġshall": 1462,
      "Ġinit": 1463,
      "orrow": 1464,
      "Ġlower": 1465,
      "ĠĠĠĠĠ": 1466,
      "ĠNotes": 1467,
      "Ġtaxes": 1468,
      "andard": 1469,
      "Ġoffic": 1470,
      "TED": 1471,
      "ober": 1472,
      "Ġasset": 1473,
      "Ġ/": 1474,
      "Re": 1475,
      "Ġpotential": 1476,
      "isting": 1477,
      "ont": 1478,
      "alf": 1479,
      "ufact": 1480,
      "Ġeffective": 1481,
      "Ġadv": 1482,
      "enior": 1483,
      "Ġcommun": 1484,
      "Ġsystem": 1485,
      "Ġprocess": 1486,
      "Ġelect": 1487,
      "ification": 1488,
      "ipment": 1489,
      "orporate": 1490,
      "Ġmake": 1491,
      "Ġconditions": 1492,
      "folio": 1493,
      "ĠMay": 1494,
      "ĠCompanys": 1495,
      "reuters": 1496,
      "Ġexper": 1497,
      "Ġgrant": 1498,
      "Ġbelieve": 1499,
      "ĠUnited": 1500,
      "urther": 1501,
      "ga": 1502,
      "US": 1503,
      "eric": 1504,
      "Ġprofit": 1505,
      "Ġrisks": 1506,
      "Ġyour": 1507,
      "ĠCash": 1508,
      "ĠOF": 1509,
      "MEN": 1510,
      "Ġmin": 1511,
      "Ġhow": 1512,
      "Ġpaid": 1513,
      "`\"": 1514,
      "Ġgovern": 1515,
      "he": 1516,
      "arrant": 1517,
      "ially": 1518,
      "Ġcommercial": 1519,
      "man": 1520,
      "AT": 1521,
      "ĠFeb": 1522,
      "Ġqual": 1523,
      "reements": 1524,
      "oug": 1525,
      "gaap": 1526,
      "ĠPresident": 1527,
      "Ġop": 1528,
      "Ġquestion": 1529,
      "Ġrecorded": 1530,
      "Ġ(\"": 1531,
      "Ġredu": 1532,
      "Ġnext": 1533,
      "based": 1534,
      "year": 1535,
      "lob": 1536,
      "Ġassoc": 1537,
      "ret": 1538,
      "Ġless": 1539,
      "Ġdividend": 1540,
      "Ġcustomer": 1541,
      "ĠCl": 1542,
      "Ġstrong": 1543,
      "reg": 1544,
      "ĠEqu": 1545,
      "ĠLo": 1546,
      "ĠNon": 1547,
      "Ġbr": 1548,
      "ĠStates": 1549,
      "ense": 1550,
      "`!": 1551,
      "ld": 1552,
      "Ġbalance": 1553,
      "Ġprincipal": 1554,
      "):": 1555,
      "inancing": 1556,
      "pport": 1557,
      "ĠOct": 1558,
      "Ġgenerally": 1559,
      "Ġamort": 1560,
      "ĠCorporation": 1561,
      "to": 1562,
      "Ġaud": 1563,
      "Ġunc": 1564,
      "Ġmanufact": 1565,
      "Ġcomb": 1566,
      "@`": 1567,
      "Ġback": 1568,
      "ĠEurope": 1569,
      "her": 1570,
      "ĠApr": 1571,
      "IES": 1572,
      "Ġbecause": 1573,
      "GE": 1574,
      "Ġcoun": 1575,
      "Ġboth": 1576,
      "ient": 1577,
      "Ġdirectors": 1578,
      "Ġlease": 1579,
      "ĠApril": 1580,
      "ĠConsolidated": 1581,
      "ft": 1582,
      "Ġant": 1583,
      "Ġnews": 1584,
      "ccess": 1585,
      "eet": 1586,
      "In": 1587,
      "ministr": 1588,
      "ruary": 1589,
      "Ġregard": 1590,
      "ĠAt": 1591,
      "Ġkn": 1592,
      "ional": 1593,
      "ications": 1594,
      "stant": 1595,
      "Ġclos": 1596,
      "ĠEX": 1597,
      "ĠNote": 1598,
      "Ġcontain": 1599,
      "Ġgas": 1600,
      "Ġobligations": 1601,
      "ĠInterest": 1602,
      "Ġgre": 1603,
      "%,": 1604,
      "Ġreason": 1605,
      "Ġactual": 1606,
      "Ġindustry": 1607,
      "Ġinf": 1608,
      "SI": 1609,
      "ĠFebruary": 1610,
      "ĠThank": 1611,
      "ough": 1612,
      "ĠLe": 1613,
      "Ġcap": 1614,
      "cr": 1615,
      "Ġoptions": 1616,
      "Ġonly": 1617,
      "Ġmost": 1618,
      "Ġbenefit": 1619,
      "pri": 1620,
      "ĠJuly": 1621,
      "GAAP": 1622,
      "ĠOperating": 1623,
      "ING": 1624,
      "quid": 1625,
      "Ġindex": 1626,
      "earch": 1627,
      "Ġbefore": 1628,
      "ie": 1629,
      "ĠCapital": 1630,
      "iron": 1631,
      "olut": 1632,
      "Ġportfolio": 1633,
      "urrency": 1634,
      "ower": 1635,
      "Ġshould": 1636,
      "ĠGen": 1637,
      "Ġdeli": 1638,
      "ĠEn": 1639,
      "Ġfees": 1640,
      "Ġconn": 1641,
      "Ġconsum": 1642,
      "Ġrelease": 1643,
      "pportun": 1644,
      "led": 1645,
      "Ġapplicable": 1646,
      "SE": 1647,
      "ĠEBIT": 1648,
      "Ġgener": 1649,
      "itut": 1650,
      "Ġforeign": 1651,
      "Ġsame": 1652,
      "Ġclaim": 1653,
      "ters": 1654,
      "Ġwhether": 1655,
      "oints": 1656,
      "========": 1657,
      "Ġneed": 1658,
      "lobal": 1659,
      "ĠAmeric": 1660,
      "ĠWh": 1661,
      "Ġdated": 1662,
      "pl": 1663,
      "eriv": 1664,
      "Ġpayments": 1665,
      "Ġassociated": 1666,
      "Ġimpair": 1667,
      "ources": 1668,
      "ever": 1669,
      "HE": 1670,
      "Ġmeet": 1671,
      "wards": 1672,
      "iluted": 1673,
      "Ġevalu": 1674,
      "Ġocc": 1675,
      "ob": 1676,
      "Ġfull": 1677,
      "ĠEnd": 1678,
      "Ġproceed": 1679,
      "ild": 1680,
      "inal": 1681,
      "Ġrestrict": 1682,
      "Ġreturn": 1683,
      "Ġexperi": 1684,
      "Ġregulatory": 1685,
      "Ġequipment": 1686,
      "Ġheld": 1687,
      "ify": 1688,
      "ĠAug": 1689,
      "eck": 1690,
      "Ġpolic": 1691,
      "ised": 1692,
      "Ġuncertain": 1693,
      "Ġbeing": 1694,
      "ĠAccount": 1695,
      "Ġfiling": 1696,
      "ĠTO": 1697,
      "Ġsupport": 1698,
      "ĠSTA": 1699,
      "Ġestimated": 1700,
      "Ġeconomic": 1701,
      "Ġren": 1702,
      "gage": 1703,
      "Ġsuccess": 1704,
      "ĠOctober": 1705,
      "aj": 1706,
      "Ġguid": 1707,
      "Ġright": 1708,
      "ield": 1709,
      "Ġexecutive": 1710,
      "Ġthous": 1711,
      "part": 1712,
      "ĠCommon": 1713,
      "ey": 1714,
      "Ġsince": 1715,
      "Ġdemand": 1716,
      "ĠAdjust": 1717,
      "loss": 1718,
      "Ġmaintain": 1719,
      "ĠLLC": 1720,
      "Ġexchange": 1721,
      "Ġwho": 1722,
      "Ġopportun": 1723,
      "Ġdiscuss": 1724,
      "gin": 1725,
      "Ġbro": 1726,
      "mental": 1727,
      "for": 1728,
      "RO": 1729,
      "viron": 1730,
      "arm": 1731,
      "ĠTable": 1732,
      "ĠEBITDA": 1733,
      "Ġrecognized": 1734,
      "viously": 1735,
      "Ġdoes": 1736,
      "val": 1737,
      "Ġplans": 1738,
      "Ġpoints": 1739,
      "Ġnotes": 1740,
      "Ġliability": 1741,
      "pendent": 1742,
      "ĠAll": 1743,
      "IG": 1744,
      "de": 1745,
      "struct": 1746,
      "Ġagainst": 1747,
      "Ġinternal": 1748,
      "ek": 1749,
      "Ġdesign": 1750,
      "yp": 1751,
      "SU": 1752,
      "CE": 1753,
      "ular": 1754,
      "Ġfourth": 1755,
      "ulated": 1756,
      "ert": 1757,
      "ĠYear": 1758,
      "ival": 1759,
      "ium": 1760,
      "Ġagreements": 1761,
      "national": 1762,
      "Ġlead": 1763,
      "Ġincur": 1764,
      "ural": 1765,
      "Ġindic": 1766,
      "Ġemployees": 1767,
      "Ġtransactions": 1768,
      "Ġproduction": 1769,
      "ĠMarket": 1770,
      "ished": 1771,
      "ĠSTATE": 1772,
      "ina": 1773,
      "ale": 1774,
      "Ġdeferred": 1775,
      "Ġflows": 1776,
      "Ġnat": 1777,
      "RE": 1778,
      "ĠCo": 1779,
      "Ġexerc": 1780,
      "=>": 1781,
      "ĠINC": 1782,
      "aking": 1783,
      "Ġdepos": 1784,
      "Ġdollar": 1785,
      "Ġaccordance": 1786,
      "Ġrat": 1787,
      "Ġrights": 1788,
      "Ġabove": 1789,
      "vol": 1790,
      "ocus": 1791,
      "ister": 1792,
      "round": 1793,
      "Ġline": 1794,
      "Ġposition": 1795,
      "ched": 1796,
      "Ġanal": 1797,
      "Ġlimited": 1798,
      "Ġoil": 1799,
      "Ġvolum": 1800,
      "abl": 1801,
      "Ġcontracts": 1802,
      "ound": 1803,
      "ĠDirectors": 1804,
      "ising": 1805,
      "Ġpurpos": 1806,
      "ĠDate": 1807,
      "Ġstandard": 1808,
      "ĠAnn": 1809,
      "Ġleg": 1810,
      "Ġinsurance": 1811,
      "ves": 1812,
      "ĠCredit": 1813,
      ")(": 1814,
      "Ġresp": 1815,
      "Ġimprove": 1816,
      "ĠQu": 1817,
      "Ġevent": 1818,
      "Ġfurther": 1819,
      "Ġtechnology": 1820,
      "ivers": 1821,
      "Ġobtain": 1822,
      "\\`": 1823,
      "Ġstatement": 1824,
      "ĠSp": 1825,
      "ending": 1826,
      "ĠNove": 1827,
      "Ġconnection": 1828,
      "Ġstockholders": 1829,
      "Ġrepresent": 1830,
      "ĠBut": 1831,
      "aging": 1832,
      "BS": 1833,
      "ĠNovember": 1834,
      "Ġwor": 1835,
      "Ġinvestors": 1836,
      "ĠManagement": 1837,
      "ĠCON": 1838,
      "Ġperiods": 1839,
      "Ġsegment": 1840,
      "PA": 1841,
      "Ġprovisions": 1842,
      "Ġestimates": 1843,
      "Ġborrow": 1844,
      ".\"": 1845,
      "ĠAugust": 1846,
      "Ġinde": 1847,
      "ency": 1848,
      "Ġtransaction": 1849,
      "Ġconsider": 1850,
      "ĠServ": 1851,
      "ittee": 1852,
      "ĠContents": 1853,
      "%.": 1854,
      "ajor": 1855,
      "reciation": 1856,
      "Ġneg": 1857,
      "Ġoffs": 1858,
      "Ġcurrently": 1859,
      "ĠCFR": 1860,
      "Ġbenefits": 1861,
      "Ġfinancing": 1862,
      "Ġpress": 1863,
      "ĠPer": 1864,
      "Ġagg": 1865,
      "Ġpayment": 1866,
      "son": 1867,
      "Ġliquid": 1868,
      "Ġperson": 1869,
      "Ġimpairment": 1870,
      "Ġthousands": 1871,
      "Ġlook": 1872,
      "PS": 1873,
      "ĠFr": 1874,
      "Ġcarry": 1875,
      "ilar": 1876,
      "DE": 1877,
      "Ġannoun": 1878,
      "Ġfocus": 1879,
      "Ġdefined": 1880,
      "roll": 1881,
      "Ġlaws": 1882,
      "Ġexisting": 1883,
      "Ġsubstant": 1884,
      "Ġcal": 1885,
      "ethod": 1886,
      "Ġ--------": 1887,
      "ĠHold": 1888,
      "iting": 1889,
      "Ġusing": 1890,
      "ixed": 1891,
      "iate": 1892,
      "RS": 1893,
      "ighted": 1894,
      "Ġem": 1895,
      "ensive": 1896,
      "LE": 1897,
      "crib": 1898,
      "Ġph": 1899,
      "ages": 1900,
      "ĠSub": 1901,
      "liance": 1902,
      "erve": 1903,
      "inical": 1904,
      "ĠThere": 1905,
      "Ġ@": 1906,
      "ĠCurrent": 1907,
      "ĠReven": 1908,
      "ĠRegistrant": 1909,
      "Ġhist": 1910,
      "ATION": 1911,
      "Ġobligation": 1912,
      "LO": 1913,
      "Ġenviron": 1914,
      "Ġfederal": 1915,
      "Ġpayable": 1916,
      "ĠTe": 1917,
      "Ġlic": 1918,
      "'ve": 1919,
      "Ġfacility": 1920,
      "QU": 1921,
      "Ġcurrency": 1922,
      "Ġprep": 1923,
      "ecurity": 1924,
      "Ġevents": 1925,
      "gies": 1926,
      "ortgage": 1927,
      "Ġaccounts": 1928,
      "ĠZ": 1929,
      "ĠEnded": 1930,
      "Ġcharg": 1931,
      "ĠPursuant": 1932,
      "eries": 1933,
      "ler": 1934,
      "Ġamong": 1935,
      "Ġwarrant": 1936,
      "Ġregulations": 1937,
      "Ġreview": 1938,
      "Ġincludes": 1939,
      "Ġacquired": 1940,
      "ET": 1941,
      "Ġbegin": 1942,
      "Ġregarding": 1943,
      "ivate": 1944,
      "ĠGeneral": 1945,
      "Ġmajor": 1946,
      "Ġguidance": 1947,
      "POR": 1948,
      "ĠĠĠĠĠĠĠĠĠ": 1949,
      "Ġfunds": 1950,
      "Ġdep": 1951,
      "Ġshareholders": 1952,
      "ĠPh": 1953,
      "Ġestate": 1954,
      "AC": 1955,
      "ĠGAAP": 1956,
      "OV": 1957,
      "Ġident": 1958,
      "Ġget": 1959,
      "Ġderiv": 1960,
      "ware": 1961,
      "Ġ($": 1962,
      "angible": 1963,
      "Ġmethod": 1964,
      "II": 1965,
      "Ġcondition": 1966,
      "Ġatt": 1967,
      "ĠAr": 1968,
      "Ġitem": 1969,
      "SS": 1970,
      "Ġtarg": 1971,
      "icing": 1972,
      "Ġreceived": 1973,
      "Ġwhile": 1974,
      "asing": 1975,
      "ĠGroup": 1976,
      "ulation": 1977,
      "Ġincorporated": 1978,
      "Ġtoday": 1979,
      "Ġclass": 1980,
      "af": 1981,
      "Ġamortization": 1982,
      "ministrative": 1983,
      "Ġvarious": 1984,
      "cri": 1985,
      "MI": 1986,
      "cl": 1987,
      "Ġtake": 1988,
      "ĠX": 1989,
      "Ġclo": 1990,
      "tern": 1991,
      "Ġanticip": 1992,
      ">,": 1993,
      "oss": 1994,
      "NI": 1995,
      "ton": 1996,
      "ĠEquity": 1997,
      "SC": 1998,
      "amp": 1999,
      "ness": 2000,
      "Ġdecrease": 2001,
      "Ġamended": 2002,
      "go": 2003,
      "ffil": 2004,
      "Ġpurch": 2005,
      "ĠCOM": 2006,
      "ĠAccounting": 2007,
      "Ġsubsidiaries": 2008,
      "Ġsold": 2009,
      "uch": 2010,
      "Ġestabl": 2011,
      "Ġparticip": 2012,
      "(\"`@": 2013,
      "irc": 2014,
      "loc": 2015,
      "rel": 2016,
      "Ġsimilar": 2017,
      "Ġgovernment": 2018,
      "BK": 2019,
      "Ġfr": 2020,
      "Ġable": 2021,
      "Ġado": 2022,
      "erger": 2023,
      "Ġmeasures": 2024,
      "AX": 2025,
      "Ġmean": 2026,
      "Ġsever": 2027,
      "ably": 2028,
      "Ġrecent": 2029,
      "St": 2030,
      "will": 2031,
      "Ġmeasure": 2032,
      "--------------------------------": 2033,
      "Ġgains": 2034,
      "IL": 2035,
      "Ġfl": 2036,
      "ife": 2037,
      "ension": 2038,
      "Ġaggreg": 2039,
      "CC": 2040,
      "itig": 2041,
      "FO": 2042,
      "Ġhealth": 2043,
      "?_": 2044,
      "Ġassess": 2045,
      "Ġadjusted": 2046,
      "Ġcontribut": 2047,
      "Ġunits": 2048,
      "Ġthem": 2049,
      "Ġreally": 2050,
      "Ġoffset": 2051,
      "ĠAnnual": 2052,
      "'t": 2053,
      "Ġtyp": 2054,
      "MT": 2055,
      "atis": 2056,
      "put": 2057,
      "bers": 2058,
      "Ġcontinu": 2059,
      "atives": 2060,
      "Ġcommunications": 2061,
      "egr": 2062,
      "net": 2063,
      "Ġcol": 2064,
      "Ġsett": 2065,
      "Ġgross": 2066,
      "Ġknow": 2067,
      "arant": 2068,
      "Ġassumptions": 2069,
      "Ġ'": 2070,
      "losure": 2071,
      "ĠAdjusted": 2072,
      "(#": 2073,
      "nergy": 2074,
      "Ġclaims": 2075,
      "Ġday": 2076,
      "Ġproperties": 2077,
      "ĠCommission": 2078,
      "Oper": 2079,
      "quent": 2080,
      "Ġequival": 2081,
      "ĠDuring": 2082,
      "Ġportion": 2083,
      "ĠTrust": 2084,
      "Ġmaterially": 2085,
      "Ġsc": 2086,
      "//": 2087,
      "Ġfirm": 2088,
      "Ġtest": 2089,
      "HI": 2090,
      "PO": 2091,
      "Ġut": 2092,
      "inued": 2093,
      "Ġoption": 2094,
      "alk": 2095,
      "Ġduly": 2096,
      "Ġearli": 2097,
      "struction": 2098,
      "Ġlimit": 2099,
      "UN": 2100,
      "ĠHe": 2101,
      "EO": 2102,
      "ĠBusiness": 2103,
      "Ġconsist": 2104,
      "wise": 2105,
      "Ġbeh": 2106,
      "TR": 2107,
      "inated": 2108,
      "key": 2109,
      "ĠĠĠĠĠĠ": 2110,
      "ention": 2111,
      "Ġshort": 2112,
      "Ġexclud": 2113,
      "ecess": 2114,
      "EW": 2115,
      "Ġsum": 2116,
      "Ġinstru": 2117,
      "Ġweek": 2118,
      "Ġdetermined": 2119,
      "istered": 2120,
      "ering": 2121,
      "Ġappropri": 2122,
      "Ġbond": 2123,
      "Ġfacilities": 2124,
      "ĠShare": 2125,
      "EX": 2126,
      "IA": 2127,
      "Ġdid": 2128,
      "ables": 2129,
      "ĠLi": 2130,
      "rued": 2131,
      "Ġattribut": 2132,
      "Ġprovides": 2133,
      "Ġfail": 2134,
      "ĠEmploy": 2135,
      "TH": 2136,
      "ĠNO": 2137,
      "Ġdistribution": 2138,
      "ĠAc": 2139,
      "ĠNor": 2140,
      "Ġotherwise": 2141,
      "less": 2142,
      "Ġopen": 2143,
      "ĠRel": 2144,
      "Ġstart": 2145,
      "PL": 2146,
      "Ġel": 2147,
      "````": 2148,
      "ĠFIN": 2149,
      "ules": 2150,
      "elp": 2151,
      "Ġherein": 2152,
      "Ġmarketing": 2153,
      "Ġlevels": 2154,
      "range": 2155,
      "read": 2156,
      "ĠFOR": 2157,
      "_`": 2158,
      "Ġappropriate": 2159,
      "Ġsatis": 2160,
      "Ġaggregate": 2161,
      "Ġach": 2162,
      "MENTS": 2163,
      "imum": 2164,
      "Ġhistor": 2165,
      "urse": 2166,
      "Ġlarge": 2167,
      "Ġforth": 2168,
      "ĠRest": 2169,
      "spect": 2170,
      "Ġdays": 2171,
      "ĠUS": 2172,
      "Ġsur": 2173,
      "nder": 2174,
      "ime": 2175,
      "Ġentered": 2176,
      "Ġorder": 2177,
      "til": 2178,
      "Ex": 2179,
      "ITIES": 2180,
      "ĠTrans": 2181,
      "Ġtable": 2182,
      "ĠCan": 2183,
      "lying": 2184,
      "Ġpar": 2185,
      "uation": 2186,
      "Ġconf": 2187,
      "Ġcompar": 2188,
      "Ġdecl": 2189,
      "________________": 2190,
      "Ġcorporate": 2191,
      "of": 2192,
      "Ġadversely": 2193,
      "ĠEnergy": 2194,
      "Ġdeliver": 2195,
      "holder": 2196,
      "Ġcontinued": 2197,
      "ĠFir": 2198,
      "Ġpurposes": 2199,
      ".)": 2200,
      "(\"`@(\"`@": 2201,
      "Ġhelp": 2202,
      "Ġprot": 2203,
      "Ġtrading": 2204,
      "Ġbusinesses": 2205,
      "reh": 2206,
      "inance": 2207,
      "Ġauthorized": 2208,
      "icular": 2209,
      "cer": 2210,
      "itted": 2211,
      "Ġweb": 2212,
      "els": 2213,
      "ble": 2214,
      "Ġexcept": 2215,
      "ai": 2216,
      "Ġmed": 2217,
      "Ġinvol": 2218,
      "rehensive": 2219,
      "ĠTax": 2220,
      "ring": 2221,
      "Ġclinical": 2222,
      "ety": 2223,
      "ĠMed": 2224,
      "EM": 2225,
      "IB": 2226,
      "Ġmuch": 2227,
      "duction": 2228,
      "Ġinvent": 2229,
      "Ġmark": 2230,
      "Ġwithout": 2231,
      "lation": 2232,
      "Ġmany": 2233,
      "Ġparticular": 2234,
      "ĠQuarter": 2235,
      "ote": 2236,
      "Operator": 2237,
      "Ġvari": 2238,
      "[.": 2239,
      "cribed": 2240,
      "Ġcalc": 2241,
      "Ġapproval": 2242,
      "Ġcause": 2243,
      "Ġparties": 2244,
      "Ġgroup": 2245,
      "ittle": 2246,
      "ĠClass": 2247,
      "Ġoccur": 2248,
      "Ġorgan": 2249,
      "orn": 2250,
      "Ġexperience": 2251,
      "XX": 2252,
      "Ġ#": 2253,
      "Ġkey": 2254,
      "Ġparty": 2255,
      "ĠStatement": 2256,
      "UM": 2257,
      "Ġofficers": 2258,
      "ĠShares": 2259,
      "Ġaccept": 2260,
      "Ġsm": 2261,
      "ences": 2262,
      "Ġtele": 2263,
      "Ġ:": 2264,
      "ww": 2265,
      "ane": 2266,
      "Ġmet": 2267,
      "Ġ((": 2268,
      "Ġdiluted": 2269,
      "CK": 2270,
      "VE": 2271,
      "Ġrange": 2272,
      "ah": 2273,
      "Ġitems": 2274,
      "alue": 2275,
      "work": 2276,
      "Ġtarget": 2277,
      "<.": 2278,
      "Ġinitial": 2279,
      "Ġmult": 2280,
      "ĠDisc": 2281,
      "Ġsay": 2282,
      "Ġuntil": 2283,
      "ĠOperations": 2284,
      "Ġlittle": 2285,
      "Ġstill": 2286,
      "Ġretail": 2287,
      "Ġdividends": 2288,
      "Ġincurred": 2289,
      "Ġbuild": 2290,
      "Reuters": 2291,
      "Ġcent": 2292,
      "Ġdifferent": 2293,
      "Ġbase": 2294,
      "uris": 2295,
      "comm": 2296,
      "?\\": 2297,
      "ires": 2298,
      "ĠSec": 2299,
      "_\\": 2300,
      "Ġ!": 2301,
      "Ġexecut": 2302,
      "Ġimport": 2303,
      "ĠOr": 2304,
      "cription": 2305,
      "endment": 2306,
      "Ġcoll": 2307,
      "Ġpe": 2308,
      "Ġreserv": 2309,
      "ĠUnder": 2310,
      "Ġexpectations": 2311,
      "Ġthings": 2312,
      "ĠApp": 2313,
      "Ġsl": 2314,
      "Ġacquisitions": 2315,
      "ten": 2316,
      "Ġtalk": 2317,
      "Ġcharges": 2318,
      "Ġclose": 2319,
      "Ġaudit": 2320,
      "Ġtrade": 2321,
      "dict": 2322,
      "ĠVice": 2323,
      "Ġboard": 2324,
      "ĠChina": 2325,
      "Ġnecess": 2326,
      "ier": 2327,
      "UL": 2328,
      "date": 2329,
      "ĠEuropean": 2330,
      "ting": 2331,
      "Ġown": 2332,
      "Ġbuy": 2333,
      "cast": 2334,
      "Ġname": 2335,
      "itures": 2336,
      "Ġkind": 2337,
      "Ġturn": 2338,
      "ĠOff": 2339,
      "GL": 2340,
      "ĠFINAN": 2341,
      "ĠProper": 2342,
      "Ġnatural": 2343,
      "BBB": 2344,
      "Ġreports": 2345,
      "ST": 2346,
      "Ġsystems": 2347,
      "ĠTop": 2348,
      "ĠBy": 2349,
      "DI": 2350,
      "Ġintegr": 2351,
      "Ġpoint": 2352,
      "ĠNumber": 2353,
      "Ġissuance": 2354,
      "aged": 2355,
      "Ġcompon": 2356,
      "Ġpost": 2357,
      "Ġaround": 2358,
      "abor": 2359,
      "urisdict": 2360,
      "Ġrelations": 2361,
      "oh": 2362,
      "Ġcountr": 2363,
      "Ġproceeds": 2364,
      "ĠCommittee": 2365,
      "Ġhed": 2366,
      "encies": 2367,
      "Ġposs": 2368,
      "Ġoffering": 2369,
      "going": 2370,
      "Ġglobal": 2371,
      "ĠCompensation": 2372,
      "ritt": 2373,
      "ĠAddition": 2374,
      "Ġfixed": 2375,
      "entive": 2376,
      "Ġadministrative": 2377,
      "Ġworld": 2378,
      "Ġconvert": 2379,
      "_]": 2380,
      "ividual": 2381,
      "ither": 2382,
      "ĠReuters": 2383,
      "ontinued": 2384,
      "Ġarea": 2385,
      "CIAL": 2386,
      "Ġvolume": 2387,
      "Ġhis": 2388,
      "TC": 2389,
      "Ġcapac": 2390,
      "ritten": 2391,
      "Ġstocks": 2392,
      "ĠâĢ": 2393,
      "Ġattributable": 2394,
      "Ġbeginning": 2395,
      "lear": 2396,
      "Ġnegative": 2397,
      "Ġmortgage": 2398,
      "EL": 2399,
      "ĠEar": 2400,
      "ĠHow": 2401,
      "ĠRec": 2402,
      "ĠSenior": 2403,
      "Ġdeal": 2404,
      "udg": 2405,
      "PP": 2406,
      "med": 2407,
      "ĠLoan": 2408,
      "Ġstandards": 2409,
      "ĠSal": 2410,
      "celer": 2411,
      "Ġaccess": 2412,
      "Ġeng": 2413,
      "ral": 2414,
      "Ġprem": 2415,
      "ĠTo": 2416,
      "Ġstat": 2417,
      "Ġindependent": 2418,
      "ĠFINANCIAL": 2419,
      "Ġunit": 2420,
      "Ġsumm": 2421,
      "Ġfive": 2422,
      "ron": 2423,
      "Ġdescribed": 2424,
      "AM": 2425,
      "Ġcontinuing": 2426,
      "aud": 2427,
      "other": 2428,
      "ĠAmerica": 2429,
      "Ġcaus": 2430,
      "Ġinstruments": 2431,
      "Ġpast": 2432,
      "Ġpower": 2433,
      "olutions": 2434,
      "ann": 2435,
      "Ġste": 2436,
      "Ġfollows": 2437,
      "eng": 2438,
      "Ġpricing": 2439,
      "enture": 2440,
      "Ġreasonable": 2441,
      "be": 2442,
      "Ġtrial": 2443,
      "Ġbehalf": 2444,
      "Ġpreviously": 2445,
      "unct": 2446,
      "AD": 2447,
      "Ġprodu": 2448,
      "iates": 2449,
      "ucture": 2450,
      "/]": 2451,
      "ibility": 2452,
      "AB": 2453,
      "Ġaffil": 2454,
      "Ġearly": 2455,
      "emed": 2456,
      "ĠFund": 2457,
      "anch": 2458,
      "ĠYork": 2459,
      "cedures": 2460,
      "ĠYes": 2461,
      "ĠBalance": 2462,
      "Ġexercise": 2463,
      "Ġevery": 2464,
      "Ġuncertainties": 2465,
      "Ġrelating": 2466,
      "Ġpercentage": 2467,
      "CT": 2468,
      "Ġcombination": 2469,
      "itigation": 2470,
      "head": 2471,
      "Ġoverall": 2472,
      "ode": 2473,
      "avor": 2474,
      "par": 2475,
      "Ġequivalents": 2476,
      "ĠFirst": 2477,
      "Ġmatur": 2478,
      "erging": 2479,
      "Ġplace": 2480,
      "Ġalloc": 2481,
      "ĠRevenue": 2482,
      "MS": 2483,
      "emp": 2484,
      "Ġtrend": 2485,
      "_^": 2486,
      "igned": 2487,
      "...": 2488,
      "Ġclosing": 2489,
      "Ġrepur": 2490,
      "ĠServices": 2491,
      "Ġorig": 2492,
      "Ġcre": 2493,
      "PR": 2494,
      "ĠFederal": 2495,
      "Ġadjustments": 2496,
      "%)": 2497,
      "Ġvest": 2498,
      "Ġowned": 2499,
      "Ġallowance": 2500,
      "Ġapproved": 2501,
      "fficient": 2502,
      "Ġsecurity": 2503,
      "lex": 2504,
      "Ġpres": 2505,
      "Ġindividual": 2506,
      "KE": 2507,
      "Ġspecified": 2508,
      "Ġcheck": 2509,
      "Ġspecific": 2510,
      "CO": 2511,
      "ĠĠĠĠĠĠĠĠĠĠĠĠĠĠĠĠ": 2512,
      "Ġsenior": 2513,
      "ĠCost": 2514,
      "ĠSECUR": 2515,
      "Ġsect": 2516,
      "PE": 2517,
      "Ġcli": 2518,
      "side": 2519,
      "Ġreceive": 2520,
      "Ġinterests": 2521,
      "Ġactivity": 2522,
      "Ġlocal": 2523,
      "Ġhalf": 2524,
      "Ġdou": 2525,
      "sue": 2526,
      "Ġperm": 2527,
      "nes": 2528,
      "'_": 2529,
      "orts": 2530,
      "Ġbit": 2531,
      "Ġcirc": 2532,
      "ĠExp": 2533,
      "Ġexpend": 2534,
      "Ġmanufacturing": 2535,
      "ury": 2536,
      "Ġleases": 2537,
      "Ġinstitut": 2538,
      "Ġsatisf": 2539,
      "ftware": 2540,
      "Ġsuccessful": 2541,
      "Ġopportunities": 2542,
      "Ġlegal": 2543,
      "sequent": 2544,
      "ĠĠĠĠĠĠĠ": 2545,
      "IR": 2546,
      "Ġlarg": 2547,
      "'ll": 2548,
      ");": 2549,
      "Ġconduct": 2550,
      "Ġintended": 2551,
      "gic": 2552,
      "Ġcompleted": 2553,
      "Ġcarrying": 2554,
      "`$": 2555,
      "Ġarrange": 2556,
      "onc": 2557,
      "equ": 2558,
      "ĠPartnership": 2559,
      "Ġresulting": 2560,
      "ories": 2561,
      "Ġpropos": 2562,
      "Ġcharge": 2563,
      "Ġratio": 2564,
      "Ġlikely": 2565,
      "Ġcor": 2566,
      "ults": 2567,
      "Ġsupply": 2568,
      "Ġextent": 2569,
      "ĠDirector": 2570,
      "Ġdepend": 2571,
      "ĠGood": 2572,
      "umulated": 2573,
      "ysis": 2574,
      "Ġsubsidiary": 2575,
      "cing": 2576,
      "ĠSee": 2577,
      "urs": 2578,
      "BO": 2579,
      "ĠSeries": 2580,
      "LP": 2581,
      "istration": 2582,
      "sh": 2583,
      "Ġresearch": 2584,
      "Ġvaluation": 2585,
      "illions": 2586,
      "Ġrespons": 2587,
      "Ġcapacity": 2588,
      "Ġstrategy": 2589,
      "@@": 2590,
      "Ġreceivable": 2591,
      "Ġwant": 2592,
      "ĠNorth": 2593,
      "Ġworking": 2594,
      "Ġrestricted": 2595,
      "Ġremaining": 2596,
      "Ġrelationship": 2597,
      "Ġeff": 2598,
      "ĠSTATEMENTS": 2599,
      "Ġcollect": 2600,
      "Ġstud": 2601,
      "Ġincreases": 2602,
      "?^": 2603,
      "BR": 2604,
      "Ġreduce": 2605,
      "Ġawards": 2606,
      "ients": 2607,
      "MC": 2608,
      "Ġacross": 2609,
      "Ġhistorical": 2610,
      "ĠAssets": 2611,
      "EU": 2612,
      "irement": 2613,
      "Ġaddress": 2614,
      "_[": 2615,
      "Ġteam": 2616,
      "\"),": 2617,
      "NY": 2618,
      "TW": 2619,
      "Ġlife": 2620,
      "aph": 2621,
      "Ġyield": 2622,
      "Ġimplement": 2623,
      "ergy": 2624,
      "ining": 2625,
      "OW": 2626,
      "not": 2627,
      "ĠDebt": 2628,
      "Ġsmall": 2629,
      "BC": 2630,
      "Ġjurisdict": 2631,
      "Ġpolicies": 2632,
      "Ġprograms": 2633,
      "Ġsigned": 2634,
      "Ġexpress": 2635,
      "ITY": 2636,
      "Ġgranted": 2637,
      "ĠAcqu": 2638,
      "ĠTHE": 2639,
      "Ġcase": 2640,
      "MK": 2641,
      "Ġprivate": 2642,
      "ĠSout": 2643,
      "Ġmem": 2644,
      "Ġconsumer": 2645,
      "Ġdispos": 2646,
      "stances": 2647,
      "ators": 2648,
      "Ġannounced": 2649,
      "Ġbroad": 2650,
      "ĠSECURITIES": 2651,
      "LA": 2652,
      "ateral": 2653,
      "acy": 2654,
      "ĠCorp": 2655,
      "='": 2656,
      "LV": 2657,
      "Ġvers": 2658,
      "Ġsheet": 2659,
      "ley": 2660,
      "Ġconcer": 2661,
      "Ġregistered": 2662,
      "KS": 2663,
      "Ġguarant": 2664,
      "ĠâĢĵ": 2665,
      "Ġlot": 2666,
      "Ġtreat": 2667,
      "ĠDel": 2668,
      "ores": 2669,
      "OS": 2670,
      "ANGE": 2671,
      "Ġliquidity": 2672,
      "]_": 2673,
      "abilities": 2674,
      "Ġprovision": 2675,
      "\",": 2676,
      "Ġinventory": 2677,
      "ĠDes": 2678,
      "YD": 2679,
      "month": 2680,
      "Ġcompliance": 2681,
      "Ġhead": 2682,
      "Ġdon": 2683,
      "idential": 2684,
      "NS": 2685,
      "Ġquarterly": 2686,
      "OLI": 2687,
      "Ġbelie": 2688,
      "fic": 2689,
      "Ġcommit": 2690,
      "))))": 2691,
      "uel": 2692,
      "ĠHoldings": 2693,
      "Ġcaused": 2694,
      "Ġpremium": 2695,
      "Ġdeposits": 2696,
      "related": 2697,
      "IM": 2698,
      "site": 2699,
      "ĠPreferred": 2700,
      "ords": 2701,
      "Ġexpos": 2702,
      "GY": 2703,
      "TEM": 2704,
      "Ġdiscount": 2705,
      "Ġeither": 2706,
      "Ġbig": 2707,
      "Ġexpand": 2708,
      "ĠNOTE": 2709,
      "Ġprocedures": 2710,
      "ĠBas": 2711,
      "Ġcompetitive": 2712,
      "ĠOk": 2713,
      "Ġcover": 2714,
      "atform": 2715,
      "ĠInvestment": 2716,
      "Ġdecline": 2717,
      "Ġcr": 2718,
      "TM": 2719,
      "Ġreserves": 2720,
      "Ġconsidered": 2721,
      "land": 2722,
      "Ġlet": 2723,
      "encement": 2724,
      "ĠCONS": 2725,
      "inary": 2726,
      "Ġ]": 2727,
      "ĠCal": 2728,
      "Ġeven": 2729,
      "Ġdetail": 2730,
      "Ġcircum": 2731,
      "ĠCanad": 2732,
      "Ġweak": 2733,
      "Ġseveral": 2734,
      "ieve": 2735,
      "Ġsix": 2736,
      "Ġutil": 2737,
      "Ġpresented": 2738,
      "alized": 2739,
      "ENT": 2740,
      "UP": 2741,
      "sures": 2742,
      "ĠRet": 2743,
      "Ġprom": 2744,
      "ĠCode": 2745,
      "ohn": 2746,
      "ructuring": 2747,
      "Ġequal": 2748,
      ">.": 2749,
      "Ġenergy": 2750,
      "audited": 2751,
      "Ġintangible": 2752,
      "cont": 2753,
      "lied": 2754,
      "Ġdecreased": 2755,
      "Ġexpenditures": 2756,
      "ĠExhibits": 2757,
      "ĠDeferred": 2758,
      "FF": 2759,
      "Ġreduction": 2760,
      ",#": 2761,
      "ĠMS": 2762,
      "NG": 2763,
      "Ġlicens": 2764,
      "Ġmon": 2765,
      "Ġsignificantly": 2766,
      "Ġrele": 2767,
      "IV": 2768,
      "Ġmust": 2769,
      "Ġcop": 2770,
      "Ġquality": 2771,
      "/_": 2772,
      "NO": 2773,
      "Ġther": 2774,
      "Ġpreferred": 2775,
      "ists": 2776,
      "CHANGE": 2777,
      "raph": 2778,
      "phone": 2779,
      "ĠEXCHANGE": 2780,
      "co": 2781,
      "CA": 2782,
      "Ġexcess": 2783,
      "]?": 2784,
      "IX": 2785,
      "Ġimportant": 2786,
      "ession": 2787,
      "Ġaffected": 2788,
      "Ġeur": 2789,
      "Ġsaf": 2790,
      "NQ": 2791,
      "overy": 2792,
      "Ġpolicy": 2793,
      "ington": 2794,
      "Ġnecessary": 2795,
      "Ġrequires": 2796,
      "Ġcomprehensive": 2797,
      "OLIDA": 2798,
      ".:": 2799,
      "Ġfe": 2800,
      "Ġgiven": 2801,
      "by": 2802,
      "off": 2803,
      "ource": 2804,
      "Ġexceed": 2805,
      "yn": 2806,
      "andid": 2807,
      "td": 2808,
      "stitut": 2809,
      "MM": 2810,
      "though": 2811,
      "Ġdisclosure": 2812,
      "Ġinternational": 2813,
      "ĠCONSOLIDA": 2814,
      "/^": 2815,
      "ĠREPOR": 2816,
      "Ġbecome": 2817,
      "Ġpred": 2818,
      "gress": 2819,
      "ĠCOMM": 2820,
      "Ġcrit": 2821,
      "IP": 2822,
      "Ġnear": 2823,
      "Ġra": 2824,
      "AU": 2825,
      "IE": 2826,
      "Ġaccrued": 2827,
      "version": 2828,
      "Ġmid": 2829,
      "Ġspecial": 2830,
      "ĠFac": 2831,
      "/\\": 2832,
      "ĠHowever": 2833,
      "Ġbetter": 2834,
      ":>": 2835,
      "enced": 2836,
      "@#": 2837,
      "[_": 2838,
      "Ġrelative": 2839,
      "ĠBr": 2840,
      "Ġcomplete": 2841,
      "Ġtop": 2842,
      "Ġassurance": 2843,
      "lor": 2844,
      "ĠCertain": 2845,
      "Ġplus": 2846,
      "ĠDr": 2847,
      "=&": 2848,
      "Ġcandid": 2849,
      "ĠMW": 2850,
      "[-": 2851,
      "Ġenvironment": 2852,
      "ĠWith": 2853,
      "Ġprob": 2854,
      "Ġcircumstances": 2855,
      "].": 2856,
      "Ġdi": 2857,
      ";_": 2858,
      "ĠCONSOLIDATED": 2859,
      "organ": 2860,
      "RC": 2861,
      "HO": 2862,
      "ĠTerm": 2863,
      "TY": 2864,
      "ĠMA": 2865,
      "[%": 2866,
      "Ġdeemed": 2867,
      "Ġbre": 2868,
      "EP": 2869,
      "Ġsubstantial": 2870,
      "FS": 2871,
      "ĠInformation": 2872,
      "Ġnetwork": 2873,
      "Ġownership": 2874,
      "Ġgoodwill": 2875,
      "ĠLtd": 2876,
      "Ġshow": 2877,
      "ĠResults": 2878,
      "Ġsatisfy": 2879,
      "Ġcontrols": 2880,
      "/#": 2881,
      "enn": 2882,
      "way": 2883,
      "BL": 2884,
      "Ġemployee": 2885,
      "Ġmodel": 2886,
      "Ġsoftware": 2887,
      "Ġway": 2888,
      "Ġsw": 2889,
      "Ġnote": 2890,
      "reet": 2891,
      "MA": 2892,
      "inion": 2893,
      "Ġresources": 2894,
      "Ġdiffic": 2895,
      "HL": 2896,
      "YS": 2897,
      "ĠSales": 2898,
      "BA": 2899,
      "Ġcontained": 2900,
      "Ġgreater": 2901,
      "cu": 2902,
      "ĠCent": 2903,
      "!!": 2904,
      "FX": 2905,
      "eto": 2906,
      "Ġrecover": 2907,
      "Ġlist": 2908,
      "Ġwarrants": 2909,
      "orning": 2910,
      "oncil": 2911,
      "Ġsched": 2912,
      "ĠMO": 2913,
      "MO": 2914,
      "Ġjoint": 2915,
      "Ġplatform": 2916,
      "Ġconstruction": 2917,
      "]:": 2918,
      "DDDD": 2919,
      "Ġbelieves": 2920,
      "HK": 2921,
      "Ġacceler": 2922,
      "ub": 2923,
      "DS": 2924,
      "imb": 2925,
      "Ġestimate": 2926,
      "Ġmembers": 2927,
      "Ġbanks": 2928,
      "serv": 2929,
      "Ġretain": 2930,
      "Ġfee": 2931,
      "ĠThat": 2932,
      "back": 2933,
      "Ġpatients": 2934,
      "look": 2935,
      "TV": 2936,
      "$$": 2937,
      "Ġadopt": 2938,
      "^_": 2939,
      "ople": 2940,
      "Ġcare": 2941,
      "((": 2942,
      "Ġdirector": 2943,
      "ĠInternational": 2944,
      "................................": 2945,
      "Ġca": 2946,
      "ĠLoss": 2947,
      "Ġselling": 2948,
      "Ġdrug": 2949,
      "Ġreduced": 2950,
      "itors": 2951,
      ";&": 2952,
      "^/": 2953,
      "Ġten": 2954,
      "****": 2955,
      "xy": 2956,
      "PG": 2957,
      "Ġcannot": 2958,
      "Ġdriven": 2959,
      "Ġearlier": 2960,
      "?[": 2961,
      "Ad": 2962,
      ">'": 2963,
      "DR": 2964,
      "Ġenter": 2965,
      "ath": 2966,
      "Ġwebsite": 2967,
      "]*": 2968,
      "Ġfully": 2969,
      "Ġbrok": 2970,
      "ik": 2971,
      "Ġprospect": 2972,
      "]/": 2973,
      "Ġpract": 2974,
      "PM": 2975,
      "Ġmo": 2976,
      "OK": 2977,
      "eline": 2978,
      "Ġissue": 2979,
      "ĠDistr": 2980,
      "ĠCar": 2981,
      "commencement": 2982,
      "apan": 2983,
      "Ġactions": 2984,
      "Ġholders": 2985,
      "ĠEarnings": 2986,
      "ĠOkay": 2987,
      "ĠAcquis": 2988,
      "FQ": 2989,
      "chn": 2990,
      "ingle": 2991,
      "RA": 2992,
      "^^^^": 2993,
      "\"!": 2994,
      "Ġprojects": 2995,
      "Ġdocu": 2996,
      "Ġconsideration": 2997,
      "Ġwhol": 2998,
      "DC": 2999,
      "UK": 3000,
      "\\/": 3001,
      "ĠMM": 3002,
      "ĠREPORT": 3003,
      "JJ": 3004,
      "ĠCom": 3005,
      "ender": 3006,
      "Ġmillions": 3007,
      "Ġderivative": 3008,
      "ously": 3009,
      "Ġestablished": 3010,
      "ĠProperty": 3011,
      "ĠRisk": 3012,
      "Ġconference": 3013,
      "IZ": 3014,
      "ĠCorporate": 3015,
      "te": 3016,
      "oney": 3017,
      "emption": 3018,
      "party": 3019,
      "?]": 3020,
      "NK": 3021,
      "+_": 3022,
      "Ġpositive": 3023,
      "-\"": 3024,
      "ĠChange": 3025,
      "Ġofficer": 3026,
      "Ġachieve": 3027,
      "Ġdepreciation": 3028,
      "ged": 3029,
      "UC": 3030,
      "Ġmove": 3031,
      "Ġrepl": 3032,
      "Ġpresentation": 3033,
      "Ġseek": 3034,
      "Ġtrust": 3035,
      "AV": 3036,
      "airman": 3037,
      "Ġefforts": 3038,
      "etary": 3039,
      "ĠJapan": 3040,
      "Ġagre": 3041,
      "Ġrules": 3042,
      "ĠMV": 3043,
      "$!": 3044,
      "Ġgive": 3045,
      "Ġrating": 3046,
      "Ġstrategic": 3047,
      "#.": 3048,
      "Ġaccompany": 3049,
      "ached": 3050,
      "Ġrose": 3051,
      "ĠFDA": 3052,
      "ĠTre": 3053,
      "ME": 3054,
      "Ġseen": 3055,
      "anges": 3056,
      "Ġcode": 3057,
      "ĠInt": 3058,
      "CS": 3059,
      "Ġvolat": 3060,
      "(%": 3061,
      "Ġtiming": 3062,
      "Comm": 3063,
      "uc": 3064,
      "ĠKey": 3065,
      ";%": 3066,
      "Ġweighted": 3067,
      "''": 3068,
      "ĠValue": 3069,
      "Ġred": 3070,
      "Ġanticipated": 3071,
      "ayment": 3072,
      "Ġvalues": 3073,
      "Ġmeeting": 3074,
      "ĠMG": 3075,
      "Ġaccompanying": 3076,
      "Ġsepar": 3077,
      ";:": 3078,
      "Ġleast": 3079,
      "SION": 3080,
      "aren": 3081,
      "CX": 3082,
      "ĠMonth": 3083,
      "HHHH": 3084,
      "ĠPurchase": 3085,
      "ĠITEM": 3086,
      "ĠFORM": 3087,
      "Ġpossible": 3088,
      "KW": 3089,
      "state": 3090,
      "Ġdom": 3091,
      "vision": 3092,
      "avorable": 3093,
      "\"#": 3094,
      "SP": 3095,
      "ĠFile": 3096,
      "TER": 3097,
      "resents": 3098,
      "Ġmight": 3099,
      "=_": 3100,
      "IO": 3101,
      "MENT": 3102,
      "ĠGu": 3103,
      "ĠAny": 3104,
      "`*": 3105,
      "ĠAverage": 3106,
      "\").": 3107,
      "Ġentity": 3108,
      "umer": 3109,
      "iving": 3110,
      "AG": 3111,
      "-#": 3112,
      "ĠLong": 3113,
      "ĠAdv": 3114,
      "Ġmorning": 3115,
      "ĠMD": 3116,
      "TD": 3117,
      "FAS": 3118,
      "ĠYou": 3119,
      "($": 3120,
      "Ġmargins": 3121,
      "\\?": 3122,
      "ĠMZ": 3123,
      "FH": 3124,
      "Ġpositions": 3125,
      "EG": 3126,
      "Ġdirectly": 3127,
      "Ġ>": 3128,
      "Ġmanage": 3129,
      "ĠMK": 3130,
      "reng": 3131,
      "NW": 3132,
      "ĠStreet": 3133,
      "mediate": 3134,
      "Ġlooking": 3135,
      "rength": 3136,
      "Ġmatters": 3137,
      "[>": 3138,
      "---": 3139,
      "Ġformer": 3140,
      "Ġversus": 3141,
      "Ġahead": 3142,
      "JP": 3143,
      "Ġsubsequent": 3144,
      "ĠAmendment": 3145,
      "ames": 3146,
      "SO": 3147,
      "Ġincreasing": 3148,
      "[?": 3149,
      "Ġanother": 3150,
      "::": 3151,
      "ĠResearch": 3152,
      "\\_": 3153,
      "ĠMerger": 3154,
      "NZ": 3155,
      "puts": 3156,
      "ateg": 3157,
      "room": 3158,
      "Ġdifficult": 3159,
      "Ġview": 3160,
      "FC": 3161,
      "ault": 3162,
      "]^": 3163,
      "ĠSw": 3164,
      "Ġopportunity": 3165,
      "Ġupdate": 3166,
      "Ġtermination": 3167,
      "Ġwww": 3168,
      "clus": 3169,
      "ĠThanks": 3170,
      "-+": 3171,
      "inter": 3172,
      "Ġbook": 3173,
      "ertific": 3174,
      "ĠSupp": 3175,
      "rolling": 3176,
      "\"(": 3177,
      "ived": 3178,
      "VX": 3179,
      "Ġaction": 3180,
      "luding": 3181,
      "ises": 3182,
      "Ġunderlying": 3183,
      "#_": 3184,
      "Ġdig": 3185,
      "ĠMat": 3186,
      "Ġbest": 3187,
      "Un": 3188,
      "ĠSIG": 3189,
      "JZ": 3190,
      "idence": 3191,
      "ĠMX": 3192,
      "Ġsettlement": 3193,
      "EY": 3194,
      "<&": 3195,
      "MW": 3196,
      "itled": 3197,
      "yal": 3198,
      "Ġbonds": 3199,
      "UT": 3200,
      "Ġmaterials": 3201,
      "Ġfall": 3202,
      "ĠGlobal": 3203,
      "ĠElect": 3204,
      "CR": 3205,
      "Ġfinal": 3206,
      "FG": 3207,
      "Ġmaking": 3208,
      "Ġunders": 3209,
      "(&": 3210,
      "^'": 3211,
      "pro": 3212,
      "],": 3213,
      "ĠImp": 3214,
      "ĠSTO": 3215,
      "ĠMQ": 3216,
      "]>": 3217,
      "Ġlocated": 3218,
      "rupt": 3219,
      "Ġdeposit": 3220,
      ";'": 3221,
      "ĠMY": 3222,
      "Ġcourse": 3223,
      "EQ": 3224,
      "ĠIss": 3225,
      "olo": 3226,
      "Ġfree": 3227,
      "Ġmention": 3228,
      "come": 3229,
      "Ġsolutions": 3230,
      ")_": 3231,
      "ĠFacility": 3232,
      "Ġcomparable": 3233,
      "estic": 3234,
      "icate": 3235,
      "ps": 3236,
      "ĠIndex": 3237,
      "ios": 3238,
      "akes": 3239,
      "Ġpeople": 3240,
      "ĠGross": 3241,
      "\".": 3242,
      "JK": 3243,
      "^?": 3244,
      "tenance": 3245,
      "ĠSU": 3246,
      "ĠWash": 3247,
      "RG": 3248,
      "JW": 3249,
      "Ġconsult": 3250,
      "ingly": 3251,
      "BT": 3252,
      "ĠFair": 3253,
      "Ġcombined": 3254,
      "str": 3255,
      "ging": 3256,
      "Ġstrength": 3257,
      "Ġprimary": 3258,
      "ĠBl": 3259,
      "VA": 3260,
      "izes": 3261,
      "Ġ@(\"": 3262,
      "izing": 3263,
      "Ġmeaning": 3264,
      "Ġseeing": 3265,
      "Ġdiscussed": 3266,
      "ev": 3267,
      "ĠDep": 3268,
      "@!": 3269,
      ">&": 3270,
      "Ġentities": 3271,
      "CL": 3272,
      "ins": 3273,
      "Ġtreatment": 3274,
      "Ġdefin": 3275,
      "=/": 3276,
      "ĠData": 3277,
      "nel": 3278,
      "ĠPublic": 3279,
      "ursday": 3280,
      "ĠFore": 3281,
      "int": 3282,
      "ĠThursday": 3283,
      "ĠRep": 3284,
      "ĠII": 3285,
      "ĠWed": 3286,
      "ĠCol": 3287,
      "Ġjudg": 3288,
      "Ġdev": 3289,
      "Ġareas": 3290,
      "Ġconversion": 3291,
      "Ġtransition": 3292,
      "Ġmaturity": 3293,
      "$&": 3294,
      "UE": 3295,
      "=?": 3296,
      "Ġadjustment": 3297,
      "Ġread": 3298,
      ")%": 3299,
      "^(": 3300,
      "eas": 3301,
      "XN": 3302,
      "FW": 3303,
      "ones": 3304,
      "err": 3305,
      "Ġserved": 3306,
      "ĠMH": 3307,
      "FY": 3308,
      "Ġclick": 3309,
      "UZ": 3310,
      "Ġongoing": 3311,
      "Ġsubstantially": 3312,
      "uesday": 3313,
      "force": 3314,
      "Ġpatent": 3315,
      "Ġemerging": 3316,
      "RR": 3317,
      "PI": 3318,
      "emic": 3319,
      "ĠEffect": 3320,
      "-_": 3321,
      "ĠWashington": 3322,
      "ĠTuesday": 3323,
      "Ġcollateral": 3324,
      ")*": 3325,
      "Ġbanking": 3326,
      "TK": 3327,
      "Ġemployment": 3328,
      "^*": 3329,
      "ĠProduct": 3330,
      "Ġplant": 3331,
      "<_": 3332,
      "LK": 3333,
      "Ġpip": 3334,
      "\\+": 3335,
      "Ġdetermine": 3336,
      "Ġclients": 3337,
      "ATUR": 3338,
      "PC": 3339,
      ".#": 3340,
      "Ġclear": 3341,
      "Ġeffects": 3342,
      "<'": 3343,
      "Ġprinciples": 3344,
      "ĠId": 3345,
      "Ġcomput": 3346,
      "ĠAnal": 3347,
      ")/": 3348,
      "ĠTechnolo": 3349,
      "Ġoffice": 3350,
      "ĠName": 3351,
      "DJ": 3352,
      "ott": 3353,
      "Ġrenew": 3354,
      "Ġenh": 3355,
      "iveness": 3356,
      "Ġpartnership": 3357,
      "omson": 3358,
      "Ġoutlook": 3359,
      "Ġmaybe": 3360,
      "nesday": 3361,
      "Ġbrand": 3362,
      "Ġarrangements": 3363,
      "Ġtelephone": 3364,
      "ĠWednesday": 3365,
      "ĠAb": 3366,
      "ĠLoans": 3367,
      "WW": 3368,
      "Ġpurchased": 3369,
      ";-": 3370,
      "TN": 3371,
      "ĠGre": 3372,
      "DY": 3373,
      "Ġundersigned": 3374,
      "thers": 3375,
      "QQ": 3376,
      "Ġpartner": 3377,
      "Ġopinion": 3378,
      "urt": 3379,
      "iday": 3380,
      "TG": 3381,
      "FI": 3382,
      "ĠMond": 3383,
      "Ġput": 3384,
      "incipal": 3385,
      "VM": 3386,
      "[:": 3387,
      "CZ": 3388,
      "ĠEnter": 3389,
      "Ġcore": 3390,
      "ĠMB": 3391,
      "Ġla": 3392,
      "Ġlargest": 3393,
      "[=": 3394,
      "OO": 3395,
      "Ġher": 3396,
      "ĠCalif": 3397,
      "TZ": 3398,
      "ĠMR": 3399,
      "arb": 3400,
      "Ġcomes": 3401,
      "anced": 3402,
      "]#": 3403,
      "ĠReal": 3404,
      "ĠSc": 3405,
      "ISSION": 3406,
      "Ġpartially": 3407,
      "Ġfew": 3408,
      "ouse": 3409,
      "losures": 3410,
      "`%": 3411,
      "illing": 3412,
      "-,": 3413,
      "^&": 3414,
      "ras": 3415,
      "?#": 3416,
      "AA": 3417,
      "itor": 3418,
      "ĠFriday": 3419,
      "\"@": 3420,
      "oting": 3421,
      "WS": 3422,
      "LL": 3423,
      "Ġbal": 3424,
      "Ġunable": 3425,
      "URR": 3426,
      "ĠMess": 3427,
      "Ġestablish": 3428,
      "tt": 3429,
      "Ġintend": 3430,
      "?:": 3431,
      "Ġfell": 3432,
      "\\,": 3433,
      "$@": 3434,
      "Ġnorm": 3435,
      "/(": 3436,
      "Ġagreed": 3437,
      "Ġminimum": 3438,
      ".'": 3439,
      "Ġexcluding": 3440,
      "realized": 3441,
      "Ġgr": 3442,
      "!_": 3443,
      "uations": 3444,
      "Ġsingle": 3445,
      "ĠNational": 3446,
      "Ġoperate": 3447,
      "/'": 3448,
      "Ġattract": 3449,
      "Ġchall": 3450,
      "iring": 3451,
      "ĠMJ": 3452,
      "Ġmajority": 3453,
      "Ġsufficient": 3454,
      "ĠMonday": 3455,
      "ĠControl": 3456,
      "UO": 3457,
      ">_": 3458,
      "ĠCOR": 3459,
      "Ġborrowings": 3460,
      "ĠRo": 3461,
      "Ġprevious": 3462,
      "ĠIndustr": 3463,
      "['": 3464,
      "ĠMonths": 3465,
      "Ġcateg": 3466,
      "\"\"": 3467,
      "Ġclosed": 3468,
      "eful": 3469,
      "asury": 3470,
      "Ġpredict": 3471,
      "$=": 3472,
      "ĠSystem": 3473,
      "Ġlitigation": 3474,
      "Ġfailure": 3475,
      "MP": 3476,
      "ornia": 3477,
      "egment": 3478,
      "+'": 3479,
      "enefit": 3480,
      "Ġcomponents": 3481,
      "ĠJohn": 3482,
      "UG": 3483,
      "Ġgreat": 3484,
      "UX": 3485,
      "Ġissues": 3486,
      "Ġsubm": 3487,
      "Ġfound": 3488,
      "Ġcharter": 3489,
      "Ġiniti": 3490,
      "ĠSouth": 3491,
      "Ġrepurchase": 3492,
      ">:": 3493,
      "Ġsecured": 3494,
      "pped": 3495,
      "ĠCOMMISSION": 3496,
      "Ġconsistent": 3497,
      "tm": 3498,
      "Ġproviding": 3499,
      "Ġlonger": 3500,
      "Ġoutside": 3501,
      ")'": 3502,
      "EF": 3503,
      "[^": 3504,
      "Ġdam": 3505,
      "Ġneeds": 3506,
      "Ġ=": 3507,
      "Ġcome": 3508,
      "itle": 3509,
      "dress": 3510,
      "Ġrelationships": 3511,
      "%!": 3512,
      "Ġchanged": 3513,
      "://": 3514,
      "Ġmultip": 3515,
      "ather": 3516,
      "ĠSIGN": 3517,
      ";^": 3518,
      "KZ": 3519,
      "VO": 3520,
      "Ġadequ": 3521,
      "Ġmentioned": 3522,
      "Ġprogress": 3523,
      "unto": 3524,
      "ĠMAR": 3525,
      "Ġeconomy": 3526,
      "ĠIs": 3527,
      "NA": 3528,
      "ĠUNI": 3529,
      "ĠAdditionally": 3530,
      "ĠCalifornia": 3531,
      "DG": 3532,
      "Ġjurisdiction": 3533,
      "overn": 3534,
      "UW": 3535,
      "Ġrefer": 3536,
      "]+": 3537,
      "Ġfluct": 3538,
      "BM": 3539,
      "Ġrestructuring": 3540,
      "aware": 3541,
      "Ġlicense": 3542,
      "CP": 3543,
      "nov": 3544,
      "tax": 3545,
      "Ġquestions": 3546,
      "Ġeffic": 3547,
      "YO": 3548,
      "BG": 3549,
      "ĠSIGNATUR": 3550,
      "ĠGMT": 3551,
      "care": 3552,
      "Ġcandidates": 3553,
      "VG": 3554,
      "(@": 3555,
      "Ġconvertible": 3556,
      "Ġrealized": 3557,
      "avid": 3558,
      "BI": 3559,
      "ave": 3560,
      "\\*": 3561,
      "Ġoffices": 3562,
      "Ġpartners": 3563,
      "ĠCURR": 3564,
      "sec": 3565,
      "Ġmerger": 3566,
      "Ġsection": 3567,
      "ĠML": 3568,
      "Ġimmediate": 3569,
      ")!": 3570,
      "ZG": 3571,
      "ĠMN": 3572,
      "=:": 3573,
      "Ġenvironmental": 3574,
      "ĠSpec": 3575,
      "CM": 3576,
      "KR": 3577,
      "Ġtrends": 3578,
      "HG": 3579,
      "velopment": 3580,
      "QUITY": 3581,
      "<>": 3582,
      "Ġcoup": 3583,
      "<#": 3584,
      "BX": 3585,
      "Ġwritten": 3586,
      "SA": 3587,
      "BN": 3588,
      "Ġbox": 3589,
      "ĠAcquisition": 3590,
      ";?": 3591,
      "ultane": 3592,
      ")&": 3593,
      "ĠWhile": 3594,
      "ĠLim": 3595,
      "Ġsegments": 3596,
      "ansion": 3597,
      "Ġmaintenance": 3598,
      "Ġapplications": 3599,
      "utical": 3600,
      "ĠChairman": 3601,
      "$'": 3602,
      "ĠAmerican": 3603,
      "VD": 3604,
      "Ġsit": 3605,
      "Ġaffiliates": 3606,
      "ĠME": 3607,
      "]&": 3608,
      "@_": 3609,
      "ĠDepreciation": 3610,
      "VW": 3611,
      "SG": 3612,
      "Ġactually": 3613,
      "Ġadopted": 3614,
      "QX": 3615,
      "porting": 3616,
      "ĠAccounts": 3617,
      "Ġanalysis": 3618,
      "Ġcompetitors": 3619,
      "ĠMP": 3620,
      "ĠWell": 3621,
      "Ġfile": 3622,
      "-&": 3623,
      "-'": 3624,
      "*'": 3625,
      "writ": 3626,
      "$?": 3627,
      "ĠInvestor": 3628,
      "Ġadoption": 3629,
      "Ġcontractual": 3630,
      "Ġrun": 3631,
      "ews": 3632,
      "wh": 3633,
      "Ġsuppli": 3634,
      "Ġtechn": 3635,
      "Ġrecovery": 3636,
      "aff": 3637,
      "aceutical": 3638,
      "ĠMin": 3639,
      "Ġfunding": 3640,
      "Ġdelivery": 3641,
      "CY": 3642,
      "ĠFAS": 3643,
      "Ġside": 3644,
      "Ġanalyst": 3645,
      "FM": 3646,
      ";>": 3647,
      "Ġfuel": 3648,
      "Ġdouble": 3649,
      "ĠNews": 3650,
      "Ġpension": 3651,
      "Ġaccepted": 3652,
      "ERS": 3653,
      "%_": 3654,
      "ael": 3655,
      "ĠDelaware": 3656,
      "quarter": 3657,
      "HN": 3658,
      "Ġpen": 3659,
      "VY": 3660,
      "=+": 3661,
      "Ġselect": 3662,
      "Ġaward": 3663,
      "[]": 3664,
      "[#": 3665,
      "Ġobject": 3666,
      "ĠCURRENT": 3667,
      "ample": 3668,
      "Ġproposed": 3669,
      "Ġrequest": 3670,
      "***": 3671,
      "(_": 3672,
      "Ġfinance": 3673,
      "JO": 3674,
      ")+": 3675,
      "ĠOver": 3676,
      "\\.": 3677,
      "armaceutical": 3678,
      "Ġconting": 3679,
      "olution": 3680,
      "Ġcountries": 3681,
      "=.": 3682,
      "Ġpersonnel": 3683,
      "IK": 3684,
      "Ġentitled": 3685,
      "Ġsimultane": 3686,
      "ĠDiluted": 3687,
      "Ġentire": 3688,
      "Ġleverage": 3689,
      "Ġdistributions": 3690,
      "ĠUNITED": 3691,
      "HZ": 3692,
      "QZ": 3693,
      "$#": 3694,
      ":&": 3695,
      "UY": 3696,
      "=\"": 3697,
      "BD": 3698,
      "Ġcy": 3699,
      "-/": 3700,
      "\\>": 3701,
      "TL": 3702,
      "Ġforecast": 3703,
      "Exact": 3704,
      "gest": 3705,
      "AY": 3706,
      "Ġcoverage": 3707,
      "ĠHealth": 3708,
      "ĠAsia": 3709,
      "including": 3710,
      "issions": 3711,
      "[&": 3712,
      "mark": 3713,
      "ĠRegulation": 3714,
      "ĠTex": 3715,
      "elf": 3716,
      "Ġge": 3717,
      "thomson": 3718,
      "Ġcontinues": 3719,
      "FE": 3720,
      "retion": 3721,
      "Ġcoven": 3722,
      "thomsonreuters": 3723,
      "$_": 3724,
      "avings": 3725,
      ";;": 3726,
      "Ġmix": 3727,
      "Ġrede": 3728,
      "Ġreturns": 3729,
      "BW": 3730,
      "QW": 3731,
      "Ġgenerated": 3732,
      "HS": 3733,
      "UJ": 3734,
      "ĠTransact": 3735,
      "Ġleading": 3736,
      "ĠSubsidi": 3737,
      "Ġz": 3738,
      "eep": 3739,
      "]!": 3740,
      "Ġoperational": 3741,
      "VZ": 3742,
      "FD": 3743,
      "TX": 3744,
      "Ġvis": 3745,
      "ĠOut": 3746,
      "Ġapplication": 3747,
      "Ġcoming": 3748,
      "ĠStr": 3749,
      "-:": 3750,
      "ĠEd": 3751,
      "ĠEm": 3752,
      "TP": 3753,
      "Ġsources": 3754,
      "Ġexposure": 3755,
      "ading": 3756,
      "ĠSTATES": 3757,
      "ellect": 3758,
      "ager": 3759,
      "emn": 3760,
      "[*": 3761,
      "entures": 3762,
      "onciliation": 3763,
      "Ġfunct": 3764,
      "Ġquarters": 3765,
      "VK": 3766,
      "hic": 3767,
      "Ġnor": 3768,
      "Ġautom": 3769,
      "erman": 3770,
      "HP": 3771,
      "ĠRelated": 3772,
      "Ġrepresents": 3773,
      "olving": 3774,
      "AI": 3775,
      "ĠSuch": 3776,
      "FL": 3777,
      "Ġsimultaneously": 3778,
      "-.": 3779,
      "educt": 3780,
      "ellectual": 3781,
      "OVID": 3782,
      "ening": 3783,
      "ivity": 3784,
      "Ġaltern": 3785,
      "^%": 3786,
      "NL": 3787,
      "Ġadvis": 3788,
      "ĠMC": 3789,
      "ately": 3790,
      "ĠIndicate": 3791,
      "FZ": 3792,
      "ĠPAR": 3793,
      "Ġreimb": 3794,
      "QG": 3795,
      "Ġprofitability": 3796,
      "->": 3797,
      "Ġed": 3798,
      "BJ": 3799,
      "\\:": 3800,
      "Ġextended": 3801,
      "Ġrespective": 3802,
      "??": 3803,
      "(,": 3804,
      "ivision": 3805,
      "ĠOne": 3806,
      "Ġve": 3807,
      "Ġins": 3808,
      "ĠMI": 3809,
      "aken": 3810,
      "Ġholding": 3811,
      "<@": 3812,
      "Ġadded": 3813,
      "ĠIdent": 3814,
      "ĠCommercial": 3815,
      "ĠDec": 3816,
      "ĠWeighted": 3817,
      "ograph": 3818,
      "Ġmy": 3819,
      "Ġregistration": 3820,
      ";#": 3821,
      "Ġfocused": 3822,
      "Ġthank": 3823,
      "ĠTexas": 3824,
      "%%%%": 3825,
      "ĠWarrant": 3826,
      "iii": 3827,
      "=#": 3828,
      "Ġmoney": 3829,
      "ĠAmort": 3830,
      "ĠOw": 3831,
      "lass": 3832,
      "Ġacquire": 3833,
      "[+": 3834,
      "Ġtransfer": 3835,
      "Ġseason": 3836,
      ".*": 3837,
      "HW": 3838,
      "<:": 3839,
      "UA": 3840,
      "]'": 3841,
      "^+": 3842,
      "-!": 3843,
      "ĠAustr": 3844,
      ")#": 3845,
      "Ġcompetition": 3846,
      "ĠMid": 3847,
      "cash": 3848,
      "Ġgot": 3849,
      "Ġadvert": 3850,
      "OG": 3851,
      "Ġlaun": 3852,
      "Ġvolatility": 3853,
      "nL": 3854,
      "HJ": 3855,
      "thing": 3856,
      "ulative": 3857,
      "ĠCour": 3858,
      "Ġfurn": 3859,
      ">>": 3860,
      "ready": 3861,
      "Ġimprovement": 3862,
      "arent": 3863,
      "=*": 3864,
      "ĠOP": 3865,
      "ĠCheck": 3866,
      "OLD": 3867,
      "amily": 3868,
      "Ġhaving": 3869,
      "Ġothers": 3870,
      "Ġland": 3871,
      "NM": 3872,
      "?+": 3873,
      "ĠStandard": 3874,
      "wide": 3875,
      "ĠNOTES": 3876,
      "ĠIncentive": 3877,
      "ĠBorrow": 3878,
      "\"&": 3879,
      "ude": 3880,
      "ĠBro": 3881,
      "<,": 3882,
      "Ġprevent": 3883,
      "FJ": 3884,
      "ling": 3885,
      "Ġapproach": 3886,
      "QY": 3887,
      "Ġhand": 3888,
      "ĠRate": 3889,
      "Ġexpansion": 3890,
      "aps": 3891,
      "Ġdecision": 3892,
      "<$": 3893,
      "^:": 3894,
      "TOP": 3895,
      "('": 3896,
      "ASH": 3897,
      "/+": 3898,
      "obile": 3899,
      "Ġvolumes": 3900,
      "Ġqualified": 3901,
      "UD": 3902,
      "BZ": 3903,
      "Ġcompletion": 3904,
      "<\\": 3905,
      "ump": 3906,
      "BP": 3907,
      "ĠCEO": 3908,
      "@,": 3909,
      "================": 3910,
      "Ġtaking": 3911,
      ";+": 3912,
      "Ġopt": 3913,
      ">*": 3914,
      "aster": 3915,
      "ĠSecond": 3916,
      "TT": 3917,
      "ĠAccord": 3918,
      "<*": 3919,
      "Ġsafety": 3920,
      "ichael": 3921,
      "inate": 3922,
      "MX": 3923,
      "HR": 3924,
      "VL": 3925,
      "ustain": 3926,
      "empor": 3927,
      "ĠGovern": 3928,
      "_:": 3929,
      "ĠPartners": 3930,
      "ream": 3931,
      "ĠSFAS": 3932,
      "Ġalready": 3933,
      "Ġdiscussion": 3934,
      "Ġsector": 3935,
      "Ġmember": 3936,
      "arks": 3937,
      "Ġsubs": 3938,
      "Ġconcern": 3939,
      "!'": 3940,
      "lemental": 3941,
      "Ġassessment": 3942,
      "Reporting": 3943,
      "Ġcopy": 3944,
      "VR": 3945,
      "/&": 3946,
      "JG": 3947,
      "osp": 3948,
      "QK": 3949,
      "Ġmil": 3950,
      "rior": 3951,
      "Ġcommod": 3952,
      "vant": 3953,
      "Ġrein": 3954,
      "^\"": 3955,
      "Ġhtt": 3956,
      "BY": 3957,
      "CD": 3958,
      "ollars": 3959,
      "ĠMU": 3960,
      "=,": 3961,
      "oted": 3962,
      "ĠEmployer": 3963,
      "/$": 3964,
      "Ġes": 3965,
      "az": 3966,
      "Ġresulted": 3967,
      "ĠMc": 3968,
      "ĠUp": 3969,
      "Ġtechnologies": 3970,
      "QR": 3971,
      "ĠĠĠĠĠĠĠĠĠĠ": 3972,
      "State": 3973,
      ";*": 3974,
      "ĠSte": 3975,
      "-$": 3976,
      "ĠMessaging": 3977,
      "Ġthough": 3978,
      "ĠChanges": 3979,
      "Ġinvesting": 3980,
      "[,": 3981,
      "Ġdesigned": 3982,
      "\\'": 3983,
      "icial": 3984,
      "sel": 3985,
      "time": 3986,
      "?'": 3987,
      "^]": 3988,
      "Ġlines": 3989,
      "Ġmanufactur": 3990,
      "EI": 3991,
      "FN": 3992,
      "Ġhome": 3993,
      "Date": 3994,
      "-*": 3995,
      "ĠComb": 3996,
      "CG": 3997,
      "eets": 3998,
      "Ġhighly": 3999,
      "QL": 4000,
      "Ġdomestic": 4001,
      "VI": 4002,
      "CN": 4003,
      "Ġearliest": 4004,
      "Ġnotice": 4005,
      "ZO": 4006,
      "Ġhowever": 4007,
      "ĠCOVID": 4008,
      "\\#": 4009,
      "olit": 4010,
      "=!": 4011,
      "rastr": 4012,
      "app": 4013,
      "QM": 4014,
      ")\"": 4015,
      "SW": 4016,
      "^#": 4017,
      "Ġexample": 4018,
      "ĠForward": 4019,
      "izations": 4020,
      "Ġnature": 4021,
      "interest": 4022,
      "Ġsort": 4023,
      "Ġinflation": 4024,
      "FK": 4025,
      "Ġindicated": 4026,
      "Ġmeans": 4027,
      "news": 4028,
      "ĠLevel": 4029,
      "Ġactive": 4030,
      "<+": 4031,
      "Ġimpacted": 4032,
      "ĠOR": 4033,
      "XY": 4034,
      "/!": 4035,
      "ĠTele": 4036,
      "%+": 4037,
      "ĠGold": 4038,
      "?,": 4039,
      "HY": 4040,
      "(!": 4041,
      "`#": 4042,
      "/:": 4043,
      "VN": 4044,
      "ool": 4045,
      "ĠRelations": 4046,
      "ift": 4047,
      "The": 4048,
      "LY": 4049,
      "erson": 4050,
      "quare": 4051,
      "inations": 4052,
      "Ġcomply": 4053,
      "Ġyen": 4054,
      "bted": 4055,
      "AW": 4056,
      "Ġreflected": 4057,
      "@+": 4058,
      "ici": 4059,
      ";=": 4060,
      "`'": 4061,
      "ape": 4062,
      "Ġrestrictions": 4063,
      "%'": 4064,
      "down": 4065,
      "ĠPower": 4066,
      "@'": 4067,
      "MG": 4068,
      "Ġprotect": 4069,
      "ĠCanada": 4070,
      "FP": 4071,
      "Ġincentive": 4072,
      "ĠPrincipal": 4073,
      "'m": 4074,
      "ĠFurther": 4075,
      "rastructure": 4076,
      "CW": 4077,
      "Ġcommitments": 4078,
      "Ġindustrial": 4079,
      "TSE": 4080,
      "ĠIII": 4081,
      "ĠPrior": 4082,
      "ne": 4083,
      "perform": 4084,
      "Ġmedical": 4085,
      "VP": 4086,
      "Ġredemption": 4087,
      "ĠDescription": 4088,
      "VJ": 4089,
      "Ġparticularly": 4090,
      "Ġelected": 4091,
      "_#": 4092,
      "da": 4093,
      "FT": 4094,
      "Ġbl": 4095,
      "[[": 4096,
      "\":": 4097,
      "ĠAustral": 4098,
      "Ġslow": 4099,
      "rease": 4100,
      "^\\": 4101,
      "ĠMT": 4102,
      "Ġcalculated": 4103,
      "ĠCourt": 4104,
      "oot": 4105,
      "rect": 4106,
      "AK": 4107,
      "aker": 4108,
      "ull": 4109,
      "Ġdiscontinued": 4110,
      "Ġchalleng": 4111,
      "Ġmax": 4112,
      ";]": 4113,
      "ĠFiscal": 4114,
      "Ġlater": 4115,
      "``@`": 4116,
      "?$": 4117,
      "Ġgrowing": 4118,
      "DW": 4119,
      "Ġaccounted": 4120,
      "%>": 4121,
      "HHH": 4122,
      "ĠPlease": 4123,
      "Ġreserve": 4124,
      "ĠSTOCK": 4125,
      "Ġbalances": 4126,
      "BE": 4127,
      "ZW": 4128,
      "Ġtrials": 4129,
      "btedness": 4130,
      "ĠAsset": 4131,
      "Ġintellectual": 4132,
      "DP": 4133,
      "OX": 4134,
      "Ġstores": 4135,
      "iff": 4136,
      "iqu": 4137,
      "istics": 4138,
      "QS": 4139,
      "%:": 4140,
      "controlling": 4141,
      "eria": 4142,
      "Ġspace": 4143,
      "(`\"": 4144,
      "RP": 4145,
      "Ġreli": 4146,
      "Ġsole": 4147,
      "Ġbroker": 4148,
      "ĠFASB": 4149,
      "OP": 4150,
      "Ġsy": 4151,
      "?>": 4152,
      ";,": 4153,
      "UU": 4154,
      "Ġuseful": 4155,
      "Ġfilings": 4156,
      "Ġ_": 4157,
      "Ġidentified": 4158,
      "Ġfutures": 4159,
      "Ġdivers": 4160,
      "ZK": 4161,
      "itch": 4162,
      "Ġjoin": 4163,
      "Ġeffectiveness": 4164,
      "LS": 4165,
      "Ġtimes": 4166,
      "Ġimproved": 4167,
      "ĠLimited": 4168,
      "-(": 4169,
      "XP": 4170,
      "&!": 4171,
      "ĠIdentification": 4172,
      "Ġinitiatives": 4173,
      "ĠIND": 4174,
      "MY": 4175,
      "paid": 4176,
      "amed": 4177,
      "%#": 4178,
      "Ġinstitutions": 4179,
      "Ġreasonably": 4180,
      "Ġidentify": 4181,
      "^,": 4182,
      "words": 4183,
      "Ġ--------------------------------": 4184,
      "ually": 4185,
      "ĠWest": 4186,
      "./": 4187,
      "\\$": 4188,
      "ĠPRO": 4189,
      "Ġcountry": 4190,
      "ĠFact": 4191,
      "ĠAmended": 4192,
      "ĠDevelopment": 4193,
      "stitute": 4194,
      "Ġfavorable": 4195,
      "Ġdelay": 4196,
      "ĠThree": 4197,
      ")$": 4198,
      "ANT": 4199,
      "NN": 4200,
      "ception": 4201,
      "ĠAut": 4202,
      "Ġachie": 4203,
      ";!": 4204,
      "Ġincorporation": 4205,
      "ĠAssoc": 4206,
      "`****": 4207,
      "ĠAlthough": 4208,
      "ĠPay": 4209,
      "ĠKeywords": 4210,
      "ison": 4211,
      "\"$": 4212,
      "ĠInsurance": 4213,
      "MR": 4214,
      "Ġsom": 4215,
      "Ġtraded": 4216,
      "Ġrise": 4217,
      "Ġtog": 4218,
      "ĠDef": 4219,
      "ĠBu": 4220,
      "IW": 4221,
      "Ġconclud": 4222,
      "%*": 4223,
      "Ġmer": 4224,
      "Ġoperation": 4225,
      "ĠStockholders": 4226,
      "[/": 4227,
      "aring": 4228,
      "<]": 4229,
      "[!": 4230,
      "Ġsustain": 4231,
      "ĠRevenues": 4232,
      "Ġavailability": 4233,
      "IAR": 4234,
      "apter": 4235,
      "KK": 4236,
      "<=": 4237,
      "[@": 4238,
      "ipp": 4239,
      "ĠGas": 4240,
      "Ġrecognition": 4241,
      "HX": 4242,
      "Ġgenerate": 4243,
      "aper": 4244,
      "Ġtra": 4245,
      "Ġvehic": 4246,
      "Ġknown": 4247,
      "Ġtogether": 4248,
      "Ġbuilding": 4249,
      "JR": 4250,
      "ĠBasic": 4251,
      "ery": 4252,
      "Ġdefault": 4253,
      "`!``": 4254,
      "[\\": 4255,
      ">(": 4256,
      "YG": 4257,
      "aur": 4258,
      "Ġimprovements": 4259,
      "essional": 4260,
      "Ġunless": 4261,
      "Ġaccumulated": 4262,
      "%&": 4263,
      "ĠInternal": 4264,
      "ĠOfficers": 4265,
      ";\"": 4266,
      ":*": 4267,
      "-?": 4268,
      "log": 4269,
      "(\"`@(\"`@(\"`@(\"`@": 4270,
      "ĠAmortization": 4271,
      "Ġdoing": 4272,
      "<^": 4273,
      "VS": 4274,
      "Ġslight": 4275,
      "EWS": 4276,
      "UQ": 4277,
      "DX": 4278,
      "view": 4279,
      "ĠSch": 4280,
      "ĠFrom": 4281,
      "Ġstatut": 4282,
      "ĠASC": 4283,
      "ricted": 4284,
      "Ġpipeline": 4285,
      "Ġtaken": 4286,
      "Ġinvolve": 4287,
      "Ġcut": 4288,
      "enders": 4289,
      "JM": 4290,
      "CB": 4291,
      "FA": 4292,
      "NX": 4293,
      "ĠIssu": 4294,
      "Ġplease": 4295,
      "````````": 4296,
      "Ġrent": 4297,
      "Ġtypically": 4298,
      "Ġnine": 4299,
      "[\"": 4300,
      "losed": 4301,
      "Ġhapp": 4302,
      "/,": 4303,
      "ZZ": 4304,
      "ĠBased": 4305,
      "............": 4306,
      "DO": 4307,
      "Ġprepared": 4308,
      "Ġwholly": 4309,
      "Ġelectric": 4310,
      "Ġevaluation": 4311,
      "yond": 4312,
      "ĠForeign": 4313,
      "Ġdro": 4314,
      "\\\\": 4315,
      "Ġtherefore": 4316,
      "_?": 4317,
      "+:": 4318,
      "Ġcentral": 4319,
      "ĠContract": 4320,
      "Ġdollars": 4321,
      "_>": 4322,
      "Ġhereunto": 4323,
      "Ġcomment": 4324,
      ";.": 4325,
      "UI": 4326,
      "VQ": 4327,
      "market": 4328,
      "KL": 4329,
      "onus": 4330,
      "ANCE": 4331,
      "Ġlimitations": 4332,
      "/\"": 4333,
      "Ġconsolid": 4334,
      "^@": 4335,
      "ĠPet": 4336,
      "$*": 4337,
      "Ġanticipate": 4338,
      "ico": 4339,
      "Ġshareholder": 4340,
      "Ġbeyond": 4341,
      "Ġcovenants": 4342,
      "WN": 4343,
      "Ġago": 4344,
      "]]": 4345,
      "htm": 4346,
      "umulative": 4347,
      "Ġult": 4348,
      "secured": 4349,
      "ĠOption": 4350,
      "pec": 4351,
      "ĠProceed": 4352,
      "Ġ------------": 4353,
      "ĠEPS": 4354,
      "ĠAud": 4355,
      "Ġcomponent": 4356,
      "/@": 4357,
      "Ġclassified": 4358,
      ";@": 4359,
      "YT": 4360,
      "ĠDistribut": 4361,
      "ĠFinance": 4362,
      "OB": 4363,
      "-=": 4364,
      "ĠPurch": 4365,
      "^>": 4366,
      "ĠHigh": 4367,
      "Ġenc": 4368,
      "[(": 4369,
      "%(": 4370,
      "\\&": 4371,
      "Ġevaluating": 4372,
      "+&": 4373,
      "Ġtaxable": 4374,
      "att": 4375,
      "der": 4376,
      "Address": 4377,
      "YX": 4378,
      "QP": 4379,
      "\\(": 4380,
      "Ġreceivables": 4381,
      "^$": 4382,
      "Ġtransport": 4383,
      "Ġcontains": 4384,
      "Ġstructure": 4385,
      "ĠSell": 4386,
      "ĠLess": 4387,
      "YK": 4388,
      "Ġrecently": 4389,
      "NR": 4390,
      "Ġvariable": 4391,
      "partment": 4392,
      "Ġorders": 4393,
      "/*": 4394,
      "Ġinvestor": 4395,
      "Ġamend": 4396,
      "daq": 4397,
      ":@": 4398,
      "ĠPhase": 4399,
      "SR": 4400,
      "?*": 4401,
      "ĠFlow": 4402,
      "Ġobviously": 4403,
      "TJ": 4404,
      "SX": 4405,
      "Ġpass": 4406,
      "Ġpret": 4407,
      "Ġlabor": 4408,
      "Ġearned": 4409,
      "Ġ****": 4410,
      "Ġprobably": 4411,
      "\"*": 4412,
      "Ġcommittee": 4413,
      "Ġnormal": 4414,
      "^!": 4415,
      "ms": 4416,
      "+*": 4417,
      "^.": 4418,
      "enses": 4419,
      "MB": 4420,
      "ench": 4421,
      "`****`\"": 4422,
      "ĠMF": 4423,
      "Ġabs": 4424,
      "iam": 4425,
      "-)": 4426,
      "Ġthroughout": 4427,
      "_@": 4428,
      "orage": 4429,
      "Ġserve": 4430,
      "?!": 4431,
      "ino": 4432,
      "VC": 4433,
      "iled": 4434,
      ":'": 4435,
      "ĠAccordingly": 4436,
      "ĠREIT": 4437,
      "TF": 4438,
      "Ġpatents": 4439,
      "otes": 4440,
      "Ġsuccessfully": 4441,
      "Ġengine": 4442,
      "ush": 4443,
      "with": 4444,
      "ĠBe": 4445,
      "ĠAdditional": 4446,
      "Ġpenal": 4447,
      "GZ": 4448,
      "ĠCORPOR": 4449,
      "Ġreimburse": 4450,
      "Ġorganization": 4451,
      "_*": 4452,
      "SL": 4453,
      "+#": 4454,
      "-;": 4455,
      "Ġpretty": 4456,
      "Ġens": 4457,
      "?&": 4458,
      "(`\"``@`": 4459,
      "Ġimmediately": 4460,
      "ĠPrivate": 4461,
      "Ġpct": 4462,
      "JX": 4463,
      "Ġmultiple": 4464,
      "ĠAgent": 4465,
      "Ġeffici": 4466,
      "_,": 4467,
      "AZ": 4468,
      "Ġamortized": 4469,
      "ĠUnits": 4470,
      "ĠHHHH": 4471,
      "$,": 4472,
      "\\!": 4473,
      ":#": 4474,
      "Ġspending": 4475,
      "prietary": 4476,
      "[;": 4477,
      "Ġcarri": 4478,
      "GW": 4479,
      "owned": 4480,
      "`$`!``": 4481,
      "asdaq": 4482,
      "-%": 4483,
      ")]": 4484,
      "LI": 4485,
      "Ġagencies": 4486,
      "Ġinstall": 4487,
      ".&": 4488,
      "TQ": 4489,
      "$(": 4490,
      "NC": 4491,
      ")>": 4492,
      "NP": 4493,
      "OC": 4494,
      "Ġcases": 4495,
      "ĠService": 4496,
      "prise": 4497,
      "ruptcy": 4498,
      "Ġvi": 4499,
      "ĠGerman": 4500,
      "YY": 4501,
      "DM": 4502,
      "igible": 4503,
      "Ġlate": 4504,
      "bo": 4505,
      "ened": 4506,
      "_'": 4507,
      "ett": 4508,
      "aint": 4509,
      "Ġunderwrit": 4510,
      "Ġvoting": 4511,
      "-]": 4512,
      "OE": 4513,
      "emporary": 4514,
      "Ġtimely": 4515,
      "Ġexclus": 4516,
      "ars": 4517,
      "Ġhard": 4518,
      "umm": 4519,
      "Ġadvertising": 4520,
      "ĠASU": 4521,
      "Ġprotection": 4522,
      "Ġ[.": 4523,
      "Ġstore": 4524,
      "Ġdeveloped": 4525,
      "ep": 4526,
      "Ġfre": 4527,
      "Ġyet": 4528,
      "ĠSIGNATURES": 4529,
      "HM": 4530,
      "\\@": 4531,
      "Ġrevised": 4532,
      "Ġelim": 4533,
      "Ġdisclosures": 4534,
      "ĠSign": 4535,
      "Ġsaw": 4536,
      "%;": 4537,
      "ĠRestated": 4538,
      "anged": 4539,
      "UV": 4540,
      "GR": 4541,
      "IBOR": 4542,
      "ĠGr": 4543,
      "Ġinfrastructure": 4544,
      "SZ": 4545,
      "QJ": 4546,
      "earing": 4547,
      "Ġattached": 4548,
      "ĠMedic": 4549,
      "##": 4550,
      "-@": 4551,
      "Ġnational": 4552,
      "DL": 4553,
      "Ġappoint": 4554,
      "PW": 4555,
      "IARIES": 4556,
      "ĠEffective": 4557,
      "Ġventure": 4558,
      "EA": 4559,
      "ern": 4560,
      "EK": 4561,
      "Ġinvestig": 4562,
      "au": 4563,
      "Ġending": 4564,
      "lim": 4565,
      "<(": 4566,
      "ĠCOMP": 4567,
      "ĠLiabilities": 4568,
      "HC": 4569,
      "Ġmonthly": 4570,
      "enchmark": 4571,
      "Ġrelevant": 4572,
      "Ġindebtedness": 4573,
      "lies": 4574,
      "\"`": 4575,
      "Ġsavings": 4576,
      "Ġexhib": 4577,
      "ĠGe": 4578,
      "Ġspread": 4579,
      "\\%": 4580,
      "=]": 4581,
      "ĠYears": 4582,
      "EZ": 4583,
      "ertificate": 4584,
      "Ġwr": 4585,
      "&,": 4586,
      "Commission": 4587,
      "ĠMac": 4588,
      "Ġassumed": 4589,
      "Ġtesting": 4590,
      "Ġproxy": 4591,
      "Ġdelivered": 4592,
      "Ġstand": 4593,
      "Reg": 4594,
      "Ġcompr": 4595,
      "Ġforma": 4596,
      "?@": 4597,
      "ĠEach": 4598,
      "ĠSched": 4599,
      "Ġeuro": 4600,
      "Ġexperienced": 4601,
      "fe": 4602,
      "_+": 4603,
      "ĠSUBS": 4604,
      "Ġhttp": 4605,
      "Ġ;": 4606,
      "Ġstated": 4607,
      "YR": 4608,
      "Ġ========": 4609,
      "=(": 4610,
      "ĠCommun": 4611,
      "=$": 4612,
      "OU": 4613,
      "ĠFactors": 4614,
      "GG": 4615,
      "ĠSm": 4616,
      "HQ": 4617,
      "?\"": 4618,
      "OZ": 4619,
      "incorporated": 4620,
      "^)": 4621,
      "FU": 4622,
      "aily": 4623,
      "HIBIT": 4624,
      "ration": 4625,
      "Ġinnov": 4626,
      "ease": 4627,
      "Ġflo": 4628,
      "Ġexpects": 4629,
      "Ġaccelerated": 4630,
      ">#": 4631,
      "XK": 4632,
      "ĠSolic": 4633,
      "Ġresidential": 4634,
      "LW": 4635,
      "ges": 4636,
      ".[": 4637,
      "ĠEXHIBIT": 4638,
      "Ġelectron": 4639,
      "SM": 4640,
      "itative": 4641,
      "ĠBanc": 4642,
      "ĠWor": 4643,
      "_\"": 4644,
      ".!": 4645,
      "Ġpersons": 4646,
      "vertible": 4647,
      "DZ": 4648,
      "Ġreflects": 4649,
      "Ġsuper": 4650,
      "Ġfind": 4651,
      "Ġdigital": 4652,
      "ĠGain": 4653,
      "=@": 4654,
      "Ġ----------------": 4655,
      "illed": 4656,
      "Ġresponsible": 4657,
      "=%": 4658,
      "Ġ----": 4659,
      "YW": 4660,
      "DK": 4661,
      "HV": 4662,
      "XI": 4663,
      "+,": 4664,
      "Ġcounter": 4665,
      "Ġtry": 4666,
      "Ġphys": 4667,
      "ĠBec": 4668,
      "OJ": 4669,
      "<;": 4670,
      "onse": 4671,
      ".(": 4672,
      "mission": 4673,
      "Ġsummar": 4674,
      "Ġchann": 4675,
      "Ġrevolving": 4676,
      "ĠUnivers": 4677,
      "DAQ": 4678,
      "elve": 4679,
      "ĠSUBSID": 4680,
      "ĠPort": 4681,
      "Ġkeep": 4682,
      "ĠWhen": 4683,
      "Ġcard": 4684,
      "ĠPat": 4685,
      "](": 4686,
      "Ġcorporation": 4687,
      "Ġinputs": 4688,
      "?%": 4689,
      "Ġmanner": 4690,
      "Ġstudy": 4691,
      "Ġrental": 4692,
      "Ġcriteria": 4693,
      "CJ": 4694,
      "MZ": 4695,
      "me": 4696,
      "Ch": 4697,
      "/>": 4698,
      "Ġplay": 4699,
      "Ġpurchases": 4700,
      "RW": 4701,
      "Ġtotaled": 4702,
      "ĠMarkets": 4703,
      "Ġstates": 4704,
      "Ġsummary": 4705,
      ".>": 4706,
      "Ġevaluate": 4707,
      "idge": 4708,
      "ways": 4709,
      "ody": 4710,
      "`%%%%": 4711,
      "`&": 4712,
      "HU": 4713,
      "Ġproprietary": 4714,
      "Ġbid": 4715,
      "RK": 4716,
      "ĠMex": 4717,
      "ature": 4718,
      "Ġsite": 4719,
      "ĠBecause": 4720,
      "Ġalong": 4721,
      "Ġbar": 4722,
      "<\"": 4723,
      "Ġdrive": 4724,
      "ĠPR": 4725,
      "_!": 4726,
      "pected": 4727,
      "/[": 4728,
      "Ġsuppliers": 4729,
      "ifically": 4730,
      "HT": 4731,
      "uled": 4732,
      "ĠBar": 4733,
      "Ġtype": 4734,
      "br": 4735,
      "BF": 4736,
      "Ġordinary": 4737,
      "onsor": 4738,
      "SK": 4739,
      "GI": 4740,
      "=)": 4741,
      "Ġlisted": 4742,
      "aration": 4743,
      "ĠInde": 4744,
      "_$": 4745,
      "=;": 4746,
      "NJ": 4747,
      "tra": 4748,
      "<%": 4749,
      "Ġhedge": 4750,
      "herent": 4751,
      "Ġnegot": 4752,
      "ĠPage": 4753,
      "ĠSince": 4754,
      "ĠAdvis": 4755,
      "urring": 4756,
      "lements": 4757,
      "Ġoriginal": 4758,
      "elines": 4759,
      "Company": 4760,
      "Ġretirement": 4761,
      "Ġask": 4762,
      "Ġguess": 4763,
      "BU": 4764,
      "Ġcouple": 4765,
      "ĠCORPORATION": 4766,
      "+>": 4767,
      "Ġindemn": 4768,
      "@*": 4769,
      "/%": 4770,
      "uck": 4771,
      "Ġremains": 4772,
      "GM": 4773,
      "Ġfar": 4774,
      "&*": 4775,
      "Value": 4776,
      "Ġfin": 4777,
      "Ġcontributions": 4778,
      "Ġunrealized": 4779,
      "Fair": 4780,
      "Ġuncertainty": 4781,
      "VU": 4782,
      "\\-": 4783,
      "Ġ|": 4784,
      "ĠThird": 4785,
      "Ġ?": 4786,
      "Continued": 4787,
      "Ġraise": 4788,
      "ĠPrice": 4789,
      "^[": 4790,
      "XZ": 4791,
      "Ġintro": 4792,
      "Ġhealthcare": 4793,
      ";(": 4794,
      "ĠSecurity": 4795,
      "XW": 4796,
      "EE": 4797,
      "Ġvesting": 4798,
      "Ġoptim": 4799,
      "Ġadvant": 4800,
      "Ġparticipants": 4801,
      "Ġfluctuations": 4802,
      "HA": 4803,
      "Ġprojected": 4804,
      "PK": 4805,
      "Ġauthorities": 4806,
      "YZ": 4807,
      "Ġvariety": 4808,
      "Ġdifferences": 4809,
      "ĠReserve": 4810,
      "$:": 4811,
      "Ġhot": 4812,
      "VT": 4813,
      "]-": 4814,
      "Ġalternative": 4815,
      "$>": 4816,
      "Ġmis": 4817,
      "Ġquick": 4818,
      "DT": 4819,
      "++": 4820,
      "ĠWritten": 4821,
      "!@": 4822,
      "Ġdeduct": 4823,
      "Ġrecognize": 4824,
      "XJ": 4825,
      "GN": 4826,
      "Ġcollabor": 4827,
      "GK": 4828,
      "BQ": 4829,
      "ordinated": 4830,
      "Ġcred": 4831,
      "Th": 4832,
      "Ġslightly": 4833,
      "Ġpractices": 4834,
      "Ġindicate": 4835,
      "ĠNone": 4836,
      "_&": 4837,
      "Ġroyal": 4838,
      "ASDAQ": 4839,
      ".@": 4840,
      "ĠBenef": 4841,
      "Ġregulation": 4842,
      "ĠInvestments": 4843,
      "=-": 4844,
      "Ġmonitor": 4845,
      "Ġvote": 4846,
      "])": 4847,
      "\\\"": 4848,
      "ĠSegment": 4849,
      "GS": 4850,
      "Ġgeneration": 4851,
      "ancy": 4852,
      "sw": 4853,
      "Ġunf": 4854,
      "\\^": 4855,
      "Ġforec": 4856,
      "DU": 4857,
      "Ġtrack": 4858,
      "ĠLease": 4859,
      "Ġmeasured": 4860,
      "ĠTaxes": 4861,
      "dens": 4862,
      "<[": 4863,
      "(*": 4864,
      "Ġprocessing": 4865,
      "+\"": 4866,
      "IJ": 4867,
      "Ġuses": 4868,
      ":,": 4869,
      "RM": 4870,
      "BV": 4871,
      "Ġfoot": 4872,
      "Ġinherent": 4873,
      "Ġexc": 4874,
      "cons": 4875,
      "/;": 4876,
      "Ġeuros": 4877,
      "Ġderivatives": 4878,
      "GJ": 4879,
      "RL": 4880,
      "Ġmeasurement": 4881,
      "Ġlegis": 4882,
      "]%": 4883,
      "Ġgeograph": 4884,
      "ARY": 4885,
      "Ġproviders": 4886,
      "ĠLet": 4887,
      "'!": 4888,
      "<-": 4889,
      "Ġair": 4890,
      "ĠTitle": 4891,
      "Ġstrategies": 4892,
      "Ġguys": 4893,
      "Ġtechnical": 4894,
      "oper": 4895,
      "Ġsize": 4896,
      "ĠRed": 4897,
      "Ġpremiums": 4898,
      "YM": 4899,
      "Ġgoods": 4900,
      "\\)": 4901,
      "aining": 4902,
      "Ġanalysts": 4903,
      "andemic": 4904,
      "Ġdiscretion": 4905,
      "];": 4906,
      "NE": 4907,
      "Ġcell": 4908,
      "OI": 4909,
      "AE": 4910,
      "FV": 4911,
      "Ġdocuments": 4912,
      "eff": 4913,
      "Ġfiler": 4914,
      "ĠDavid": 4915,
      "ĠProducts": 4916,
      "Loss": 4917,
      "ministration": 4918,
      "Ġadequate": 4919,
      ",,": 4920,
      "`%%%%`!": 4921,
      "]\"": 4922,
      "+!": 4923,
      "Ġfranch": 4924,
      "GX": 4925,
      "pite": 4926,
      "Ġbring": 4927,
      "Ġcommodity": 4928,
      "FairValue": 4929,
      "Ġdates": 4930,
      "^;": 4931,
      "ĠEst": 4932,
      "]@": 4933,
      "HD": 4934,
      "aight": 4935,
      "#!": 4936,
      "ESS": 4937,
      "WM": 4938,
      "GC": 4939,
      "ĠCondition": 4940,
      "RI": 4941,
      "PZ": 4942,
      "ĠCity": 4943,
      "Ġproceedings": 4944,
      "Ġjudgment": 4945,
      "?(": 4946,
      "ĠAS": 4947,
      "Ġseparate": 4948,
      "iture": 4949,
      "QI": 4950,
      "lu": 4951,
      "aired": 4952,
      "ĠSan": 4953,
      "Ġpressure": 4954,
      "Ġpurpose": 4955,
      "Ġthereto": 4956,
      "aul": 4957,
      "Ġsquare": 4958,
      "OY": 4959,
      "Ġallocated": 4960,
      "PT": 4961,
      "Ġdeg": 4962,
      "PX": 4963,
      "ĠConvertible": 4964,
      "ĠGoodwill": 4965,
      "Ġundert": 4966,
      "Ġflat": 4967,
      "ĠAccrued": 4968,
      "ĠHome": 4969,
      "Ġexplor": 4970,
      "ething": 4971,
      "#'": 4972,
      "@\"": 4973,
      "Ġindirect": 4974,
      "THER": 4975,
      "(`\"``@`(`\"``@`": 4976,
      "NT": 4977,
      "Ġamendment": 4978,
      "*,": 4979,
      "Ġenforce": 4980,
      "PH": 4981,
      "Ġhereto": 4982,
      "QC": 4983,
      "Ġenhance": 4984,
      "QT": 4985,
      "Ġbasic": 4986,
      "VV": 4987,
      "EUR": 4988,
      "Ġcorrect": 4989,
      ":!": 4990,
      "$\"": 4991,
      "`,": 4992,
      "ĠDividend": 4993,
      "=^": 4994,
      "JL": 4995,
      "ĠSUBSIDIARIES": 4996,
      ")-": 4997,
      "Ġcontingent": 4998,
      "Form": 4999,
      "Ġreplace": 5000,
      "Le": 5001,
      "*\"": 5002,
      "Ġpublicly": 5003,
      "Ġperformed": 5004,
      "Ġwhole": 5005,
      ":_": 5006,
      "Ġpermitted": 5007,
      "WA": 5008,
      "ĠOil": 5009,
      "Ġcomplex": 5010,
      "ĠSoliciting": 5011,
      "ĠAmount": 5012,
      "ris": 5013,
      "easure": 5014,
      "Ġresponse": 5015,
      "Ġdone": 5016,
      "Ġsomething": 5017,
      "ĠSubsidiaries": 5018,
      "raft": 5019,
      "see": 5020,
      "Ġaccording": 5021,
      "WZ": 5022,
      "gical": 5023,
      "Ġdeveloping": 5024,
      ">!": 5025,
      "comes": 5026,
      "Ġobtained": 5027,
      "tic": 5028,
      "Ġwater": 5029,
      "Ġeligible": 5030,
      "ĠAccumulated": 5031,
      "Ġpotentially": 5032,
      "junct": 5033,
      "Ġple": 5034,
      "&&": 5035,
      "WK": 5036,
      "aced": 5037,
      "Ġrepurch": 5038,
      "formance": 5039,
      "gen": 5040,
      "/?": 5041,
      "ĠWall": 5042,
      "ience": 5043,
      "ike": 5044,
      "ĠPar": 5045,
      "ocu": 5046,
      "QV": 5047,
      "MD": 5048,
      "olitical": 5049,
      ".$": 5050,
      "NH": 5051,
      "ills": 5052,
      ";[": 5053,
      "Ġremed": 5054,
      "BH": 5055,
      "JY": 5056,
      "Ġeffectively": 5057,
      "Ġcovered": 5058,
      "ML": 5059,
      "Ġchapter": 5060,
      "Ġbonus": 5061,
      "ĠTreasury": 5062,
      "ĠQuarterly": 5063,
      "Ġ)%": 5064,
      "ĠAudit": 5065,
      "wan": 5066,
      "GA": 5067,
      "ospital": 5068,
      "Ġplanned": 5069,
      "._": 5070,
      "Ġensure": 5071,
      "Ġlaunch": 5072,
      "Ġleaders": 5073,
      "place": 5074,
      "point": 5075,
      "Ġpersonal": 5076,
      "ĠSumm": 5077,
      "Ġprofits": 5078,
      "empt": 5079,
      "omin": 5080,
      "ĠAlso": 5081,
      "ĠEv": 5082,
      "ĠRelease": 5083,
      "QD": 5084,
      "Ġquant": 5085,
      "ifying": 5086,
      "And": 5087,
      "Ġdisclosed": 5088,
      "Ġvary": 5089,
      ")@": 5090,
      "Ġmatter": 5091,
      "RY": 5092,
      "Ġchar": 5093,
      "%%%": 5094,
      "ĠTechnology": 5095,
      "Ġdrilling": 5096,
      "ĠFD": 5097,
      "ution": 5098,
      "Ġconducted": 5099,
      "QA": 5100,
      "Ġsource": 5101,
      "ĠRestricted": 5102,
      "RZ": 5103,
      ">+": 5104,
      "Ġofferings": 5105,
      ":+": 5106,
      "Ġcapitalized": 5107,
      "Ġsure": 5108,
      ">@": 5109,
      "]=": 5110,
      "Ġpenalties": 5111,
      "Ġstatus": 5112,
      "Ġchief": 5113,
      "Ġnegatively": 5114,
      "atch": 5115,
      "ĠCustom": 5116,
      "JU": 5117,
      "[$": 5118,
      "Ġprofessional": 5119,
      "TU": 5120,
      "lived": 5121,
      "EH": 5122,
      "Ġbenchmark": 5123,
      "KETS": 5124,
      ",'": 5125,
      "Ġwa": 5126,
      ":?": 5127,
      "itation": 5128,
      "Ġdependent": 5129,
      "ĠOPER": 5130,
      "RU": 5131,
      "Ġdocument": 5132,
      "/-": 5133,
      "Ġcalcul": 5134,
      "ĠWorld": 5135,
      "NV": 5136,
      "ĠPeriod": 5137,
      "ĠDis": 5138,
      "Ġstraight": 5139,
      "agn": 5140,
      "ĠWill": 5141,
      "Ġcrude": 5142,
      "IY": 5143,
      "Ġharm": 5144,
      "Ġconsumm": 5145,
      "ĠNow": 5146,
      "ille": 5147,
      "ĠDA": 5148,
      "\\=": 5149,
      "IRS": 5150,
      ".?": 5151,
      "ĠInvestors": 5152,
      "Ġtypes": 5153,
      "cluding": 5154,
      ".+": 5155,
      "DV": 5156,
      "Ġcapabilities": 5157,
      "Ġdiary": 5158,
      "/)": 5159,
      "Ġfeel": 5160,
      "ĠShareholders": 5161,
      "ĠResources": 5162,
      "Ġlocations": 5163,
      "*#": 5164,
      "ĠDocu": 5165,
      "Ġmaximum": 5166,
      "%?": 5167,
      "'-": 5168,
      "ĠProgram": 5169,
      "]$": 5170,
      "ĠUniversity": 5171,
      "RT": 5172,
      "after": 5173,
      "ĠExpenses": 5174,
      "Ġoccurred": 5175,
      "ĠCap": 5176,
      "Ġlending": 5177,
      "Ġstorage": 5178,
      "ĠJust": 5179,
      ":\"": 5180,
      "ĠNik": 5181,
      "%-": 5182,
      "ĠPress": 5183,
      "ĠRegistration": 5184,
      "ATIONS": 5185,
      "yl": 5186,
      "ĠRuss": 5187,
      "QO": 5188,
      "QN": 5189,
      "FB": 5190,
      "MV": 5191,
      ".-": 5192,
      "Ġne": 5193,
      "ĠCosts": 5194,
      "ĠInclud": 5195,
      "RX": 5196,
      "ĠMARKETS": 5197,
      "umbers": 5198,
      "Ġpack": 5199,
      "Ġapply": 5200,
      "ĠNasdaq": 5201,
      "Ġton": 5202,
      ":$": 5203,
      "%@": 5204,
      "JV": 5205,
      "Ġbreach": 5206,
      "ĠAir": 5207,
      "Ġinterim": 5208,
      "Ġface": 5209,
      "<)": 5210,
      "Ġalle": 5211,
      "GP": 5212,
      "Ġdetermination": 5213,
      "ĠNov": 5214,
      "\\]": 5215,
      "servable": 5216,
      "acter": 5217,
      "Ġviol": 5218,
      "Ġdeb": 5219,
      "\\;": 5220,
      "ĠProf": 5221,
      "ĠMortgage": 5222,
      "%\"": 5223,
      "ĠSwiss": 5224,
      ",@": 5225,
      "AO": 5226,
      "ĠClaim": 5227,
      "Ġnamed": 5228,
      "Ġpandemic": 5229,
      "oment": 5230,
      "pret": 5231,
      "pond": 5232,
      "SY": 5233,
      "Ġredeem": 5234,
      "^^^^^^^^": 5235,
      "Ġsus": 5236,
      "lock": 5237,
      "ĠRES": 5238,
      "Ġaccur": 5239,
      "LZ": 5240,
      ">\"": 5241,
      "^-": 5242,
      "raz": 5243,
      "OME": 5244,
      "ger": 5245,
      "Ġupd": 5246,
      "DN": 5247,
      ">?": 5248,
      "AH": 5249,
      "Ġthereof": 5250,
      "Ġterminated": 5251,
      "Ġpreparation": 5252,
      "ĠMet": 5253,
      "'#": 5254,
      "current": 5255,
      "Ġsession": 5256,
      "_(": 5257,
      "Ġcompete": 5258,
      "Ġchain": 5259,
      "emical": 5260,
      "Ġreconciliation": 5261,
      "ĠIndia": 5262,
      "house": 5263,
      "Ġsectors": 5264,
      "'&": 5265,
      "Ġtransportation": 5266,
      "Ġfurnished": 5267,
      "Ġaudits": 5268,
      "Ġhit": 5269,
      "Ġled": 5270,
      "DB": 5271,
      "Ġaff": 5272,
      "][": 5273,
      "KJ": 5274,
      "Ġconsists": 5275,
      "Ġcritical": 5276,
      "icated": 5277,
      "ĠProceeds": 5278,
      "Ġcontribution": 5279,
      "Ġcreate": 5280,
      "dr": 5281,
      "Ġintegration": 5282,
      "Ġpending": 5283,
      "PY": 5284,
      "ism": 5285,
      "ĠMeet": 5286,
      "ĠCanadian": 5287,
      "ĠGuarant": 5288,
      "*!": 5289,
      "WX": 5290,
      "UH": 5291,
      "obert": 5292,
      "than": 5293,
      ")?": 5294,
      "Ġgold": 5295,
      "ication": 5296,
      "Ġexam": 5297,
      "uman": 5298,
      "_=": 5299,
      "EV": 5300,
      ">/": 5301,
      "Ġquoted": 5302,
      "Former": 5303,
      "ĠProperties": 5304,
      "Ġstockholder": 5305,
      "TOR": 5306,
      "ĠMichael": 5307,
      "^=": 5308,
      "eal": 5309,
      "Ġsolid": 5310,
      "LM": 5311,
      "Ġmanufacturers": 5312,
      "Ġnumbers": 5313,
      ">$": 5314,
      "cle": 5315,
      "ĠFTSE": 5316,
      "osition": 5317,
      "Ġonline": 5318,
      "Ġagent": 5319,
      "ĠStandards": 5320,
      "ĠTai": 5321,
      "Ġrepresenting": 5322,
      "Ġweeks": 5323,
      "Ġdevelopments": 5324,
      "Ġmoment": 5325,
      "INGS": 5326,
      "(`": 5327,
      "cies": 5328,
      "Ġdecisions": 5329,
      "ĠDue": 5330,
      "Ġcommitment": 5331,
      "Ġagency": 5332,
      ";$": 5333,
      "Ġallocation": 5334,
      "CV": 5335,
      "ousing": 5336,
      "ĠDepos": 5337,
      "Pl": 5338,
      "LG": 5339,
      "LD": 5340,
      "ada": 5341,
      "ĠCoun": 5342,
      "CF": 5343,
      "Lo": 5344,
      "ĠPART": 5345,
      "PD": 5346,
      "Ġannounce": 5347,
      "*&": 5348,
      "NB": 5349,
      "Ġlight": 5350,
      "JS": 5351,
      "ĠIncorporated": 5352,
      "#@": 5353,
      "ĠIncorporation": 5354,
      "Ġtwelve": 5355,
      "Ġscheduled": 5356,
      "onstr": 5357,
      "respond": 5358,
      "ternal": 5359,
      "Ġprocesses": 5360,
      "Ġmobile": 5361,
      "ĠInst": 5362,
      "ĠRights": 5363,
      "Ġadvance": 5364,
      "KX": 5365,
      "KU": 5366,
      "Ġdeclared": 5367,
      "_.": 5368,
      "/.": 5369,
      "Ġdisru": 5370,
      "ĠOTHER": 5371,
      "+(": 5372,
      "Ġcoal": 5373,
      "ZU": 5374,
      "+@": 5375,
      "Ġmaturities": 5376,
      "uan": 5377,
      "ĠPolic": 5378,
      ")^": 5379,
      "Ġmanaged": 5380,
      "Ġaccr": 5381,
      "ĠMexico": 5382,
      "Ġcontent": 5383,
      "ĠOblig": 5384,
      "ĠThey": 5385,
      "ĠYour": 5386,
      "Ġunsecured": 5387,
      "Ġpage": 5388,
      "ION": 5389,
      "Ġcertainly": 5390,
      "ĠPerformance": 5391,
      "iable": 5392,
      "ZX": 5393,
      "eration": 5394,
      "ols": 5395,
      "&@": 5396,
      "VB": 5397,
      "+$": 5398,
      "OT": 5399,
      "ĠDisclosure": 5400,
      "Ġdeclined": 5401,
      "ĠSystems": 5402,
      "ĠNY": 5403,
      "ifications": 5404,
      "oles": 5405,
      "Ġobjectives": 5406,
      "LJ": 5407,
      "&$": 5408,
      "MJ": 5409,
      "ung": 5410,
      "________________________________": 5411,
      "osed": 5412,
      "ĠLLP": 5413,
      "ique": 5414,
      "%=": 5415,
      ")=": 5416,
      "Ġgetting": 5417,
      "Ġspe": 5418,
      "Ġprospects": 5419,
      "Ġcomments": 5420,
      "PB": 5421,
      "ĠPark": 5422,
      "Ġ\\": 5423,
      "We": 5424,
      "RB": 5425,
      "Ġsmaller": 5426,
      "CQ": 5427,
      "kei": 5428,
      "EB": 5429,
      "vo": 5430,
      "ology": 5431,
      "Ġgrew": 5432,
      "yd": 5433,
      "ida": 5434,
      "Ġstudies": 5435,
      "#\"": 5436,
      "ĠAnalysis": 5437,
      "Ġreferred": 5438,
      "ĠInternet": 5439,
      "Ġdegree": 5440,
      "Ġspecifically": 5441,
      "EJ": 5442,
      "ĠTaiwan": 5443,
      "Ġregion": 5444,
      "&'": 5445,
      "PJ": 5446,
      "Ġbiggest": 5447,
      "ĠDivision": 5448,
      "Ġunderstand": 5449,
      "Ġsalary": 5450,
      ")\\": 5451,
      ";/": 5452,
      "ĠLitigation": 5453,
      "Ġcourt": 5454,
      "ĠEl": 5455,
      "Ġlarger": 5456,
      "*@": 5457,
      "Ġtalked": 5458,
      "HAR": 5459,
      "ĠNikkei": 5460,
      "FOR": 5461,
      "ĠCenter": 5462,
      "Ġheav": 5463,
      "LX": 5464,
      "ĠInvent": 5465,
      "Ġclient": 5466,
      "Ġdifference": 5467,
      "PU": 5468,
      "Ġpatient": 5469,
      "qual": 5470,
      "ĠACC": 5471,
      "aws": 5472,
      "ĠEast": 5473,
      "Ġrelatively": 5474,
      "'d": 5475,
      "Ġevidence": 5476,
      "ductions": 5477,
      "CU": 5478,
      "GO": 5479,
      "irm": 5480,
      "Ġden": 5481,
      "Ġdemonstr": 5482,
      "WY": 5483,
      ">%": 5484,
      "Ġdaily": 5485,
      "Ġx": 5486,
      "!\"": 5487,
      "Ġbrands": 5488,
      "Ġcur": 5489,
      "vals": 5490,
      "AF": 5491,
      "ĠFut": 5492,
      "ledge": 5493,
      "mb": 5494,
      "ZM": 5495,
      "Ġweakness": 5496,
      "ĠOffice": 5497,
      "Ġinvolved": 5498,
      "Ġextend": 5499,
      ";\\": 5500,
      "Ġfeet": 5501,
      "ZY": 5502,
      "ĠMeeting": 5503,
      "ĠAbout": 5504,
      "Ġ---------": 5505,
      "cell": 5506,
      "Ġmerch": 5507,
      "ĠMorgan": 5508,
      "Ġwon": 5509,
      "QH": 5510,
      "Ġfood": 5511,
      "ĠApplic": 5512,
      "!`": 5513,
      "Ġeveryone": 5514,
      "isable": 5515,
      "+?": 5516,
      ":]": 5517,
      "Ġalways": 5518,
      "ĠCall": 5519,
      "Ġalthough": 5520,
      "Ġcorrespond": 5521,
      "ĠAdministrative": 5522,
      "Ġcharged": 5523,
      ":=": 5524,
      "AJ": 5525,
      "Ġbuying": 5526,
      "ĠLeg": 5527,
      "Ġoccup": 5528,
      "_/": 5529,
      "DF": 5530,
      "ĠBlack": 5531,
      "#,": 5532,
      "ĠEng": 5533,
      "PV": 5534,
      "che": 5535,
      "Ġincremental": 5536,
      "EQUITY": 5537,
      "',": 5538,
      "Ġgovernmental": 5539,
      "Ġdetails": 5540,
      "_%": 5541,
      "ĠTR": 5542,
      "GB": 5543,
      "ĠMark": 5544,
      "Ġproble": 5545,
      "densed": 5546,
      "Ġpleased": 5547,
      "Ġdetermining": 5548,
      "ĠLIBOR": 5549,
      "Registrant": 5550,
      "iration": 5551,
      "ĠBraz": 5552,
      "#(": 5553,
      "Ġarising": 5554,
      ":-": 5555,
      "Ġtemporary": 5556,
      "NF": 5557,
      "Ġ^": 5558,
      "&]": 5559,
      "TB": 5560,
      "ĠSECTION": 5561,
      "Ġborrowing": 5562,
      "employ": 5563,
      "Ġrestaur": 5564,
      "!(": 5565,
      "Ġdilut": 5566,
      "HF": 5567,
      "Ġforegoing": 5568,
      "rown": 5569,
      "WJ": 5570,
      "GU": 5571,
      "Ġexpire": 5572,
      "ondon": 5573,
      "urrencies": 5574,
      "ognized": 5575,
      "+;": 5576,
      "apid": 5577,
      "ips": 5578,
      "sured": 5579,
      "&%": 5580,
      "RJ": 5581,
      "ĠComprehensive": 5582,
      "ĠBorrower": 5583,
      "ĠWarrants": 5584,
      "ĠAustralia": 5585,
      "BKL": 5586,
      "Ġresponsibility": 5587,
      "IQ": 5588,
      "MU": 5589,
      ">-": 5590,
      "Ġconcent": 5591,
      "+.": 5592,
      "Ġvisit": 5593,
      "Ġrepay": 5594,
      "ĠBrazil": 5595,
      "`(": 5596,
      "Ġwords": 5597,
      "apeut": 5598,
      ":(": 5599,
      "]\\": 5600,
      "RD": 5601,
      "vested": 5602,
      "Ġcharacter": 5603,
      "ĠGrow": 5604,
      "Ġachieved": 5605,
      "Ġmulti": 5606,
      "Ġadvantage": 5607,
      "Ġequivalent": 5608,
      "?/": 5609,
      "IU": 5610,
      "KY": 5611,
      "Ġholder": 5612,
      ",(": 5613,
      "Ġexecution": 5614,
      "ĠConsumer": 5615,
      "ĠGrant": 5616,
      "Ġlives": 5617,
      "Ġdealers": 5618,
      "&\"": 5619,
      "Ġwrite": 5620,
      "Ġreimbursement": 5621,
      "Ġmot": 5622,
      ":[": 5623,
      "'^": 5624,
      "?;": 5625,
      "ero": 5626,
      "Ġsens": 5627,
      "Ġvac": 5628,
      "KG": 5629,
      "NU": 5630,
      "retary": 5631,
      "ĠUnit": 5632,
      ":;": 5633,
      "ework": 5634,
      ",*": 5635,
      "iations": 5636,
      "Ġpreced": 5637,
      "Ġratings": 5638,
      ":.": 5639,
      "ĠTw": 5640,
      "ĠFour": 5641,
      "%$": 5642,
      "Ġprovider": 5643,
      "#*": 5644,
      "Ġreb": 5645,
      "eter": 5646,
      ",$": 5647,
      "XS": 5648,
      ":/": 5649,
      "Ġdoubt": 5650,
      "Ġwells": 5651,
      "ĠProvision": 5652,
      "Ġexploration": 5653,
      "yo": 5654,
      "ĠSpecial": 5655,
      "&.": 5656,
      "junction": 5657,
      "Ġimpaired": 5658,
      "Ġstaff": 5659,
      "_;": 5660,
      "?-": 5661,
      "Ġfirms": 5662,
      "rist": 5663,
      "GH": 5664,
      "Ġwide": 5665,
      "ĠAllow": 5666,
      "XU": 5667,
      "ZC": 5668,
      "Ġmaintaining": 5669,
      ")[": 5670,
      "=[": 5671,
      "'(": 5672,
      "Ġapplied": 5673,
      "acific": 5674,
      "Ġefficiency": 5675,
      "iana": 5676,
      "Ġsequ": 5677,
      "ĠAfter": 5678,
      "ĠEntergy": 5679,
      "OA": 5680,
      "used": 5681,
      "ĠINCOME": 5682,
      "ĠSome": 5683,
      "ĠKore": 5684,
      "Ġreach": 5685,
      "exp": 5686,
      "ĠDIS": 5687,
      "Ġ%%%%": 5688,
      "ĠSignificant": 5689,
      "anes": 5690,
      "Ġdamages": 5691,
      "Ġstruct": 5692,
      "Ġconsumers": 5693,
      "ĠSolutions": 5694,
      "performing": 5695,
      "Ġprojections": 5696,
      "Ġthing": 5697,
      "Ġstatutory": 5698,
      "Ġconform": 5699,
      "Ġinvested": 5700,
      "Ġreclass": 5701,
      "Ġmetric": 5702,
      "Ġlos": 5703,
      "Ġmedia": 5704,
      "Ġcumulative": 5705,
      "icit": 5706,
      "Ġperiodic": 5707,
      "endar": 5708,
      "KQ": 5709,
      "Ġunderwriting": 5710,
      "'@": 5711,
      "ZA": 5712,
      "Ġcomprised": 5713,
      "Ġoutcome": 5714,
      "Ġbudg": 5715,
      "WI": 5716,
      "ĠSupplemental": 5717,
      "Level": 5718,
      "amework": 5719,
      "LR": 5720,
      "ĠIPO": 5721,
      "itional": 5722,
      "PF": 5723,
      ":^": 5724,
      "aluation": 5725,
      "Ġnoted": 5726,
      "Ġcategory": 5727,
      "ĠWeb": 5728,
      "XG": 5729,
      ".;": 5730,
      "Ġexpressed": 5731,
      "VH": 5732,
      "ĠCO": 5733,
      "Unaudited": 5734,
      "!&": 5735,
      "Ġsets": 5736,
      "Ġcance": 5737,
      "Ġweather": 5738,
      "ĠFlor": 5739,
      "TOXX": 5740,
      "+%": 5741,
      "Ġrepresented": 5742,
      "ENS": 5743,
      "Ġengaged": 5744,
      "!$": 5745,
      "Ġpolitical": 5746,
      "+=": 5747,
      "iver": 5748,
      "Ġmoving": 5749,
      "Ġquite": 5750,
      "urer": 5751,
      "KM": 5752,
      "ĠOrgan": 5753,
      "Ġnearly": 5754,
      "YJ": 5755,
      "WO": 5756,
      "\\[": 5757,
      "Ġhighest": 5758,
      "ĠEstim": 5759,
      "Ġlargely": 5760,
      "more": 5761,
      "Ġvend": 5762,
      "ĠDeriv": 5763,
      "QB": 5764,
      "ov": 5765,
      "dle": 5766,
      "ASE": 5767,
      "ĠVir": 5768,
      "Ġprohib": 5769,
      "ĠCombination": 5770,
      "ĠLife": 5771,
      "-^": 5772,
      "Ġusers": 5773,
      "Ġexternal": 5774,
      "SN": 5775,
      "ĠIndenture": 5776,
      "XM": 5777,
      "asts": 5778,
      "+^": 5779,
      "'*": 5780,
      "Ġplanning": 5781,
      "ĠMore": 5782,
      "Ġmining": 5783,
      "ĠFFO": 5784,
      "Ġpubl": 5785,
      "ĠTrading": 5786,
      "most": 5787,
      "ĠElectric": 5788,
      "&(": 5789,
      "rolled": 5790,
      "KO": 5791,
      "`/": 5792,
      "changed": 5793,
      "Ġjurisdictions": 5794,
      "Ġarrangement": 5795,
      "ĠPe": 5796,
      "XO": 5797,
      "ĠRevol": 5798,
      "Ġseven": 5799,
      "QE": 5800,
      "IF": 5801,
      "!*": 5802,
      "Ġhedging": 5803,
      "ĠMedia": 5804,
      "ĠIm": 5805,
      "retirement": 5806,
      "use": 5807,
      "BER": 5808,
      "Ġbegan": 5809,
      "Ġanaly": 5810,
      "Ġauthority": 5811,
      "Ġlenders": 5812,
      "Ġaudited": 5813,
      "Ġregional": 5814,
      "ĠVal": 5815,
      "ĠLondon": 5816,
      "Ġposted": 5817,
      "Ġtherap": 5818,
      "+]": 5819,
      "Ġallows": 5820,
      "Ġconcerning": 5821,
      "ibles": 5822,
      "%/": 5823,
      "Ġdelays": 5824,
      "Ġorganic": 5825,
      "Ġcredits": 5826,
      "ene": 5827,
      "ides": 5828,
      "losing": 5829,
      "LB": 5830,
      "XA": 5831,
      "XC": 5832,
      "Ġcurrencies": 5833,
      "ĠOptions": 5834,
      "Ġsent": 5835,
      "VF": 5836,
      "GD": 5837,
      "Ġdiv": 5838,
      "Ġshown": 5839,
      "IH": 5840,
      "ĠHong": 5841,
      "XB": 5842,
      "ĠMs": 5843,
      "Zip": 5844,
      "WU": 5845,
      "Ġjob": 5846,
      "`.": 5847,
      "ĠChin": 5848,
      "WQ": 5849,
      "ĠĠĠĠĠĠĠĠĠĠĠ": 5850,
      "Ġregular": 5851,
      "'\\": 5852,
      "Ġsecur": 5853,
      "Ġi": 5854,
      "ĠItal": 5855,
      "YE": 5856,
      "?.": 5857,
      "Ġoften": 5858,
      "SJ": 5859,
      "Ġassist": 5860,
      "&>": 5861,
      "Ġdut": 5862,
      "Ġrecomm": 5863,
      "bank": 5864,
      "!,": 5865,
      "LT": 5866,
      "ĠMaterial": 5867,
      "']": 5868,
      "rew": 5869,
      "Ġraw": 5870,
      "XR": 5871,
      "Ġmanaging": 5872,
      "nect": 5873,
      "ĠSim": 5874,
      "MH": 5875,
      "Ġflex": 5876,
      "?=": 5877,
      "Ġconsolidation": 5878,
      "ceiv": 5879,
      "ĠOp": 5880,
      "Ġimplementation": 5881,
      "ĠFlorida": 5882,
      "Ġsk": 5883,
      "ZJ": 5884,
      "ĠReform": 5885,
      "newsroom": 5886,
      "Ġconsent": 5887,
      "ĠRich": 5888,
      "active": 5889,
      "PN": 5890,
      "Ġmakes": 5891,
      "SD": 5892,
      "ĠPUR": 5893,
      "ĠDistrict": 5894,
      "ancer": 5895,
      "&_": 5896,
      "ony": 5897,
      "Ġworldwide": 5898,
      "!#": 5899,
      ":%": 5900,
      "hern": 5901,
      "Con": 5902,
      "Ġcalendar": 5903,
      "ĠMain": 5904,
      "Ġinterpret": 5905,
      "Ġschedule": 5906,
      "estern": 5907,
      "ĠKong": 5908,
      "ĠEmployee": 5909,
      "YN": 5910,
      "ĠFunds": 5911,
      "-\\": 5912,
      "Ġamendments": 5913,
      "Ġelection": 5914,
      "KV": 5915,
      "ĠSecretary": 5916,
      "consolidated": 5917,
      "ĠCommit": 5918,
      "Ġhighl": 5919,
      "Ġoffered": 5920,
      "ĠLand": 5921,
      "ĠTH": 5922,
      "ĠCASH": 5923,
      "ained": 5924,
      "ĠLender": 5925,
      "Ġdesignated": 5926,
      "&/": 5927,
      "Ġcalculation": 5928,
      "ĠTransaction": 5929,
      "rate": 5930,
      "Ġfield": 5931,
      "WC": 5932,
      "Ġnumer": 5933,
      "KF": 5934,
      "Ġproduce": 5935,
      "Ġparticipation": 5936,
      "*$": 5937,
      "MN": 5938,
      "pecially": 5939,
      "pective": 5940,
      "'$": 5941,
      "OH": 5942,
      "\">": 5943,
      "Am": 5944,
      "Ġremained": 5945,
      "[)": 5946,
      "ĠEmerging": 5947,
      "Ġrup": 5948,
      "Other": 5949,
      "PQ": 5950,
      "Ġslide": 5951,
      "Ġindividuals": 5952,
      "EST": 5953,
      "GQ": 5954,
      "YL": 5955,
      "Ġtowards": 5956,
      "Ġrely": 5957,
      "Ġlimitation": 5958,
      "ĠCharter": 5959,
      "ivities": 5960,
      "Ġbeneficial": 5961,
      "encing": 5962,
      "+\\": 5963,
      "Ġadvanced": 5964,
      "(/": 5965,
      "GV": 5966,
      "=\\": 5967,
      ",\"!": 5968,
      "Ġsubmitted": 5969,
      "Ġexpert": 5970,
      "Ġbio": 5971,
      "Ġtotaling": 5972,
      "ĠJames": 5973,
      ":\\": 5974,
      "`\"@`": 5975,
      "Ġreductions": 5976,
      "icro": 5977,
      "Ġparts": 5978,
      "ded": 5979,
      "SB": 5980,
      "lean": 5981,
      ",>": 5982,
      "Ġtradem": 5983,
      "ĠTransactions": 5984,
      "Ġdevices": 5985,
      "Ġlicenses": 5986,
      "inally": 5987,
      "under": 5988,
      "Ġhear": 5989,
      "MF": 5990,
      "SV": 5991,
      "Ġconsulting": 5992,
      "Ġsheets": 5993,
      "ĠUt": 5994,
      "ĠCount": 5995,
      "ĠExpense": 5996,
      "Ġonce": 5997,
      "Ġconfidence": 5998,
      "Ġmanager": 5999,
      "ĠSchedule": 6000,
      "Ġrapid": 6001,
      "Sh": 6002,
      "urrence": 6003,
      "Ġtargets": 6004,
      "WE": 6005,
      "ĠGeor": 6006,
      "WR": 6007,
      "OF": 6008,
      "empl": 6009,
      "ĠQual": 6010,
      "YI": 6011,
      "YC": 6012,
      "ĠEmployment": 6013,
      "Ġespecially": 6014,
      "XL": 6015,
      "OUN": 6016,
      "KI": 6017,
      "Ġderived": 6018,
      "ĠActual": 6019,
      "ZL": 6020,
      "ĠImpair": 6021,
      "<`": 6022,
      "@$": 6023,
      "ollect": 6024,
      "_-": 6025,
      "Ġterminate": 6026,
      "ville": 6027,
      "MQ": 6028,
      "ĠAdjustments": 6029,
      "GT": 6030,
      "ĠSummary": 6031,
      "Ġcommunity": 6032,
      "ĠChinese": 6033,
      "ĠIndustrial": 6034,
      "ĠDiscuss": 6035,
      "Ġdivid": 6036,
      ">)": 6037,
      "Ġfranchise": 6038,
      "Ġseries": 6039,
      "Ġlat": 6040,
      "Ġcommitted": 6041,
      "Ġperforming": 6042,
      "Ġscale": 6043,
      "ZE": 6044,
      "KA": 6045,
      "Ġmilest": 6046,
      "ĠHar": 6047,
      "Ġwholes": 6048,
      "WL": 6049,
      "'\"": 6050,
      "+/": 6051,
      "Ġansw": 6052,
      "Ġfairly": 6053,
      "Ġtoo": 6054,
      "ĠReporting": 6055,
      "ĠCurrency": 6056,
      "Ġexist": 6057,
      "HB": 6058,
      "Ġindustries": 6059,
      "Ġbecame": 6060,
      "Ġguarantee": 6061,
      "Ġreflecting": 6062,
      "ĠAssociation": 6063,
      "aut": 6064,
      "#&": 6065,
      "ĠOutstanding": 6066,
      "(^": 6067,
      "Ġswap": 6068,
      "Ġdeploy": 6069,
      "#$": 6070,
      "!%": 6071,
      "Ġowns": 6072,
      "ĠBio": 6073,
      "stream": 6074,
      "Ġutility": 6075,
      "omas": 6076,
      "ĠEQUITY": 6077,
      "Ġbarrel": 6078,
      "atures": 6079,
      "uts": 6080,
      "Ġmeaningful": 6081,
      "Ġstarting": 6082,
      "Tr": 6083,
      "Ġknowledge": 6084,
      "ĠProxy": 6085,
      "SQ": 6086,
      "KN": 6087,
      "Ġjoining": 6088,
      "FIC": 6089,
      ">;": 6090,
      "ental": 6091,
      "ĠExerc": 6092,
      "+[": 6093,
      "Ġcarryfor": 6094,
      "ĠRegul": 6095,
      "DQ": 6096,
      "Ġparticipate": 6097,
      "Ġpharmaceutical": 6098,
      "ĠAG": 6099,
      "ZT": 6100,
      "Ġgrants": 6101,
      ".]": 6102,
      "ech": 6103,
      "Ġapprovals": 6104,
      ">]": 6105,
      "Ġcenters": 6106,
      "Ġwhy": 6107,
      "reat": 6108,
      "asons": 6109,
      "YQ": 6110,
      "ĠProject": 6111,
      "Ġlost": 6112,
      "';": 6113,
      "ĠTime": 6114,
      "*]": 6115,
      "Ġcents": 6116,
      ":)": 6117,
      "Ġworth": 6118,
      "&?": 6119,
      "Ġadvances": 6120,
      "OQ": 6121,
      "ĠFees": 6122,
      "ĠWilliam": 6123,
      "offs": 6124,
      "recognized": 6125,
      "ĠJeff": 6126,
      "error": 6127,
      "UB": 6128,
      "Ġletter": 6129,
      "Ġ$(": 6130,
      "ĠSl": 6131,
      "Pro": 6132,
      "Ġmanufacture": 6133,
      "JQ": 6134,
      ".%": 6135,
      "Ġencour": 6136,
      "ĠDistribution": 6137,
      "ĠDiscussion": 6138,
      "Ġhospital": 6139,
      "Ġannually": 6140,
      "ĠTechnologies": 6141,
      "ĠEstate": 6142,
      "ulf": 6143,
      "ĠNA": 6144,
      "Ġconcluded": 6145,
      "ĠGreat": 6146,
      "ĠSuite": 6147,
      "venue": 6148,
      "ĠPercent": 6149,
      "ĠAnalyst": 6150,
      ",!": 6151,
      "Ġconcerns": 6152,
      "ĠGrowth": 6153,
      "ĠSelling": 6154,
      "ZD": 6155,
      "Ġcontributed": 6156,
      "TON": 6157,
      "Ġship": 6158,
      "ĠEconom": 6159,
      "*+": 6160,
      "ZN": 6161,
      "$]": 6162,
      "Ġgoals": 6163,
      "Ġconjunction": 6164,
      "Ġyields": 6165,
      "uration": 6166,
      "De": 6167,
      "$%": 6168,
      "/=": 6169,
      "':": 6170,
      "\"?": 6171,
      "XT": 6172,
      "average": 6173,
      "(\\": 6174,
      "Term": 6175,
      "XD": 6176,
      "YH": 6177,
      "ĠDan": 6178,
      "ĠDepartment": 6179,
      "Ġdepending": 6180,
      "ford": 6181,
      "UF": 6182,
      ",?": 6183,
      "Ġchallenges": 6184,
      ">[": 6185,
      "ĠSy": 6186,
      "Ġsites": 6187,
      "Ġinflu": 6188,
      "Ġsatisfact": 6189,
      "XH": 6190,
      "ĠActivities": 6191,
      "ĠMo": 6192,
      "-[": 6193,
      "ĠEUR": 6194,
      "Ġpreceding": 6195,
      "RQ": 6196,
      "([": 6197,
      ",_": 6198,
      "AQ": 6199,
      "WG": 6200,
      "Ġhour": 6201,
      "Ġnoncontrolling": 6202,
      "Ġrather": 6203,
      "\"+": 6204,
      "anticip": 6205,
      "ZI": 6206,
      "umb": 6207,
      "ĠCentral": 6208,
      "Ġattractive": 6209,
      "ĠVol": 6210,
      "Ġswaps": 6211,
      "arch": 6212,
      "RV": 6213,
      "Ġdespite": 6214,
      "'[": 6215,
      "entially": 6216,
      "aser": 6217,
      "ĠFixed": 6218,
      "Ġdefinitive": 6219,
      ">^": 6220,
      "ĠAre": 6221,
      "abel": 6222,
      "Ġoperator": 6223,
      "Ġexercised": 6224,
      "Ġexercisable": 6225,
      "OD": 6226,
      "ĠSun": 6227,
      "WD": 6228,
      "atin": 6229,
      "Ġvested": 6230,
      "Ġneeded": 6231,
      "ĠSheet": 6232,
      "Ġperspective": 6233,
      "Ġmaker": 6234,
      "JI": 6235,
      "ĠEditing": 6236,
      "*.": 6237,
      "(]": 6238,
      "rian": 6239,
      "Ġlack": 6240,
      "___": 6241,
      "Ġimpacts": 6242,
      "ĠPenn": 6243,
      "#)": 6244,
      "Ġconverted": 6245,
      "XE": 6246,
      "ĠWhat": 6247,
      "&:": 6248,
      "%]": 6249,
      "`*`\"@`": 6250,
      "#^": 6251,
      "raud": 6252,
      "Ġdisposal": 6253,
      "ĠMatters": 6254,
      "%^": 6255,
      "ĠTOP": 6256,
      "ZS": 6257,
      "Ġenterprise": 6258,
      "ĠRetail": 6259,
      "Ġleased": 6260,
      "ĠIV": 6261,
      "WV": 6262,
      "Ġconstitute": 6263,
      "Ġchanging": 6264,
      "WH": 6265,
      "Ġunderstanding": 6266,
      "!^": 6267,
      "Ġvir": 6268,
      "ĠACT": 6269,
      "JN": 6270,
      "XV": 6271,
      "Ġintrodu": 6272,
      "WP": 6273,
      "+)": 6274,
      "@?": 6275,
      "JE": 6276,
      "ĠSing": 6277,
      "ANY": 6278,
      "ourse": 6279,
      "'/": 6280,
      "()": 6281,
      "appro": 6282,
      "*_": 6283,
      "Ġengineering": 6284,
      "ĠRat": 6285,
      "@\\": 6286,
      "Ġalmost": 6287,
      "KT": 6288,
      "'?": 6289,
      "unt": 6290,
      "sale": 6291,
      "RN": 6292,
      ",\\": 6293,
      ";)": 6294,
      "Ġlawsu": 6295,
      "Ġstage": 6296,
      "ZQ": 6297,
      "Ġhop": 6298,
      "ĠAgreements": 6299,
      "Ġsafe": 6300,
      "JT": 6301,
      "ĠCertificate": 6302,
      "Ġcategories": 6303,
      "Ġpromot": 6304,
      "GF": 6305,
      "#\\": 6306,
      "Ġanything": 6307,
      "rt": 6308,
      "YU": 6309,
      "')": 6310,
      "Ġlegislation": 6311,
      "reme": 6312,
      "XQ": 6313,
      ",&": 6314,
      "Ġrising": 6315,
      "(.": 6316,
      "Ġdisposition": 6317,
      "XF": 6318,
      "Ġtrying": 6319,
      "Ġexpiration": 6320,
      "Ġimplied": 6321,
      "JD": 6322,
      "ears": 6323,
      "Ġstep": 6324,
      "YA": 6325,
      "RH": 6326,
      "ircraft": 6327,
      "Ġrecords": 6328,
      "$\\": 6329,
      "ĠAppro": 6330,
      "oy": 6331,
      "ĠMa": 6332,
      "WT": 6333,
      "ĠPartner": 6334,
      "rop": 6335,
      "ĠFlows": 6336,
      "Ġnumerous": 6337,
      "@>": 6338,
      "ertification": 6339,
      "ĠFinancing": 6340,
      "SF": 6341,
      "ĠAC": 6342,
      "angibles": 6343,
      "Ġpermit": 6344,
      "Ġdisease": 6345,
      "*\\": 6346,
      "KC": 6347,
      "abil": 6348,
      "(-": 6349,
      "YF": 6350,
      "Ġenact": 6351,
      "!]": 6352,
      "ĠNe": 6353,
      "Ġaccrual": 6354,
      "Ġexhibit": 6355,
      "'%": 6356,
      "Ġdepends": 6357,
      "liminary": 6358,
      "Ġcenter": 6359,
      "izon": 6360,
      "Ġaffecting": 6361,
      "ĠDATA": 6362,
      "Ġreput": 6363,
      ",)": 6364,
      "Ġengage": 6365,
      "pping": 6366,
      "ĠACCOUN": 6367,
      "ĠLou": 6368,
      "YP": 6369,
      "ĠNev": 6370,
      "ĠColl": 6371,
      "LH": 6372,
      "\"_": 6373,
      "ĠJones": 6374,
      "Ġenable": 6375,
      "ĠPlans": 6376,
      "KB": 6377,
      "astern": 6378,
      "Ġforce": 6379,
      "vey": 6380,
      "Ġstay": 6381,
      "ĠON": 6382,
      "Ġseasonal": 6383,
      "top": 6384,
      ",=": 6385,
      "`>": 6386,
      "Ġcho": 6387,
      "Ġcontempl": 6388,
      "Ġoffers": 6389,
      "erce": 6390,
      "Ġvalid": 6391,
      "Ġfunded": 6392,
      "Ġstake": 6393,
      "Ġmodified": 6394,
      "WB": 6395,
      "ivil": 6396,
      "Ġfactor": 6397,
      "etition": 6398,
      "Ġrestated": 6399,
      "ĠSponsor": 6400,
      "Ġjudgments": 6401,
      "?\\`": 6402,
      "Ġpop": 6403,
      "ĠBancorp": 6404,
      "#;": 6405,
      "uish": 6406,
      "Ġremarks": 6407,
      "olar": 6408,
      "comp": 6409,
      "ĠDow": 6410,
      "`-": 6411,
      "Ġpresents": 6412,
      "ĠLP": 6413,
      "Ġreinsurance": 6414,
      "Ġoperates": 6415,
      "#]": 6416,
      "\"]": 6417,
      "Ġliquidation": 6418,
      "+-": 6419,
      "ABLE": 6420,
      "ĠRobert": 6421,
      "ĠParticip": 6422,
      "Ġdamage": 6423,
      "Ġcomplying": 6424,
      "Ġimproving": 6425,
      "'.": 6426,
      "JC": 6427,
      "bed": 6428,
      "ĠLic": 6429,
      "Ġspend": 6430,
      "`_": 6431,
      "\"/": 6432,
      "Ġrequirement": 6433,
      "Ġevaluated": 6434,
      "den": 6435,
      "ĠOffering": 6436,
      "aming": 6437,
      "Ġbacklog": 6438,
      "ĠNat": 6439,
      "ĠImpairment": 6440,
      "ĠLaw": 6441,
      "ĠIndependent": 6442,
      "Ġspeak": 6443,
      "ĠUpon": 6444,
      "urg": 6445,
      "Ġexecuted": 6446,
      "ĠFourth": 6447,
      "orter": 6448,
      "ĠAf": 6449,
      "KD": 6450,
      "ĠInit": 6451,
      "Ġimm": 6452,
      "Ġgained": 6453,
      "'>": 6454,
      "ĠPerson": 6455,
      "oor": 6456,
      "ilt": 6457,
      "ady": 6458,
      "Ġservicing": 6459,
      "!)": 6460,
      "ZV": 6461,
      "!\\": 6462,
      "!/": 6463,
      "Ġpaper": 6464,
      "onom": 6465,
      "YV": 6466,
      "Ġremo": 6467,
      "#:": 6468,
      "Ġowner": 6469,
      "ĠPhil": 6470,
      "ĠTim": 6471,
      "@^": 6472,
      "Ġcommissions": 6473,
      "Co": 6474,
      "#?": 6475,
      "Ġtravel": 6476,
      "Ġdist": 6477,
      "ĠProv": 6478,
      "ĠSecured": 6479,
      "Ġultimately": 6480,
      "Ġmaintained": 6481,
      "lant": 6482,
      ",%": 6483,
      "Ġsupplement": 6484,
      "Ġvalued": 6485,
      "leet": 6486,
      "LN": 6487,
      "Ġreasons": 6488,
      "*>": 6489,
      "&-": 6490,
      "Ġunpaid": 6491,
      "Ġmut": 6492,
      "DDDDE": 6493,
      "KP": 6494,
      "LU": 6495,
      "Stock": 6496,
      "atic": 6497,
      "ĠMedical": 6498,
      "Ġdealer": 6499,
      "ĠCounty": 6500,
      "ĠRegistrants": 6501,
      "itting": 6502,
      "ĠRevolving": 6503,
      "ĠBrit": 6504,
      "ago": 6505,
      "ney": 6506,
      "\"%": 6507,
      "Ġroyalty": 6508,
      "ZB": 6509,
      "!;": 6510,
      "ĠBAN": 6511,
      "*?": 6512,
      "ĠConference": 6513,
      "FORM": 6514,
      "Ġcorresponding": 6515,
      ".=": 6516,
      "ZR": 6517,
      "ĠSaf": 6518,
      "Ġexecute": 6519,
      "ĠNevada": 6520,
      "JF": 6521,
      "kn": 6522,
      "Ġintegrated": 6523,
      ",/": 6524,
      ".^": 6525,
      "Ġhistory": 6526,
      "ĠSelect": 6527,
      "Ġlimits": 6528,
      "argo": 6529,
      "Ġstory": 6530,
      "*:": 6531,
      "Ġanti": 6532,
      "ĠSheets": 6533,
      "(+": 6534,
      "Ġofficial": 6535,
      "*^": 6536,
      "Ġreleased": 6537,
      "iced": 6538,
      "Ġexclusive": 6539,
      "Ġvehicles": 6540,
      "(#`@": 6541,
      "*/": 6542,
      "JB": 6543,
      "Ġvehicle": 6544,
      "Ġconsisted": 6545,
      "Ġwind": 6546,
      "Ġdeter": 6547,
      "ĠOf": 6548,
      "ĠFY": 6549,
      "SH": 6550,
      "Ġeight": 6551,
      "here": 6552,
      "Ġhost": 6553,
      "Ġreducing": 6554,
      "ireless": 6555,
      "Ġscope": 6556,
      "ipt": 6557,
      "Ġintent": 6558,
      "ITION": 6559,
      "Ġbankruptcy": 6560,
      "Ġowners": 6561,
      "Ġsteel": 6562,
      "TERS": 6563,
      "Ġunique": 6564,
      "Ġannouncing": 6565,
      "Ġbranch": 6566,
      "Ġprobable": 6567,
      "ĠLiquid": 6568,
      "Ġconnect": 6569,
      "Ġinability": 6570,
      "TING": 6571,
      "Ġdetailed": 6572,
      "Ġmethods": 6573,
      "Ġmainly": 6574,
      "Ġselected": 6575,
      "Ġbreak": 6576,
      "@&": 6577,
      "Ġshowed": 6578,
      "Ġwond": 6579,
      "Ġdeclines": 6580,
      "*%": 6581,
      "ĠIntangible": 6582,
      "![": 6583,
      ",:": 6584,
      "agers": 6585,
      "QF": 6586,
      "LATED": 6587,
      ",;": 6588,
      "Ġovers": 6589,
      "Ġstronger": 6590,
      "ado": 6591,
      "Ġshift": 6592,
      "ZF": 6593,
      "Ġfraud": 6594,
      "Ġbudget": 6595,
      "Ġfamily": 6596,
      "Ġappointed": 6597,
      "Ġsolic": 6598,
      "@]": 6599,
      "Ġdefend": 6600,
      "Ġefficient": 6601,
      "Ġadvisory": 6602,
      "(;": 6603,
      "Ġstarted": 6604,
      "DH": 6605,
      "Ġunaudited": 6606,
      "Ġsense": 6607,
      "Ġinfring": 6608,
      "ĠEquipment": 6609,
      "@:": 6610,
      "RF": 6611,
      "!:": 6612,
      ">=": 6613,
      "Ġcompanys": 6614,
      "Ġguarantees": 6615,
      "@=": 6616,
      "Ġwar": 6617,
      "Ġdriving": 6618,
      "$^": 6619,
      "ĠPacific": 6620,
      "Ġyes": 6621,
      "van": 6622,
      "Ġcollection": 6623,
      "ĠUK": 6624,
      "Ġforecasts": 6625,
      "ZP": 6626,
      "ĠReports": 6627,
      "Ġwholesale": 6628,
      ",^": 6629,
      "Ġrelate": 6630,
      "'=": 6631,
      "onduct": 6632,
      "YB": 6633,
      "action": 6634,
      "KH": 6635,
      "issory": 6636,
      "#/": 6637,
      "ĠInstruction": 6638,
      "ĠHo": 6639,
      "ĠTen": 6640,
      "ein": 6641,
      "AGE": 6642,
      "Ġgainers": 6643,
      "lict": 6644,
      "ĠInstru": 6645,
      "Ġdescription": 6646,
      "Ġmodels": 6647,
      "_\\`": 6648,
      "efore": 6649,
      "%\\": 6650,
      "ĠTier": 6651,
      "inning": 6652,
      "*)": 6653,
      "ĠDocument": 6654,
      "Ġsubordinated": 6655,
      "LQ": 6656,
      "ĠNetwork": 6657,
      "Ġplacement": 6658,
      "otive": 6659,
      "Ġpush": 6660,
      "coming": 6661,
      "Ġratios": 6662,
      "ota": 6663,
      ",.": 6664,
      "?)": 6665,
      "$;": 6666,
      "ĠPresent": 6667,
      "Ġreliance": 6668,
      "aded": 6669,
      "*=": 6670,
      "Ġfig": 6671,
      "ĠCompanies": 6672,
      "HLB": 6673,
      "arp": 6674,
      "&[": 6675,
      "Ġcolor": 6676,
      "ĠBanking": 6677,
      "ĠPharmaceutical": 6678,
      ",]": 6679,
      "`)": 6680,
      "Ġground": 6681,
      "Ġcame": 6682,
      "mbol": 6683,
      "Ġaffiliate": 6684,
      "ĠFood": 6685,
      "Ġet": 6686,
      "Ġnewsroom": 6687,
      "\"-": 6688,
      "Ġseverance": 6689,
      "ĠRestructuring": 6690,
      "*[": 6691,
      "Ġadding": 6692,
      "ĠTurn": 6693,
      "(:": 6694,
      "istic": 6695,
      "WF": 6696,
      "ZH": 6697,
      "ĠDividends": 6698,
      "ĠĠĠĠĠĠĠĠĠĠĠĠ": 6699,
      "ĠLoc": 6700,
      "ĠAllowance": 6701,
      "Ġissuer": 6702,
      "#=": 6703,
      "okyo": 6704,
      "ĠHolding": 6705,
      "ĠMarketing": 6706,
      "Ġhedges": 6707,
      "&^": 6708,
      "Ġtranslation": 6709,
      "STOXX": 6710,
      "ĠMedicare": 6711,
      "ĠRELATED": 6712,
      "#+": 6713,
      "Ġorganizations": 6714,
      "field": 6715,
      "wood": 6716,
      "iffs": 6717,
      "`\\": 6718,
      "Ġrelates": 6719,
      "JH": 6720,
      "Ġinstitution": 6721,
      "........................": 6722,
      "$+": 6723,
      ".\\": 6724,
      "@-": 6725,
      "Ġfacts": 6726,
      "uclear": 6727,
      "ĠMer": 6728,
      "Ġpresident": 6729,
      "ĠApplicable": 6730,
      "Ġgoal": 6731,
      "ĠContin": 6732,
      "\";": 6733,
      "expense": 6734,
      "Ġsrt": 6735,
      "TIVE": 6736,
      "Ġinstrument": 6737,
      "$-": 6738,
      "ĠOb": 6739,
      "Ġgeographic": 6740,
      "ĠKing": 6741,
      "Ġnecessarily": 6742,
      "ĠLouis": 6743,
      "`?": 6744,
      "known": 6745,
      "eah": 6746,
      "*;": 6747,
      "Ġqualify": 6748,
      "filed": 6749,
      "Ġminim": 6750,
      "\"=": 6751,
      "_)": 6752,
      "Ġleadership": 6753,
      "JA": 6754,
      "Ġimplemented": 6755,
      "Ġprincipally": 6756,
      "Ġrespond": 6757,
      "#[": 6758,
      "$)": 6759,
      "`+": 6760,
      "ĠEN": 6761,
      "Ġpool": 6762,
      "!>": 6763,
      "&=": 6764,
      ",+": 6765,
      "(=": 6766,
      "ĠManager": 6767,
      "Ġmineral": 6768,
      "Ġsoon": 6769,
      "ĠStrate": 6770,
      "ĠLast": 6771,
      "ought": 6772,
      "ems": 6773,
      "ERC": 6774,
      "Ġcustomary": 6775,
      "Ġdiscounted": 6776,
      "ĠCommunications": 6777,
      "ĠSouthern": 6778,
      "#%": 6779,
      "usion": 6780,
      "ifies": 6781,
      "ĠGovernment": 6782,
      "Ġplants": 6783,
      "sp": 6784,
      "ĠNEWS": 6785,
      "\"^": 6786,
      "Dollars": 6787,
      "Ġseeking": 6788,
      "omes": 6789,
      "Ġtransferred": 6790,
      "ĠIT": 6791,
      "wind": 6792,
      "Ġtraditional": 6793,
      "Ġaware": 6794,
      "ĠPURSU": 6795,
      "Ġstable": 6796,
      "LF": 6797,
      "(?": 6798,
      "Ġexpanded": 6799,
      "ades": 6800,
      "Ġtransmission": 6801,
      "Ġhistorically": 6802,
      "Ġtangible": 6803,
      "ĠIncludes": 6804,
      "Ġgenerating": 6805,
      "ka": 6806,
      "ĠPURSUANT": 6807,
      "Ġcycle": 6808,
      "Ġdivest": 6809,
      "@[": 6810,
      "Ġannum": 6811,
      "Ġwhose": 6812,
      "Ġ-----------": 6813,
      "Ġconstant": 6814,
      "!=": 6815,
      "Ġproduced": 6816,
      "@.": 6817,
      "Ġupgr": 6818,
      ">\\": 6819,
      "!?": 6820,
      "Ġexcluded": 6821,
      "Ġclar": 6822,
      "ĠUnion": 6823,
      "&\\": 6824,
      "%[": 6825,
      "ĠParty": 6826,
      "ĠPayments": 6827,
      "ĠCore": 6828,
      "$[": 6829,
      "ĠPension": 6830,
      "www": 6831,
      "ĠConstruction": 6832,
      "ĠClaims": 6833,
      "ĠWork": 6834,
      "ĠINDEX": 6835,
      "@;": 6836,
      "Ġventures": 6837,
      "Ġ----------------------------------------------------------------": 6838,
      "Ġdeficit": 6839,
      "Ġcancer": 6840,
      "Ġsuff": 6841,
      ",-": 6842,
      "Ġunrecognized": 6843,
      "Ġpound": 6844,
      "ĠStan": 6845,
      "Ġsug": 6846,
      "$.": 6847,
      "ĠInf": 6848,
      "Ġ----------": 6849,
      "itable": 6850,
      "\"\\": 6851,
      "Ġreceipt": 6852,
      "Ġblue": 6853,
      "Ġraised": 6854,
      "*-": 6855,
      "draw": 6856,
      "#>": 6857,
      "ocial": 6858,
      "ilding": 6859,
      "Ġtraders": 6860,
      "pects": 6861,
      "'+": 6862,
      "ĠObligations": 6863,
      "Ġsecure": 6864,
      "Ġlive": 6865,
      "ĠReceiv": 6866,
      "@)": 6867,
      "(>": 6868,
      "!.": 6869,
      "Ġrepayment": 6870,
      "Ġallowances": 6871,
      "Ġobtaining": 6872,
      "Ġaircraft": 6873,
      "Ġspeed": 6874,
      "oe": 6875,
      "Ġoperated": 6876,
      "ynam": 6877,
      "SUs": 6878,
      "structions": 6879,
      "oth": 6880,
      "ĠPrem": 6881,
      "Acc": 6882,
      "Ġcat": 6883,
      "ta": 6884,
      "Ġextensive": 6885,
      "Ġutilize": 6886,
      "ĠOPERATIONS": 6887,
      "ĠBanks": 6888,
      "Ġletters": 6889,
      "\"[": 6890,
      "ĠMot": 6891,
      "Ġwanted": 6892,
      "&)": 6893,
      "Ġquickly": 6894,
      "Ġroll": 6895,
      "west": 6896,
      "INGTON": 6897,
      "ih": 6898,
      "ĠParent": 6899,
      "Ġassign": 6900,
      "rench": 6901,
      "ĠCH": 6902,
      "Ġspl": 6903,
      "ĠVirgin": 6904,
      "Ġultimate": 6905,
      "ĠContact": 6906,
      "`=": 6907,
      "Ġcarryforwards": 6908,
      "ĠHi": 6909,
      "Ġsupplemental": 6910,
      "ĠPortfolio": 6911,
      "!+": 6912,
      "Ġutilization": 6913,
      "Ġchannel": 6914,
      "Ġexpertise": 6915,
      "Ġdevice": 6916,
      "Ġtook": 6917,
      "ĠCOMPANY": 6918,
      "ĠIncrease": 6919,
      "backed": 6920,
      "bearing": 6921,
      "Ġsupplies": 6922,
      "\"'": 6923,
      "ĠTokyo": 6924,
      "ĠFR": 6925,
      "@/": 6926,
      "`^": 6927,
      "ĠGreen": 6928,
      "ĠCor": 6929,
      "Ġwel": 6930,
      "ĠMargin": 6931,
      "Ġsummarizes": 6932,
      "Ġdistributors": 6933,
      "Ġcaution": 6934,
      "ĠSG": 6935,
      "ĠNASDAQ": 6936,
      "ĠQU": 6937,
      "Ġentirety": 6938,
      "ĠInstructions": 6939,
      "Ġpreliminary": 6940,
      "Ġretained": 6941,
      "Ġcommercialization": 6942,
      "ĠGermany": 6943,
      "ement": 6944,
      "Ġrealize": 6945,
      "$/": 6946,
      "ĠFred": 6947,
      "ĠAN": 6948,
      "ĠCare": 6949,
      "ĠFuture": 6950,
      "ĠDebtors": 6951,
      "Ġcreated": 6952,
      "Ġrig": 6953,
      "Ġunconsolidated": 6954,
      "Ġoccurrence": 6955,
      "Ġrecurring": 6956,
      "Ġintends": 6957,
      "ĠCA": 6958,
      "*(": 6959,
      "Ġholds": 6960,
      "Ġboost": 6961,
      "Ġgiving": 6962,
      "Ġrule": 6963,
      "Ġexcludes": 6964,
      "ĠKorea": 6965,
      "ĠAfric": 6966,
      "fr": 6967,
      "Ġlicensing": 6968,
      "Ġassume": 6969,
      "Ġreached": 6970,
      "Ġexceeds": 6971,
      "night": 6972,
      ",[": 6973,
      "anging": 6974,
      "Ġexting": 6975,
      "Ġpaying": 6976,
      "Ġcarried": 6977,
      "FTE": 6978,
      "Ġthanks": 6979,
      "ĠFDIC": 6980,
      "Ġtherein": 6981,
      "Ġhuman": 6982,
      "sc": 6983,
      "ĠEnviron": 6984,
      "ĠSlide": 6985,
      "CON": 6986,
      "Ġremind": 6987,
      "Ġlicensed": 6988,
      "Ġserves": 6989,
      "Ġopening": 6990,
      "&;": 6991,
      "Ġthousand": 6992,
      "ĠFHLB": 6993,
      "ĠSett": 6994,
      "Ġmort": 6995,
      "rick": 6996,
      "ĠTherefore": 6997,
      "airs": 6998,
      "Ġacceptance": 6999,
      "Ġpick": 7000,
      "ĠJapanese": 7001,
      "&+": 7002,
      "Benefit": 7003,
      "ĠDo": 7004,
      "John": 7005,
      "ideo": 7006,
      "ĠAmounts": 7007,
      "arbor": 7008,
      "ĠASSE": 7009,
      "Ġtreasury": 7010,
      "ĠBefore": 7011,
      "Ġunchanged": 7012,
      "!-": 7013,
      "ites": 7014,
      "Ġhereof": 7015,
      "ĠNET": 7016,
      "Ġauct": 7017,
      "Ġsaying": 7018,
      "resh": 7019,
      "Ġplaced": 7020,
      "Ġrespects": 7021,
      "`:": 7022,
      "Ġlocation": 7023,
      "------------": 7024,
      "`%`!": 7025,
      "vestment": 7026,
      "Ġsolely": 7027,
      "Ġtreated": 7028,
      "Ġvia": 7029,
      "PGL": 7030,
      "Ġmarketplace": 7031,
      "Ġtold": 7032,
      "ĠPan": 7033,
      "Ġassessing": 7034,
      "ĠNatural": 7035,
      "oph": 7036,
      "Ġdeterior": 7037,
      "#-": 7038,
      "Ġconsisting": 7039,
      "It": 7040,
      "BKLV": 7041,
      "ĠClosing": 7042,
      "laws": 7043,
      "Ġtenants": 7044,
      "ĠVar": 7045,
      "Based": 7046,
      "ĠTrustee": 7047,
      "ĠAward": 7048,
      "des": 7049,
      "fers": 7050,
      "ains": 7051,
      "Ġreviewed": 7052,
      "Ġhelped": 7053,
      "ĠAuthor": 7054,
      "@%": 7055,
      "ided": 7056,
      "Ġexpressly": 7057,
      "ĠDi": 7058,
      "Ġguaranteed": 7059,
      "itz": 7060,
      "Inputs": 7061,
      "Ġtalking": 7062,
      "organization": 7063,
      "ald": 7064,
      "apore": 7065,
      "Ġpermits": 7066,
      "Ġmomentum": 7067,
      "Ġlatest": 7068,
      "OLDERS": 7069,
      "ĠInstruments": 7070,
      "ham": 7071,
      "Ġpursue": 7072,
      "ĠINTER": 7073,
      "ĠTreas": 7074,
      "Ġlink": 7075,
      "Ġcross": 7076,
      "Ġinventories": 7077,
      "benefit": 7078,
      "Ġanswer": 7079,
      "Ġfront": 7080,
      "xley": 7081,
      "ĠDE": 7082,
      "Ġlosers": 7083,
      "Ġthinking": 7084,
      "ĠPayment": 7085,
      "SEC": 7086,
      "Ġclearly": 7087,
      "ĠShort": 7088,
      "ĠMal": 7089,
      "Ġacceptable": 7090,
      "Ġmetrics": 7091,
      "efined": 7092,
      "ĠBond": 7093,
      "ports": 7094,
      "ĠIssuance": 7095,
      "Ġfavor": 7096,
      "igence": 7097,
      "ĠTrad": 7098,
      "Ġprofitable": 7099,
      "arbanes": 7100,
      "FairValueInputs": 7101,
      "FairValueInputsLevel": 7102,
      "`]": 7103,
      "Ġheadquarter": 7104,
      "inite": 7105,
      "Ġconflict": 7106,
      "Ġcancell": 7107,
      "ĠSale": 7108,
      "osite": 7109,
      "Ġbecomes": 7110,
      "Ġleasing": 7111,
      "ĠThose": 7112,
      "ĠFurthermore": 7113,
      "noon": 7114,
      "aces": 7115,
      "ĠCommitments": 7116,
      "Ġmand": 7117,
      "ĠReconciliation": 7118,
      "Ġdiscounts": 7119,
      "Ġdeals": 7120,
      "BIL": 7121,
      "Ġexclude": 7122,
      "ĠReturn": 7123,
      "lementary": 7124,
      "ominated": 7125,
      "expected": 7126,
      "Ġforfe": 7127,
      "ĠBel": 7128,
      "ĠMiss": 7129,
      "ĠCFO": 7130,
      "Ġsolution": 7131,
      "Ġspecialty": 7132,
      "ĠArrange": 7133,
      "Ġreputation": 7134,
      "ounce": 7135,
      "ĠSarbanes": 7136,
      "ĠArtic": 7137,
      "ĠREG": 7138,
      "ĠSHAR": 7139,
      "ĠGovernance": 7140,
      "ĠLosses": 7141,
      "celerated": 7142,
      "Ġelectronic": 7143,
      "ĠWASH": 7144,
      "Ġhousing": 7145,
      "Ġtell": 7146,
      "easurements": 7147,
      "Ġagents": 7148,
      "ĠAsian": 7149,
      "Ġtenant": 7150,
      "Ġmonitoring": 7151,
      "Ġlowest": 7152,
      "Ġparent": 7153,
      "Ġtend": 7154,
      "Ġcalled": 7155,
      "ute": 7156,
      "ority": 7157,
      "Ġdefer": 7158,
      "Ġconsequ": 7159,
      "Ġvs": 7160,
      "Ġearn": 7161,
      "ĠBenefits": 7162,
      "ĠWASHINGTON": 7163,
      "ĠWells": 7164,
      "Ġcommunities": 7165,
      "ĠChar": 7166,
      "Ġspot": 7167,
      "ana": 7168,
      "like": 7169,
      "ĠAv": 7170,
      "Ġborrower": 7171,
      "@(": 7172,
      "Ġmitig": 7173,
      "ĠCr": 7174,
      "ĠUnrealized": 7175,
      "ĠHolders": 7176,
      "....................": 7177,
      "iment": 7178,
      "Ġwithdraw": 7179,
      "Ġintangibles": 7180,
      "ĠPaul": 7181,
      "Ġstream": 7182,
      "Ġdivision": 7183,
      "Ġrevers": 7184,
      "olute": 7185,
      "inn": 7186,
      "ĠOwnership": 7187,
      "ĠDay": 7188,
      "Ġflexibility": 7189,
      "ipping": 7190,
      "Ġutilized": 7191,
      "edia": 7192,
      "Ġsusp": 7193,
      "Ġextinguish": 7194,
      "`;": 7195,
      "lose": 7196,
      "Ġcomputed": 7197,
      "Ġrole": 7198,
      "Ġreviews": 7199,
      "ĠPost": 7200,
      "sew": 7201,
      "lows": 7202,
      "ĠUs": 7203,
      "clinical": 7204,
      "ĠFed": 7205,
      "Ġinception": 7206,
      "Ġthereafter": 7207,
      "ilit": 7208,
      "Ġbrokers": 7209,
      "Ġproblems": 7210,
      "Ġtests": 7211,
      "File": 7212,
      "sewhere": 7213,
      "uter": 7214,
      "ĠYeah": 7215,
      "Ġcandidate": 7216,
      "ĠĠĠĠĠĠĠĠĠĠĠĠĠĠĠ": 7217,
      "ĠSingapore": 7218,
      "Ġrob": 7219,
      "Ġindices": 7220,
      "Oxley": 7221,
      "Ġyuan": 7222,
      "Ġfleet": 7223,
      "Ġchannels": 7224,
      "losses": 7225,
      "Ġbelief": 7226,
      "Ġess": 7227,
      "Ġbroader": 7228,
      "Ġbi": 7229,
      "Ġcloud": 7230,
      "Ġresolution": 7231,
      "ĠTel": 7232,
      "leum": 7233,
      "unds": 7234,
      "Ġcontemplated": 7235,
      "Ġrecommend": 7236,
      "ume": 7237,
      "ĠFrench": 7238,
      "Ġtables": 7239,
      "Ġshows": 7240,
      "Ġfax": 7241,
      "ertificates": 7242,
      "ĠProt": 7243,
      "Ġoccupancy": 7244,
      "ead": 7245,
      "Ġassuming": 7246,
      "`[": 7247,
      "Ġdrop": 7248,
      "ĠEvents": 7249,
      "Ġregions": 7250,
      "Ġesc": 7251,
      "company": 7252,
      "ĠFollow": 7253,
      "ĠAvenue": 7254,
      "ĠLI": 7255,
      "As": 7256,
      "ĠLa": 7257,
      "Ġself": 7258,
      "Ġpartnerships": 7259,
      "Ġinvolving": 7260,
      "Ġbear": 7261,
      "body": 7262,
      "ored": 7263,
      "Ġretro": 7264,
      "Ġinitially": 7265,
      "Ġafternoon": 7266,
      "Ġsettled": 7267,
      "ĠIll": 7268,
      "Ġfunctions": 7269,
      "rought": 7270,
      "Ġtraining": 7271,
      "Ġexport": 7272,
      "ANS": 7273,
      "Ġwebcast": 7274,
      "ĠRegistered": 7275,
      "ĠFrank": 7276,
      "Ġdelin": 7277,
      "portion": 7278,
      "Ġconsiders": 7279,
      "Ġtermin": 7280,
      "ĠFlo": 7281,
      "...<.": 7282,
      "isis": 7283,
      "/\\`": 7284,
      "ĠRichard": 7285,
      "Ġextension": 7286,
      "ĠGo": 7287,
      "Ġdisput": 7288,
      "ĠRef": 7289,
      "alers": 7290,
      "ĠHot": 7291,
      "Ġmisstate": 7292,
      "Ġmonetary": 7293,
      "Ġsharp": 7294,
      "ara": 7295,
      "NYSE": 7296,
      "Ġcompl": 7297,
      "oma": 7298,
      "Ġrequiring": 7299,
      "berg": 7300,
      "FORMATION": 7301,
      "ĠEuro": 7302,
      "ĠTher": 7303,
      "ox": 7304,
      "lined": 7305,
      "ĠMod": 7306,
      "ĠAwards": 7307,
      "Ġeffort": 7308,
      "Ġborrowers": 7309,
      "ki": 7310,
      "ĠCustomer": 7311,
      "Ġtargeted": 7312,
      "Ġdrugs": 7313,
      "ĠStat": 7314,
      "Ġgoverning": 7315,
      "Ġattention": 7316,
      "ĠThrough": 7317,
      "BRL": 7318,
      "ancing": 7319,
      "Pr": 7320,
      "Ġhelpful": 7321,
      "Ġbill": 7322,
      "Ġeas": 7323,
      "ĠINFORMATION": 7324,
      "Ġregulated": 7325,
      "ĠSubsidiary": 7326,
      "olved": 7327,
      "ĠBankruptcy": 7328,
      "ĠLetter": 7329,
      "ĠPlace": 7330,
      "Looking": 7331,
      "ĠCOND": 7332,
      "ĠASSETS": 7333,
      "Ġreplacement": 7334,
      "ĠGl": 7335,
      "emiconduct": 7336,
      "iel": 7337,
      "Ġvendors": 7338,
      "Ġhereby": 7339,
      "ĠBenefit": 7340,
      "Ġguidelines": 7341,
      "Ġfunda": 7342,
      "Ġadministration": 7343,
      "qualified": 7344,
      "ĠInitial": 7345,
      "print": 7346,
      "ĠDeuts": 7347,
      "Ġexpanding": 7348,
      "ĠElectron": 7349,
      "hai": 7350,
      "Ġbrokerage": 7351,
      "chan": 7352,
      "Ġdial": 7353,
      "free": 7354,
      "Ġmanagers": 7355,
      "ĠGulf": 7356,
      "Ġcas": 7357,
      "Ġrenewal": 7358,
      "Ġduration": 7359,
      "ĠGRO": 7360,
      "selves": 7361,
      "ĠExcluding": 7362,
      "ĠFitch": 7363,
      "Ġbad": 7364,
      "Ġheavy": 7365,
      "ĠCit": 7366,
      "ĠDEC": 7367,
      "inery": 7368,
      "roleum": 7369,
      "unaudited": 7370,
      "David": 7371,
      "ĠResidential": 7372,
      "ĠFirm": 7373,
      "Ġmetals": 7374,
      "ĠMany": 7375,
      "Ġsecurit": 7376,
      "Ġconfident": 7377,
      "Ġjump": 7378,
      "ux": 7379,
      "Ġcrisis": 7380,
      "ĠOh": 7381,
      "EAR": 7382,
      "lin": 7383,
      "Ġmine": 7384,
      "Ġconfidential": 7385,
      "ĠExcept": 7386,
      "Ġexception": 7387,
      "Ġmerchand": 7388,
      "Ġlender": 7389,
      "Ġbott": 7390,
      "Ġenforcement": 7391,
      "Ġthreat": 7392,
      "Ġhotel": 7393,
      "ĠFrance": 7394,
      "Ġconsecutive": 7395,
      "Ġdoubtful": 7396,
      "Ġfunctional": 7397,
      "ĠWestern": 7398,
      "ĠMon": 7399,
      "Ġguide": 7400,
      "Ġretention": 7401,
      "Ġdistributed": 7402,
      "plus": 7403,
      "ĠIndustries": 7404,
      "ĠTrade": 7405,
      "ĠMeas": 7406,
      "Ġgroups": 7407,
      "Ġcontact": 7408,
      "Ġallowed": 7409,
      "ilver": 7410,
      "Ġsituation": 7411,
      "ĠDISC": 7412,
      "ICES": 7413,
      "Ġshorter": 7414,
      "Ġenacted": 7415,
      "ĠIncre": 7416,
      "bedded": 7417,
      "uar": 7418,
      "ĠAdministration": 7419,
      "Ġfeatures": 7420,
      "Ġdecreases": 7421,
      "ĠMaster": 7422,
      "Ġsupporting": 7423,
      "Ġsubscription": 7424,
      "collect": 7425,
      "Ġsteady": 7426,
      "bel": 7427,
      "Ġelectricity": 7428,
      "ĠRetirement": 7429,
      "Ġopened": 7430,
      "prises": 7431,
      "ĠRen": 7432,
      "Ġproductivity": 7433,
      ".<": 7434,
      "Ġbuilt": 7435,
      "ĠAustralian": 7436,
      "Ġphysical": 7437,
      "Ġplatforms": 7438,
      "ength": 7439,
      "Ġsubsequently": 7440,
      "eek": 7441,
      "Ġmac": 7442,
      "rey": 7443,
      "unded": 7444,
      "Ġeduc": 7445,
      "Ġtrader": 7446,
      "bu": 7447,
      "ats": 7448,
      "Ġserving": 7449,
      "TORS": 7450,
      "efinite": 7451,
      "effect": 7452,
      "ĠEnvironmental": 7453,
      "Ġindicators": 7454,
      "ries": 7455,
      "================================": 7456,
      "dom": 7457,
      "ĠTopic": 7458,
      "Ġexecutives": 7459,
      "lines": 7460,
      "Ġextinguishment": 7461,
      "Ġinstitutional": 7462,
      "Ġ$.": 7463,
      "Ġnetworks": 7464,
      "Ġtrademarks": 7465,
      "ĠLegal": 7466,
      "ĠWeek": 7467,
      "OND": 7468,
      "ĠBrok": 7469,
      "Ġinnovation": 7470,
      "ĠMost": 7471,
      "Ġprofile": 7472,
      "Ġpriv": 7473,
      "Ġsplit": 7474,
      "Ġreform": 7475,
      "Ġresid": 7476,
      "Ġlog": 7477,
      "Ġage": 7478,
      "ĠSTOCKH": 7479,
      "odd": 7480,
      "ĠStockholder": 7481,
      "Ġweaker": 7482,
      "income": 7483,
      "ĠStanley": 7484,
      "ĠMult": 7485,
      "uate": 7486,
      "...[.": 7487,
      "icians": 7488,
      "Ġreverse": 7489,
      "ĠPrepaid": 7490,
      "ĠPER": 7491,
      "Ġchemical": 7492,
      "ĠRegulatory": 7493,
      "ferences": 7494,
      "fort": 7495,
      "Ġexcited": 7496,
      "ĠVirginia": 7497,
      "ĠRecent": 7498,
      "ĠPurchases": 7499,
      "acks": 7500,
      "ĠDeutsche": 7501,
      "Ġannouncement": 7502,
      "Ġmechan": 7503,
      "Ġpace": 7504,
      "Ġlisting": 7505,
      "Ġcopper": 7506,
      "Ġclean": 7507,
      "Ġtight": 7508,
      "recurring": 7509,
      "Ġmanufacturer": 7510,
      "Ġdraw": 7511,
      "Ġoperators": 7512,
      "Ġindemnification": 7513,
      "rest": 7514,
      "ĠExpected": 7515,
      "die": 7516,
      "=')": 7517,
      "urb": 7518,
      "ĠAgency": 7519,
      "Ġrecoverable": 7520,
      "Ġcomputer": 7521,
      "Ġsuggest": 7522,
      "Ġpoll": 7523,
      "ĠCarol": 7524,
      "ĠMem": 7525,
      "$`": 7526,
      "acc": 7527,
      "dig": 7528,
      "ierarch": 7529,
      "Ġtherapy": 7530,
      "lands": 7531,
      "Ġextreme": 7532,
      "ĠEnt": 7533,
      "Ġoccurs": 7534,
      "Ġrepurchases": 7535,
      "Ġmarketable": 7536,
      "atically": 7537,
      "))))))))": 7538,
      "commun": 7539,
      "Ġemissions": 7540,
      "ecrease": 7541,
      "Ġrough": 7542,
      "Ġcivil": 7543,
      "Ġparticipating": 7544,
      "Ġleader": 7545,
      "ĠAM": 7546,
      "Ġintegral": 7547,
      "Ġrad": 7548,
      "Ġtruck": 7549,
      "Ġmatch": 7550,
      "topnews": 7551,
      "ylvan": 7552,
      "Ġobjective": 7553,
      "ĠDerivative": 7554,
      "Ġwondering": 7555,
      "Ġconformity": 7556,
      "ĠINV": 7557,
      "Non": 7558,
      "ĠIssuer": 7559,
      "ĠĠĠĠĠĠĠĠĠĠĠĠĠĠĠĠĠĠĠĠĠĠĠĠĠĠĠĠĠĠĠĠ": 7560,
      "ĠChrist": 7561,
      "Ġpractice": 7562,
      "Ġdefinition": 7563,
      "Ġconsultants": 7564,
      "Ġlaunched": 7565,
      "Ġser": 7566,
      "arget": 7567,
      "Ġbrought": 7568,
      "Ġpriority": 7569,
      "Ġfinanc": 7570,
      "ĠDom": 7571,
      "bit": 7572,
      "ĠDefin": 7573,
      "Ġelsewhere": 7574,
      "Ġinsured": 7575,
      "oly": 7576,
      "Ġnever": 7577,
      "Ġobservable": 7578,
      "ATE": 7579,
      "ĠMary": 7580,
      "Ġphase": 7581,
      "ĠExt": 7582,
      "ierarchy": 7583,
      "Ġsolicitation": 7584,
      "ĠInventories": 7585,
      "ĠPRC": 7586,
      "FTEU": 7587,
      "FRX": 7588,
      "ĠFree": 7589,
      "Ġprospective": 7590,
      "hips": 7591,
      "Ġvess": 7592,
      "ompt": 7593,
      "ĠXBRL": 7594,
      "Inc": 7595,
      "Ġunfavorable": 7596,
      "Ġramp": 7597,
      "share": 7598,
      "quency": 7599,
      "Ġagree": 7600,
      "ĠThomas": 7601,
      "Ġremainder": 7602,
      "ĠUSA": 7603,
      "Ġcomparison": 7604,
      "ĠMAN": 7605,
      "DIARY": 7606,
      "Ġmacro": 7607,
      "Ġincent": 7608,
      "uing": 7609,
      "pendence": 7610,
      "ĠPenns": 7611,
      "Ġupdated": 7612,
      "anghai": 7613,
      "Ġfunction": 7614,
      "ĠPolicies": 7615,
      "Ġturnover": 7616,
      "Ġchallenging": 7617,
      "inois": 7618,
      "ylvania": 7619,
      "Michael": 7620,
      "Ġsatisfaction": 7621,
      "apeutics": 7622,
      "ĠRating": 7623,
      "Ġreplay": 7624,
      "Ġsocial": 7625,
      "lev": 7626,
      "IABIL": 7627,
      "Ġproved": 7628,
      "#`": 7629,
      "KET": 7630,
      "Ġintr": 7631,
      "urers": 7632,
      "ĠRoad": 7633,
      "Ġindicative": 7634,
      "Ġgives": 7635,
      "Ġproducing": 7636,
      "Ġindirectly": 7637,
      "Ġrepurchased": 7638,
      "ĠRESUL": 7639,
      "now": 7640,
      "affil": 7641,
      "Ġannualized": 7642,
      "Ġ**": 7643,
      "NASDAQ": 7644,
      "riting": 7645,
      "Inter": 7646,
      "kel": 7647,
      "Ġregulators": 7648,
      "Ġproceeding": 7649,
      "ĠFollowing": 7650,
      "ĠLIABIL": 7651,
      "ĠNEW": 7652,
      "ĠPharmaceuticals": 7653,
      "Ġvideo": 7654,
      "Ġtender": 7655,
      "Note": 7656,
      "Ġmach": 7657,
      "Ġhyd": 7658,
      "unicip": 7659,
      "ĠĠĠĠĠĠĠĠĠĠĠĠĠ": 7660,
      "ĠRatio": 7661,
      "ĠLyn": 7662,
      "Ġsupplier": 7663,
      "roph": 7664,
      "Ġdownt": 7665,
      "Ġwarranty": 7666,
      "errit": 7667,
      "thics": 7668,
      "Ġfores": 7669,
      "ĠSTOCKS": 7670,
      "ĠBase": 7671,
      "ĠPennsylvania": 7672,
      "Ġassigned": 7673,
      "Ġpublished": 7674,
      "oration": 7675,
      "Ġduties": 7676,
      "Ġconsidering": 7677,
      "Ġdiscussions": 7678,
      "Ġreliability": 7679,
      "ĠCounsel": 7680,
      "Ġwelcome": 7681,
      "erate": 7682,
      "ĠSuper": 7683,
      "Ġexpensed": 7684,
      "Ġenough": 7685,
      "Ġseparately": 7686,
      "ama": 7687,
      "Ġapprec": 7688,
      "ĠAR": 7689,
      "ĠNOI": 7690,
      "ĠACCOUNTING": 7691,
      "Ġforms": 7692,
      "ĠDeposit": 7693,
      "Ġholid": 7694,
      "EMBER": 7695,
      "irst": 7696,
      "Ġediting": 7697,
      "Ġclosely": 7698,
      "Ġlever": 7699,
      "Ġthought": 7700,
      "Ġestablishing": 7701,
      "Ġprec": 7702,
      "Ġcollaboration": 7703,
      "Ġce": 7704,
      "ĠSTOXX": 7705,
      "Ġsupported": 7706,
      "Ġherewith": 7707,
      "____________": 7708,
      "parties": 7709,
      "ĠAvail": 7710,
      "Ġdelivering": 7711,
      "Ġsentiment": 7712,
      "ĠMont": 7713,
      "ĠSever": 7714,
      "ndered": 7715,
      "Ġcommission": 7716,
      "Ġundertake": 7717,
      "manent": 7718,
      "ximately": 7719,
      "AND": 7720,
      "zard": 7721,
      "Ġassert": 7722,
      "TAL": 7723,
      "emiconductor": 7724,
      "Ġpayroll": 7725,
      "ĠAffil": 7726,
      "Ġassure": 7727,
      "ĠProduction": 7728,
      "Ġroom": 7729,
      "Ġtrig": 7730,
      "Risk": 7731,
      "etic": 7732,
      "Ġauction": 7733,
      "reshold": 7734,
      "ĠMich": 7735,
      "ĠMeasures": 7736,
      "ĠWater": 7737,
      "ersey": 7738,
      "Ġpet": 7739,
      "ĠMae": 7740,
      "ĠSix": 7741,
      "Ġmodest": 7742,
      "ĠEastern": 7743,
      "Ġdynam": 7744,
      "Ġaggress": 7745,
      "Ġdisruptions": 7746,
      "ming": 7747,
      "Ġblock": 7748,
      "ĠRussia": 7749,
      "ĠAT": 7750,
      "Ġlose": 7751,
      "Ġabsolute": 7752,
      "ĠRELE": 7753,
      "ĠGoldman": 7754,
      "which": 7755,
      "Ġarise": 7756,
      "unicipal": 7757,
      "evin": 7758,
      "ĠPresentation": 7759,
      "ĠBill": 7760,
      "Ġframework": 7761,
      "Ġhierarchy": 7762,
      "ĠCondensed": 7763,
      "ĠMe": 7764,
      "ete": 7765,
      "Ġpeak": 7766,
      "ĠSmith": 7767,
      "ĠRob": 7768,
      "Ġwireless": 7769,
      "mph": 7770,
      "===": 7771,
      "olve": 7772,
      "Fr": 7773,
      "Ġpermanent": 7774,
      "ĠIndian": 7775,
      "ĠTelecom": 7776,
      "ĠBAL": 7777,
      "Ġways": 7778,
      "Ġcertificate": 7779,
      "Ġaway": 7780,
      "Ġimposed": 7781,
      "Ġpan": 7782,
      "Ġreclassified": 7783,
      "````````````````": 7784,
      "ĠSettlement": 7785,
      "ishing": 7786,
      "location": 7787,
      "Ġom": 7788,
      "Ġanalyz": 7789,
      "orne": 7790,
      "ĠRESULTS": 7791,
      "Ġpes": 7792,
      "Ġfacilit": 7793,
      "Ġdirection": 7794,
      "ĠLIABILITIES": 7795,
      "Ġexists": 7796,
      "Ġassumption": 7797,
      "uarial": 7798,
      "ATING": 7799,
      "Ġteams": 7800,
      "ĠOhio": 7801,
      "dollars": 7802,
      "Ġcontrolled": 7803,
      "gages": 7804,
      "Ġincl": 7805,
      "ĠDisclosures": 7806,
      "Ġcovering": 7807,
      "ĠIllinois": 7808,
      "ĠFort": 7809,
      "Ġcapt": 7810,
      "Ġtools": 7811,
      "Ġdiagn": 7812,
      "ĠEngine": 7813,
      "ĠHist": 7814,
      "Ġpled": 7815,
      "ĠFLO": 7816,
      "Ġver": 7817,
      "collectively": 7818,
      "%`": 7819,
      "ĠManufact": 7820,
      "try": 7821,
      "ĠBroad": 7822,
      "ricult": 7823,
      "ĠFl": 7824,
      "Ġimpose": 7825,
      "Ġfeed": 7826,
      "Ġoun": 7827,
      "ĠLeases": 7828,
      "amm": 7829,
      "ĠMart": 7830,
      "ĠSER": 7831,
      "Ġsch": 7832,
      "ĠMy": 7833,
      "Ġrestaurants": 7834,
      "session": 7835,
      "ĠReported": 7836,
      "istry": 7837,
      "acing": 7838,
      "Ġ-------": 7839,
      "Ġprepayment": 7840,
      "Ġrevise": 7841,
      "orth": 7842,
      "<<": 7843,
      "Ġacquiring": 7844,
      "ĠOm": 7845,
      "Ġsustained": 7846,
      "END": 7847,
      "ansas": 7848,
      "URES": 7849,
      "Ġinvestigation": 7850,
      "Ġexpectation": 7851,
      "ĠScott": 7852,
      "egrated": 7853,
      "ĠPip": 7854,
      "vis": 7855,
      "Ġforesee": 7856,
      "urity": 7857,
      "ĠJersey": 7858,
      "ĠFreddie": 7859,
      "Ġstabil": 7860,
      "ĠFormer": 7861,
      "ignation": 7862,
      "Ġdisruption": 7863,
      "ĠShanghai": 7864,
      "face": 7865,
      "Ġrobust": 7866,
      "Ġcontribute": 7867,
      "Ġgrade": 7868,
      ")`": 7869,
      "week": 7870,
      "Ġconsummation": 7871,
      "ĠSIGNATURE": 7872,
      "Ġtraffic": 7873,
      "Ġdetermines": 7874,
      "Ġawarded": 7875,
      "ĠWil": 7876,
      "Ġhours": 7877,
      "Ġcompens": 7878,
      "Ġappreciation": 7879,
      "ole": 7880,
      "Securities": 7881,
      "Ġever": 7882,
      "atter": 7883,
      "Ġenhanced": 7884,
      "Ġconcentr": 7885,
      "Ġroughly": 7886,
      "thern": 7887,
      "Ġindefinite": 7888,
      "Ġredeemable": 7889,
      "Ġprompt": 7890,
      "ĠPol": 7891,
      "Ġvolatile": 7892,
      "Ġformul": 7893,
      "ĠCertification": 7894,
      "Ġlabel": 7895,
      "ĠBeneficial": 7896,
      "ĠEND": 7897,
      "Ġ________________": 7898,
      "ĠDon": 7899,
      "accr": 7900,
      "accrual": 7901,
      "ĠDig": 7902,
      "urchase": 7903,
      "Ġnom": 7904,
      "Ġnames": 7905,
      "Ġequities": 7906,
      "Ġpresence": 7907,
      "Ġfix": 7908,
      "ray": 7909,
      "Ġcommunication": 7910,
      "Ġhazard": 7911,
      "ĠDem": 7912,
      "ground": 7913,
      "gia": 7914,
      "ithold": 7915,
      "ĠAdd": 7916,
      "Ġpath": 7917,
      "ĠEquities": 7918,
      "TAIN": 7919,
      "asers": 7920,
      "Ġattempt": 7921,
      "quently": 7922,
      "utes": 7923,
      "Ġexit": 7924,
      "Ġlength": 7925,
      "orporations": 7926,
      "Ġexposed": 7927,
      "bon": 7928,
      "Ġimpairments": 7929,
      "ĠHOLD": 7930,
      "Ġsomewh": 7931,
      "Ġdilutive": 7932,
      "Ġaccelerate": 7933,
      "Ġemployed": 7934,
      "Sc": 7935,
      "ĠLouisiana": 7936,
      "ĠNYSE": 7937,
      "Ġpossibility": 7938,
      "ĠRoyal": 7939,
      "Ġannivers": 7940,
      "lot": 7941,
      "ceptions": 7942,
      "Ġdifficulties": 7943,
      "ĠAtt": 7944,
      "Ġactively": 7945,
      "Ġfinished": 7946,
      "Ġranging": 7947,
      "Ġtum": 7948,
      "ĠRequ": 7949,
      "letion": 7950,
      "Mark": 7951,
      "ĠSS": 7952,
      "ĠRem": 7953,
      "ĠProfit": 7954,
      "Ġpattern": 7955,
      "ĠMike": 7956,
      "ORE": 7957,
      "Ġthereby": 7958,
      "Ġincentives": 7959,
      "Ġzero": 7960,
      "Ġdivided": 7961,
      "amil": 7962,
      "ĠBal": 7963,
      "Ġtitle": 7964,
      "Ġrelief": 7965,
      "Ġretailers": 7966,
      "ARD": 7967,
      "omb": 7968,
      "Ġaffiliated": 7969,
      "Ġpostretirement": 7970,
      "orado": 7971,
      "ĠCollateral": 7972,
      "Ġpurchasing": 7973,
      "Ġpositioned": 7974,
      "^^^^^^^^^^^^^^^^": 7975,
      "iences": 7976,
      "Ġdeath": 7977,
      "Ġsimp": 7978,
      "cel": 7979,
      "))))*": 7980,
      "Ġnuclear": 7981,
      "Ġcamp": 7982,
      "ĠAcquisitions": 7983,
      "apt": 7984,
      "ensions": 7985,
      "ĠAgain": 7986,
      "Ġill": 7987,
      "ĠDollar": 7988,
      "Ġaspects": 7989,
      "ĠWal": 7990,
      "Ġlooks": 7991,
      "ĠNext": 7992,
      "ĠBritish": 7993,
      "uk": 7994,
      "ĠFound": 7995,
      "ĠExercise": 7996,
      "fully": 7997,
      "Ġdefici": 7998,
      "folios": 7999,
      "Ġfulf": 8000,
      "ĠPropos": 8001,
      "Ġoutcomes": 8002,
      "ifth": 8003,
      "Ġ~": 8004,
      "ams": 8005,
      "Ġcommenced": 8006,
      "ĠContracts": 8007,
      "Ġcharacteristics": 8008,
      "Ġformed": 8009,
      "annie": 8010,
      "forward": 8011,
      "ĠConting": 8012,
      "Ġconsequences": 8013,
      "ayments": 8014,
      "Ġtechnological": 8015,
      "DDDDI": 8016,
      "ifiable": 8017,
      "Ġsteps": 8018,
      "Defined": 8019,
      "ky": 8020,
      "-`": 8021,
      "ĠStocks": 8022,
      "ĠCapEx": 8023,
      "Ġrecognizes": 8024,
      "Ġrepresentations": 8025,
      "ĠBeg": 8026,
      "Ġreconcil": 8027,
      "Credit": 8028,
      "ĠTur": 8029,
      "Ġnewly": 8030,
      "ĠSach": 8031,
      "ĠEU": 8032,
      "Ġremediation": 8033,
      "ĠDeposits": 8034,
      "Ġdeep": 8035,
      "ĠHed": 8036,
      "ĠIts": 8037,
      "Ġexceeded": 8038,
      "ĠLicense": 8039,
      "Ġwarranties": 8040,
      "Ġdetect": 8041,
      ",`": 8042,
      "ĠRiver": 8043,
      "ipts": 8044,
      "Ġopp": 8045,
      "ĠRisks": 8046,
      "aiver": 8047,
      "Ġrunning": 8048,
      "ĠCas": 8049,
      "ĠSubsequent": 8050,
      "Ġfranc": 8051,
      "Ġdiscip": 8052,
      "Al": 8053,
      "ĠEstimated": 8054,
      "Ġauto": 8055,
      "uston": 8056,
      "Ġsubmit": 8057,
      "ks": 8058,
      "Ġapprove": 8059,
      "ĠIS": 8060,
      "sub": 8061,
      "iary": 8062,
      "Ġavo": 8063,
      "Ġseems": 8064,
      "ĠLenders": 8065,
      "ĠSpecified": 8066,
      "ĠDECEMBER": 8067,
      "rove": 8068,
      "Ġitself": 8069,
      "Ġmerg": 8070,
      "ĠMass": 8071,
      "Ġinnovative": 8072,
      "Ġdispl": 8073,
      "ICS": 8074,
      "Ġworkers": 8075,
      "ĠLiquidity": 8076,
      "ĠTelephone": 8077,
      "Ġproportion": 8078,
      "Ġtakes": 8079,
      "Ġthus": 8080,
      "Ġachievement": 8081,
      "ĠDrug": 8082,
      "DefinedBenefit": 8083,
      "ĠDen": 8084,
      "ĠDu": 8085,
      "Ġtext": 8086,
      "ĠAtlant": 8087,
      "ĠPolicy": 8088,
      "PER": 8089,
      "Ġhomes": 8090,
      "Equ": 8091,
      "Ġpressures": 8092,
      "Ġelements": 8093,
      "Ġclassification": 8094,
      "Ġautomotive": 8095,
      "Ġthreshold": 8096,
      "Ġdism": 8097,
      "Ġmeasurements": 8098,
      "ĠFargo": 8099,
      "ĠJurisdict": 8100,
      "uity": 8101,
      "ĠFannie": 8102,
      "ario": 8103,
      "utch": 8104,
      "irmed": 8105,
      "nergies": 8106,
      "ĠAfrica": 8107,
      "ĠColumb": 8108,
      "Ġbearing": 8109,
      "ĠJoint": 8110,
      "Ġroyalties": 8111,
      "Ġcontingencies": 8112,
      "Ġfast": 8113,
      "ĠConsult": 8114,
      "VEN": 8115,
      "Ġvirt": 8116,
      "erry": 8117,
      "continued": 8118,
      "Ġobligated": 8119,
      "ij": 8120,
      "Ġtransl": 8121,
      "iling": 8122,
      "ĠSur": 8123,
      "Ġcompound": 8124,
      "ĠĠĠĠĠĠĠĠĠĠĠĠĠĠ": 8125,
      "ĠTOTAL": 8126,
      "Ġdidn": 8127,
      "Ġexact": 8128,
      "Ġportfolios": 8129,
      "/`": 8130,
      "ĠSachs": 8131,
      "untary": 8132,
      "Ġaccordingly": 8133,
      "Ġsummarized": 8134,
      "Ġmature": 8135,
      "><": 8136,
      "logy": 8137,
      "DJI": 8138,
      "arges": 8139,
      "ĠDC": 8140,
      "Ġsponsor": 8141,
      "Ġlear": 8142,
      "ĠRock": 8143,
      "akers": 8144,
      "TEN": 8145,
      "ĠDrive": 8146,
      "Ġrestaurant": 8147,
      "Ġoutput": 8148,
      "ĠUBS": 8149,
      "aler": 8150,
      "Ġinvolves": 8151,
      "ĠMicro": 8152,
      "stein": 8153,
      "Ġshipments": 8154,
      "ĠBasis": 8155,
      "Ġcounsel": 8156,
      "ĠHealthcare": 8157,
      "ĠSoftware": 8158,
      "arma": 8159,
      "ĠChic": 8160,
      "Ġcondensed": 8161,
      "ĠCarolina": 8162,
      "ĠSure": 8163,
      "hen": 8164,
      "eterm": 8165,
      "digit": 8166,
      "Ġdownturn": 8167,
      "ĠMill": 8168,
      "ĠFull": 8169,
      "ĠOrig": 8170,
      "ĠVIE": 8171,
      "Ġshe": 8172,
      "errill": 8173,
      "Ġded": 8174,
      "athering": 8175,
      "ĠIndustry": 8176,
      "ounter": 8177,
      "Ġrecovered": 8178,
      "Ġconstr": 8179,
      "onounce": 8180,
      "Ġware": 8181,
      "ĠCombined": 8182,
      "arding": 8183,
      "ĠCop": 8184,
      "Ġâ": 8185,
      "ĠGenerally": 8186,
      "Ġsatisfied": 8187,
      "opic": 8188,
      "hore": 8189,
      "ĠBALANCE": 8190,
      "ĠLynch": 8191,
      "Ġresource": 8192,
      "ĠRev": 8193,
      "Ġconserv": 8194,
      "Ġhealthy": 8195,
      "Ġmaintains": 8196,
      "Ġpursu": 8197,
      "outh": 8198,
      "Ġwatch": 8199,
      "Ġexpressions": 8200,
      "Ġglob": 8201,
      "amort": 8202,
      "Ġcounterparties": 8203,
      "ĠRealty": 8204,
      "ĠRight": 8205,
      "Ġwaste": 8206,
      "men": 8207,
      "Ġdelayed": 8208,
      "Ġinspect": 8209,
      "Ġachieving": 8210,
      "communications": 8211,
      "ĠOverview": 8212,
      "ĠArrangements": 8213,
      "Ġcontrolling": 8214,
      "ĠJPM": 8215,
      "ĠFERC": 8216,
      "Ġmitigate": 8217,
      "Ġmilestone": 8218,
      "Ġdistribute": 8219,
      "Ġalleged": 8220,
      "Segment": 8221,
      "Ġrail": 8222,
      "Ġextra": 8223,
      "Ass": 8224,
      "Ġshipping": 8225,
      "ĠBY": 8226,
      "Ġterrit": 8227,
      "iber": 8228,
      "Ġrally": 8229,
      "Ġutilities": 8230,
      "Ġir": 8231,
      "ientific": 8232,
      "na": 8233,
      "Ġefficacy": 8234,
      "ĠOffer": 8235,
      "laim": 8236,
      "'`": 8237,
      "stone": 8238,
      "Ġsevere": 8239,
      "ĠHouston": 8240,
      "ĠRELEASE": 8241,
      "Notes": 8242,
      "ĠJr": 8243,
      "Ġreportable": 8244,
      "]`": 8245,
      "ĠValuation": 8246,
      "Ġperiodically": 8247,
      "Ġauthorization": 8248,
      "Ġparticipant": 8249,
      "Ġ................................": 8250,
      "ĠProtection": 8251,
      "athan": 8252,
      "ĠLO": 8253,
      "Ġexhibits": 8254,
      "Ġovernight": 8255,
      "downs": 8256,
      "enny": 8257,
      "Ġforeseeable": 8258,
      "Ġgovernance": 8259,
      "ĠJurisdiction": 8260,
      "ĠJun": 8261,
      "aving": 8262,
      "ĠRepresents": 8263,
      "ĠJose": 8264,
      "Ġincreasingly": 8265,
      "ĠAvailable": 8266,
      "Ġexcell": 8267,
      "Ġcells": 8268,
      "Ph": 8269,
      "ĠMoreover": 8270,
      "CES": 8271,
      "Ġefficiencies": 8272,
      "ĠMARKET": 8273,
      "Ġassessments": 8274,
      "ĠAssum": 8275,
      "Ġconfirm": 8276,
      "Ġdrivers": 8277,
      "ĠBeginning": 8278,
      "Ġzone": 8279,
      "ounted": 8280,
      "Ġoriginally": 8281,
      "(\"`@(\"`@(\"`@(\"`@(\"`@(\"`@(\"`@(\"`@": 8282,
      "umin": 8283,
      "ĠTreasurer": 8284,
      "Ġappeal": 8285,
      "Ġpromissory": 8286,
      "ĠControls": 8287,
      "Ġhotels": 8288,
      "Ġinfluence": 8289,
      "ica": 8290,
      "Ġinterested": 8291,
      "=`": 8292,
      "Ġprospectus": 8293,
      "terling": 8294,
      "Ġsettlements": 8295,
      "ĠBuy": 8296,
      "Ġplaint": 8297,
      "Ġmerchandise": 8298,
      "DEX": 8299,
      "Ġentering": 8300,
      "Ġprepaid": 8301,
      "burg": 8302,
      "?`": 8303,
      "ĠRent": 8304,
      "observable": 8305,
      "(`\"``@`(`\"``@`(`\"``@`(`\"``@`": 8306,
      "ĠEven": 8307,
      "HOT": 8308,
      "iques": 8309,
      "aints": 8310,
      "Ġcomplaint": 8311,
      "author": 8312,
      "Ġproposal": 8313,
      "Ġdisclose": 8314,
      "Ġrendered": 8315,
      "REE": 8316,
      "inding": 8317,
      "Ġcapitalization": 8318,
      "Ġapproximate": 8319,
      "Ġbottom": 8320,
      "Ġrapidly": 8321,
      "Ġcult": 8322,
      "Ġcrown": 8323,
      "Ġexpl": 8324,
      "Ġanniversary": 8325,
      "Ġsurvey": 8326,
      "ĠYEAR": 8327,
      "enz": 8328,
      "Ġtonnes": 8329,
      "Ġdispositions": 8330,
      "ĠChicago": 8331,
      "ĠEconomic": 8332,
      "Ġcommercialize": 8333,
      "ĠOffices": 8334,
      "Ġoffshore": 8335,
      "ĠSteve": 8336,
      "Ġavoid": 8337,
      "Ġcount": 8338,
      "ĠREC": 8339,
      "Ġcertificates": 8340,
      "igan": 8341,
      "Ġclasses": 8342,
      "Ġdropped": 8343,
      "Ġexamination": 8344,
      "Ġtelevision": 8345,
      "Ġbasically": 8346,
      "justed": 8347,
      "Ġbuildings": 8348,
      "Ġproducer": 8349,
      "URE": 8350,
      "Ġcalls": 8351,
      "ĠNGL": 8352,
      "ĠGeorgia": 8353,
      "ĠCustomers": 8354,
      "ĠForma": 8355,
      "Ġembedded": 8356,
      "angu": 8357,
      "Eur": 8358,
      "rief": 8359,
      "wa": 8360,
      "Gen": 8361,
      "Ġhim": 8362,
      "yr": 8363,
      "Ġschedules": 8364,
      "Ġmortgages": 8365,
      "Ġpopulation": 8366,
      "[`": 8367,
      "ĠStaff": 8368,
      "izable": 8369,
      "^`": 8370,
      "Ġsynergies": 8371,
      "Ġnewsp": 8372,
      "Ġjoined": 8373,
      "......": 8374,
      "Ġhaven": 8375,
      "ourcing": 8376,
      "Ġfresh": 8377,
      "oung": 8378,
      "Ġcommodities": 8379,
      "ĠKingdom": 8380,
      "ĠLow": 8381,
      "Ġcomfort": 8382,
      "Ġorigination": 8383,
      "cers": 8384,
      "ĠCAP": 8385,
      "Ġunknown": 8386,
      "Ġexpensive": 8387,
      "ĠLatin": 8388,
      "Ġregardless": 8389,
      "Ġ\"@": 8390,
      "ĠAmericas": 8391,
      "isco": 8392,
      "ĠVer": 8393,
      "Ġraising": 8394,
      "well": 8395,
      "Ġeliminated": 8396,
      "ĠAddress": 8397,
      "lick": 8398,
      "astroph": 8399,
      "Ġcontext": 8400,
      "Ġwhom": 8401,
      "ĠEvent": 8402,
      "iant": 8403,
      ":`": 8404,
      "Ġmetal": 8405,
      "ĠFee": 8406,
      "Ġfollowed": 8407,
      "ĠOrder": 8408,
      "Ġstrateg": 8409,
      "arrow": 8410,
      "ĠEPA": 8411,
      "ĠLooking": 8412,
      "ulg": 8413,
      "ĠGROUP": 8414,
      "essionals": 8415,
      "Ġcaut": 8416,
      "Ġsearch": 8417,
      "alent": 8418,
      "ĠKe": 8419,
      "Ġreorganization": 8420,
      "Comp": 8421,
      "Ġold": 8422,
      ".<.": 8423,
      "ĠContribut": 8424,
      "ĠSupply": 8425,
      "ĠRSUs": 8426,
      "reen": 8427,
      "ĠCommod": 8428,
      "ĠIndemn": 8429,
      "Ġlawsuits": 8430,
      "TIONS": 8431,
      "UST": 8432,
      "Ġdefense": 8433,
      "ĠMaryland": 8434,
      ".`": 8435,
      "Ġgaming": 8436,
      "ognition": 8437,
      "ĠValley": 8438,
      "An": 8439,
      "Ġwithhold": 8440,
      "easurement": 8441,
      "ĠTom": 8442,
      "imedia": 8443,
      "Ġsequentially": 8444,
      "Ġchip": 8445,
      "ĠTwo": 8446,
      "ĠPercentage": 8447,
      "&`": 8448,
      "Ġmutual": 8449,
      "Ġrepaid": 8450,
      "Ġspreads": 8451,
      "Ġdiss": 8452,
      "Ġuser": 8453,
      "PEUR": 8454,
      "Ġemerg": 8455,
      "ECI": 8456,
      "Ġheadwind": 8457,
      "Ġmaxim": 8458,
      "ĠDated": 8459,
      "Ġappreciate": 8460,
      "Ġreceiving": 8461,
      "Ġ________________________________": 8462,
      "Ġsoft": 8463,
      "ĠHighl": 8464,
      "Ġu": 8465,
      "Ġmethodology": 8466,
      "Ġbehind": 8467,
      "*`": 8468,
      "Ġconstruct": 8469,
      "UTERS": 8470,
      "ĠBoth": 8471,
      "Ġdismiss": 8472,
      "ĠInventory": 8473,
      "Ġfigures": 8474,
      "ĠHistor": 8475,
      "VER": 8476,
      "ma": 8477,
      "Ġassessed": 8478,
      "ĠSupplementary": 8479,
      "ĠMerrill": 8480,
      "ĠTurning": 8481,
      ";`": 8482,
      "ĠManaging": 8483,
      "ĠEmployees": 8484,
      "ĠGiven": 8485,
      "LOS": 8486,
      "ĠColorado": 8487,
      "ĠGuid": 8488,
      "ĠItaly": 8489,
      "Ġsensitive": 8490,
      "ĠPeter": 8491,
      "ĠSHE": 8492,
      "ĠUse": 8493,
      "Ġassumes": 8494,
      "spec": 8495,
      "ĠES": 8496,
      "Ġbuyers": 8497,
      "Ġouts": 8498,
      "ĠDeb": 8499,
      "enty": 8500,
      "road": 8501,
      "Ġmoves": 8502,
      "ĠLine": 8503,
      "Ġtoward": 8504,
      "Ġinterru": 8505,
      "ĠFranc": 8506,
      "reek": 8507,
      "ĠIr": 8508,
      "Ġmoved": 8509,
      "ĠCard": 8510,
      "Ġconclus": 8511,
      "ĠBrian": 8512,
      "pre": 8513,
      "Ġfeature": 8514,
      "ĠTermination": 8515,
      "las": 8516,
      "TIV": 8517,
      "Ġrequested": 8518,
      "ihood": 8519,
      "ĠAssociates": 8520,
      "emptions": 8521,
      "kelihood": 8522,
      "rs": 8523,
      "ider": 8524,
      "Ġadmin": 8525,
      "Ġfloor": 8526,
      "Ġsymbol": 8527,
      "ittees": 8528,
      "Ġexceptions": 8529,
      ">`": 8530,
      "ĠMiddle": 8531,
      "intend": 8532,
      "ibilities": 8533,
      "amortized": 8534,
      "ĠWood": 8535,
      "isse": 8536,
      "Ġspent": 8537,
      "ĠSteph": 8538,
      "Net": 8539,
      "gov": 8540,
      "oston": 8541,
      "service": 8542,
      "Ġhouse": 8543,
      "ĠConf": 8544,
      "Ġready": 8545,
      "(\"]": 8546,
      "Ġsan": 8547,
      "Plans": 8548,
      "Ġlikelihood": 8549,
      "ĠFROM": 8550,
      "ecurring": 8551,
      "Ġmanagements": 8552,
      "cular": 8553,
      "ĠJPMorgan": 8554,
      "Ġupdates": 8555,
      "band": 8556,
      "Ġtechniques": 8557,
      "Ġactuarial": 8558,
      "Ġindication": 8559,
      "ĠHighlights": 8560,
      "Ġreleases": 8561,
      "Ġlegisl": 8562,
      "ERGY": 8563,
      "Ġnone": 8564,
      "Ġshut": 8565,
      "Ġcollectively": 8566,
      "ype": 8567,
      "ĠReserv": 8568,
      "Ġwent": 8569,
      "ĠInterests": 8570,
      "Ġappointment": 8571,
      "Ġfalling": 8572,
      "ĠCORP": 8573,
      "river": 8574,
      "Ġappra": 8575,
      "Ġemail": 8576,
      "Ġbringing": 8577,
      "Ġthereunto": 8578,
      "Ġunithold": 8579,
      "atell": 8580,
      "ĠSafety": 8581,
      "Ġcreating": 8582,
      "ĠAmer": 8583,
      "Ġwhereby": 8584,
      "Ed": 8585,
      "USIN": 8586,
      "Ġstri": 8587,
      "Ġusage": 8588,
      "Ġsubscrib": 8589,
      "Ġprevail": 8590,
      "Ġcrim": 8591,
      "Ġhardware": 8592,
      "Ġsecondary": 8593,
      "ĠBay": 8594,
      "ĠDAX": 8595,
      "ĠOTC": 8596,
      "Ġgave": 8597,
      "Ġphone": 8598,
      "ĠOvers": 8599,
      "Ġcommercially": 8600,
      "ĠSmall": 8601,
      "onso": 8602,
      "ĠPL": 8603,
      "ha": 8604,
      "Ġleft": 8605,
      "+`": 8606,
      "Ġdiversified": 8607,
      "ĠLocal": 8608,
      "agraph": 8609,
      "Ġindications": 8610,
      "rael": 8611,
      "apeutic": 8612,
      "ĠOperator": 8613,
      "gent": 8614,
      "Ġearning": 8615,
      "pat": 8616,
      "United": 8617,
      "Sch": 8618,
      "Ġrebound": 8619,
      "ĠEr": 8620,
      "ĠParties": 8621,
      "Ġ------------------------------------------------": 8622,
      "Ġnice": 8623,
      "Ġexpecting": 8624,
      "Ġsustainable": 8625,
      "Ġtar": 8626,
      "Ġsharing": 8627,
      "ĠKen": 8628,
      "Ġhedged": 8629,
      "Ġfines": 8630,
      "Ġmeetings": 8631,
      "Ġreserved": 8632,
      "ĠMood": 8633,
      "Ġextremely": 8634,
      "ĠBridge": 8635,
      "level": 8636,
      "Ġimplementing": 8637,
      "Ġcodes": 8638,
      "Ġfaster": 8639,
      "Ġdil": 8640,
      "............................": 8641,
      "Ġrecru": 8642,
      "Ġredeemed": 8643,
      "Ġprove": 8644,
      "Ġinj": 8645,
      "ĠFLOWS": 8646,
      "Ġnoninterest": 8647,
      "ecessor": 8648,
      "authorized": 8649,
      "Ġbeliefs": 8650,
      "excluding": 8651,
      "ITAL": 8652,
      "ĠProcedures": 8653,
      "Ġreceives": 8654,
      "Ġore": 8655,
      "ARE": 8656,
      "ĠProm": 8657,
      "Bank": 8658,
      "ĠCommunity": 8659,
      "ĠMedicaid": 8660,
      "ĠIP": 8661,
      "Ġbrief": 8662,
      "ĠOversight": 8663,
      "Ġminority": 8664,
      "Ġintegrate": 8665,
      "ĠSeller": 8666,
      "ĠChris": 8667,
      "Ġhappen": 8668,
      "met": 8669,
      "Ġdenominated": 8670,
      "era": 8671,
      "ĠFramework": 8672,
      "ĠLien": 8673,
      "Ġconstitut": 8674,
      "Ġcollected": 8675,
      "Ġterror": 8676,
      "Ġaim": 8677,
      "ĠCy": 8678,
      "Ġcounterparty": 8679,
      "ĠCompliance": 8680,
      "Ġutilizing": 8681,
      "Ġsalaries": 8682,
      "ĠEstimates": 8683,
      "Ġholiday": 8684,
      "Ġwilling": 8685,
      "ualty": 8686,
      "Ġwriting": 8687,
      "ĠHy": 8688,
      "Ġpreclinical": 8689,
      "anche": 8690,
      "Ġsurv": 8691,
      "ibly": 8692,
      "ĠPlant": 8693,
      "Ġaccurately": 8694,
      "Ġlesser": 8695,
      "held": 8696,
      "ĠNine": 8697,
      "uit": 8698,
      "Ġamid": 8699,
      "USINESS": 8700,
      "services": 8701,
      "Ġforecasted": 8702,
      "ĠIsrael": 8703,
      "Ġplayers": 8704,
      "Ġwin": 8705,
      "Ġmembership": 8706,
      "ĠConsent": 8707,
      "ĠUnderwrit": 8708,
      "ĠGU": 8709,
      "alls": 8710,
      "ĠManufacturing": 8711,
      "ĠBen": 8712,
      "accelerated": 8713,
      "ĠSavings": 8714,
      "Ġmind": 8715,
      "ountain": 8716,
      "ĠEnterprise": 8717,
      "Ġhope": 8718,
      "Ġsuffer": 8719,
      "For": 8720,
      "Ġmotion": 8721,
      "position": 8722,
      "Ġmedium": 8723,
      "ĠSelected": 8724,
      "Ġprofessionals": 8725,
      "Ġbps": 8726,
      "Ġ($)": 8727,
      "ĠImpact": 8728,
      "ertified": 8729,
      "Ġmodification": 8730,
      "employee": 8731,
      "Ġworked": 8732,
      "ĠAmong": 8733,
      "emb": 8734,
      "onouncements": 8735,
      "ĠBook": 8736,
      "ĠTarget": 8737,
      "ĠRein": 8738,
      "ĠJack": 8739,
      "ĠDigital": 8740,
      "Ġsolar": 8741,
      "ĠNotice": 8742,
      "ĠOEM": 8743,
      "Ġcalculate": 8744,
      "ĠNoninterest": 8745,
      "Ġmostly": 8746,
      "ORK": 8747,
      "ĠAutom": 8748,
      "through": 8749,
      "ĠSTATEMENT": 8750,
      "ĠENDED": 8751,
      "ĠPal": 8752,
      "Ġtrue": 8753,
      "SegmentMember": 8754,
      "Ġapplies": 8755,
      "ĠSepar": 8756,
      "Ġpul": 8757,
      "ĠRules": 8758,
      "Ġenroll": 8759,
      "ĠSant": 8760,
      "Ġidentical": 8761,
      "overed": 8762,
      "Man": 8763,
      "TIC": 8764,
      "Ġsubstitute": 8765,
      "Ġtons": 8766,
      "roller": 8767,
      "ĠAlex": 8768,
      "ĠMor": 8769,
      "Ġphysicians": 8770,
      "ĠArea": 8771,
      "Ġgreen": 8772,
      "tainment": 8773,
      "Ġrepair": 8774,
      "charge": 8775,
      "core": 8776,
      "imes": 8777,
      "Of": 8778,
      "vi": 8779,
      "ĠBoston": 8780,
      "ĠCR": 8781,
      "Ġrestruct": 8782,
      "Europe": 8783,
      "elling": 8784,
      "aht": 8785,
      "bor": 8786,
      "front": 8787,
      "onsored": 8788,
      "Ġbecoming": 8789,
      "ignment": 8790,
      "...[": 8791,
      "INDEX": 8792,
      "ĠConnect": 8793,
      "ĠGains": 8794,
      "Ġlif": 8795,
      "opping": 8796,
      "non": 8797,
      "Ġ====": 8798,
      "imates": 8799,
      "oice": 8800,
      "ĠTRANS": 8801,
      "ĠPA": 8802,
      "osh": 8803,
      "Ġundue": 8804,
      "ocks": 8805,
      "ĠSubordinated": 8806,
      "ĠSpr": 8807,
      "mond": 8808,
      "Ġpackaging": 8809,
      "ĠConversion": 8810,
      "ĠBonds": 8811,
      "ĠUtility": 8812,
      "Ġmilestones": 8813,
      "ĠSuisse": 8814,
      "Ġsurplus": 8815,
      "Ġdebentures": 8816,
      "ĠIndones": 8817,
      "Ġentry": 8818,
      "iles": 8819,
      "ĠChase": 8820,
      "Per": 8821,
      "ĠĊ": 8822,
      "Ġworkforce": 8823,
      "Ġrupees": 8824,
      "icially": 8825,
      "ĠRay": 8826,
      "plan": 8827,
      "Ġpertain": 8828,
      "uling": 8829,
      "yle": 8830,
      "spectus": 8831,
      "asis": 8832,
      "ousands": 8833,
      "Ġfiles": 8834,
      "Ġprivacy": 8835,
      "ĠHead": 8836,
      "Ġchairman": 8837,
      "Ġdefinite": 8838,
      "oncile": 8839,
      "Ġ\")": 8840,
      "ĠOPERATING": 8841,
      "ĠREGIS": 8842,
      "Ġrol": 8843,
      "etts": 8844,
      "ĠAnt": 8845,
      "likely": 8846,
      "ĠDiscontinued": 8847,
      "Ġbarrels": 8848,
      "ĠOcc": 8849,
      "Ġrecoveries": 8850,
      "Ġobserv": 8851,
      "Ġtrustee": 8852,
      "Ġserious": 8853,
      "Ġhospitals": 8854,
      "ĠCam": 8855,
      "Debt": 8856,
      "Ġcarriers": 8857,
      "Ġcease": 8858,
      "chnology": 8859,
      "enge": 8860,
      "ĠHOLDINGS": 8861,
      "ĠIncluded": 8862,
      "Ġscen": 8863,
      "ĠArticles": 8864,
      "ĠMalays": 8865,
      "ĠPrime": 8866,
      "criptions": 8867,
      "ĠGot": 8868,
      "ĠInteractive": 8869,
      "Ġminutes": 8870,
      "ĠItalian": 8871,
      "Ġissuable": 8872,
      "Plan": 8873,
      "Ġfloating": 8874,
      "Ġ============": 8875,
      "Frank": 8876,
      "ressed": 8877,
      "Ġindividually": 8878,
      "Ġengagement": 8879,
      "ĠCER": 8880,
      "Ġidentifiable": 8881,
      "wer": 8882,
      "Ġafford": 8883,
      "Ġviolation": 8884,
      "ĠElection": 8885,
      "ĠRussian": 8886,
      "Ġunvested": 8887,
      "Exchange": 8888,
      "Ġfailed": 8889,
      "STXN": 8890,
      "ĠFinally": 8891,
      "Scholes": 8892,
      "Ġlock": 8893,
      "ĠSand": 8894,
      "ĠBlue": 8895,
      "ano": 8896,
      "Ġacts": 8897,
      "Ġrenewable": 8898,
      "ĠGreg": 8899,
      "Ġbought": 8900,
      "STXNEWS": 8901,
      "ĠBuilding": 8902,
      "Ġfootprint": 8903,
      "ĠExecut": 8904,
      "Ġshared": 8905,
      "Ġpounds": 8906,
      "ĠFail": 8907,
      "Ġregularly": 8908,
      "Ġsuperior": 8909,
      "orters": 8910,
      "Ġfreight": 8911,
      "Ġdriver": 8912,
      "Ġinfringement": 8913,
      "ĠSteel": 8914,
      "IREC": 8915,
      "Ġcriminal": 8916,
      "Ġtech": 8917,
      "Ġproducers": 8918,
      "Ġerror": 8919,
      "effective": 8920,
      "Ġhandling": 8921,
      "Ġwaiver": 8922,
      "ĠVest": 8923,
      "ĠCumulative": 8924,
      "Ġcable": 8925,
      "ĠAL": 8926,
      "Ġreconcile": 8927,
      "ĠMANAGE": 8928,
      "Ġsetting": 8929,
      "ĠDistributions": 8930,
      "Ġshowing": 8931,
      "ĠSupport": 8932,
      "Ġvaluations": 8933,
      "GLANCE": 8934,
      "Ġobs": 8935,
      "Ġhazardous": 8936,
      "UMM": 8937,
      "Ġtalent": 8938,
      "Ġnarrow": 8939,
      "Ġoverhead": 8940,
      "ĠTABLE": 8941,
      "ĠLME": 8942,
      "Ġgrad": 8943,
      "andon": 8944,
      "family": 8945,
      "ĠPipeline": 8946,
      "ĠFiled": 8947,
      "ONDON": 8948,
      "ĠTransfer": 8949,
      "rservices": 8950,
      "Ġdiscretionary": 8951,
      "ĠOverall": 8952,
      "ĠDocuments": 8953,
      "Ġinternally": 8954,
      "Ġlien": 8955,
      "alse": 8956,
      "Ġexposures": 8957,
      "water": 8958,
      "Ġclimb": 8959,
      "Ġarch": 8960,
      "Ġtransfers": 8961,
      "Ġinstead": 8962,
      "Ġunauthorized": 8963,
      "owers": 8964,
      "ĠCrit": 8965,
      "bre": 8966,
      "Ġdisrupt": 8967,
      "Ġadvisors": 8968,
      "istent": 8969,
      "ĠFacilities": 8970,
      "Ġcurve": 8971,
      "ĠSubject": 8972,
      "ĠTor": 8973,
      "ĠEquival": 8974,
      "BBBB": 8975,
      "Ġintercompany": 8976,
      "Ġsanct": 8977,
      "asters": 8978,
      "ĠFarm": 8979,
      "ĠCoast": 8980,
      "ĠEthics": 8981,
      "ĠPROPER": 8982,
      "Ġmunicipal": 8983,
      "ĠDIREC": 8984,
      "ĠTherapeutics": 8985,
      "Ġweight": 8986,
      "earning": 8987,
      "ĠPartnerships": 8988,
      "adequ": 8989,
      "rum": 8990,
      "ITH": 8991,
      "Ġrefinancing": 8992,
      "ĠJon": 8993,
      "Ġdoesn": 8994,
      "decrease": 8995,
      "ernible": 8996,
      "ĠNorthern": 8997,
      "Ġmar": 8998,
      "ĠCongress": 8999,
      "ĠMining": 9000,
      "egments": 9001,
      "Ġmiddle": 9002,
      "ENSED": 9003,
      "Ġpromulg": 9004,
      "Ġamounted": 9005,
      "ĠSchedules": 9006,
      "Ġdeprec": 9007,
      "Ġhydro": 9008,
      "Ġvert": 9009,
      "FairValueM": 9010,
      "Ġlegacy": 9011,
      "Ġcostly": 9012,
      "ĠSA": 9013,
      "ĠLog": 9014,
      "Ġentertain": 9015,
      "Ġtelecom": 9016,
      "ĠSTOCKHOLDERS": 9017,
      "Ġinhib": 9018,
      "achus": 9019,
      "ĠBarcl": 9020,
      "right": 9021,
      "Ġtick": 9022,
      "employment": 9023,
      "ĠRecognition": 9024,
      "Ġexpired": 9025,
      "Ġmisstatement": 9026,
      "Ġhereunder": 9027,
      "Ġexpires": 9028,
      "ĠTransport": 9029,
      "oday": 9030,
      "Ġinform": 9031,
      "ĠJohnson": 9032,
      "ontin": 9033,
      "Ġproblem": 9034,
      "otop": 9035,
      "Interest": 9036,
      "Ġdilution": 9037,
      "ĠSP": 9038,
      "Ġacceleration": 9039,
      "anticipated": 9040,
      "achusetts": 9041,
      "ĠSect": 9042,
      "ĠHaw": 9043,
      "ATIONAL": 9044,
      "ĠCirc": 9045,
      "ĠFL": 9046,
      "Ġlift": 9047,
      "mer": 9048,
      "ARTER": 9049,
      "ĠColumbia": 9050,
      "ĠSubs": 9051,
      "ĠIRS": 9052,
      "yan": 9053,
      "ulty": 9054,
      "Ġallowing": 9055,
      "Ġproposals": 9056,
      "ĠCONDENSED": 9057,
      "Ġmass": 9058,
      "Ġclimate": 9059,
      "Ġacres": 9060,
      "Ġbroadcast": 9061,
      "itigroup": 9062,
      "ĠPlacement": 9063,
      "ĠBre": 9064,
      "ĠDutch": 9065,
      "Ġsuccessor": 9066,
      "Ġbourse": 9067,
      "Ġestablishes": 9068,
      "Ġadditions": 9069,
      "Ġreturned": 9070,
      "Ġdise": 9071,
      "Ġvacc": 9072,
      "ĠUpdate": 9073,
      "Ġoral": 9074,
      "ye": 9075,
      "endix": 9076,
      "iscernible": 9077,
      "Ġresponsibilities": 9078,
      "Ġtrades": 9079,
      "ĠCa": 9080,
      "ĠTX": 9081,
      "Ġissuances": 9082,
      "ola": 9083,
      "Ġasked": 9084,
      "Ġcommencing": 9085,
      "eem": 9086,
      "uff": 9087,
      "ĠMassachusetts": 9088,
      "Ġlisten": 9089,
      "Ġanalyt": 9090,
      "econom": 9091,
      "ĠSquare": 9092,
      "ĠJim": 9093,
      "Ġcontractors": 9094,
      "Ġdowngr": 9095,
      "UAL": 9096,
      "ĠMax": 9097,
      "Ġseparation": 9098,
      "ĠPlus": 9099,
      "ĠDealers": 9100,
      "Ġalternatives": 9101,
      "lood": 9102,
      "Ġintroduced": 9103,
      "ĠLabor": 9104,
      "Ġhelping": 9105,
      "ĠLONDON": 9106,
      "ĠDollars": 9107,
      "Ġdiscovery": 9108,
      "Ġide": 9109,
      "ĠAcquired": 9110,
      "Ġbehav": 9111,
      "Ġtherapeutic": 9112,
      "Ġchallenge": 9113,
      "ira": 9114,
      "Ġmanufactured": 9115,
      "load": 9116,
      "Ġqualitative": 9117,
      "Ġprime": 9118,
      "Ġautomatically": 9119,
      "Ġheadquarters": 9120,
      "Ġliable": 9121,
      "NEWS": 9122,
      "Common": 9123,
      "Ġundisc": 9124,
      "aign": 9125,
      "ĠHolder": 9126,
      "Ġmail": 9127,
      "ĠRepurchase": 9128,
      "Ġgovernments": 9129,
      "ĠMaterials": 9130,
      "Ġproc": 9131,
      "Ġdose": 9132,
      "Ġlawsuit": 9133,
      "ĠFailure": 9134,
      "Ġinitiated": 9135,
      "Ġapplying": 9136,
      "ĠContinuing": 9137,
      "Ġabsence": 9138,
      "ĠLake": 9139,
      "Ġfulfill": 9140,
      "Invest": 9141,
      "Ġbenefici": 9142,
      "ĠCitigroup": 9143,
      "OLL": 9144,
      "ALL": 9145,
      "ya": 9146,
      "ĠLink": 9147,
      "Ġspok": 9148,
      "Ġfluctuate": 9149,
      "ĠRegarding": 9150,
      "haps": 9151,
      "ĠBarclays": 9152,
      "istribut": 9153,
      "Ġpenet": 9154,
      "vention": 9155,
      "itary": 9156,
      "ĠExtension": 9157,
      "ĠItems": 9158,
      "ĠStar": 9159,
      "Ġdiseases": 9160,
      "Ġabsor": 9161,
      "ĠBer": 9162,
      "ĠPremium": 9163,
      "Ġduty": 9164,
      "urric": 9165,
      "Ġhy": 9166,
      "ĠFre": 9167,
      "ĠBur": 9168,
      "Ġsupervision": 9169,
      "REUTERS": 9170,
      "ĠBack": 9171,
      "Ġpriced": 9172,
      "Ġconven": 9173,
      "Ġemph": 9174,
      "Ġpartial": 9175,
      "orizon": 9176,
      "ĠYield": 9177,
      "TIN": 9178,
      "Ġcatastroph": 9179,
      "rete": 9180,
      "Ġdiagnost": 9181,
      "Ġsecuritization": 9182,
      "Ġadvisor": 9183,
      "Ġcaption": 9184,
      "Ġquantities": 9185,
      "Ġadequacy": 9186,
      "ĠDefinitive": 9187,
      "Ġhighlights": 9188,
      "Ġdisclaim": 9189,
      "Ġdest": 9190,
      "ĠHey": 9191,
      "Ĥ¬": 9192,
      "Ġeliminate": 9193,
      "ĠRIS": 9194,
      "ĠQuant": 9195,
      "ĠUnaudited": 9196,
      "Ġheavily": 9197,
      "Ġcombinations": 9198,
      "Ġintention": 9199,
      "ĠSERV": 9200,
      "Ġoverview": 9201,
      "ĠPU": 9202,
      "iesel": 9203,
      "Ġradio": 9204,
      "changes": 9205,
      "Ġbilled": 9206,
      "Ġstop": 9207,
[...]
