{
  "version": "1.0",
  "truncation": null,
  "padding": null,
  "added_tokens": [
    {
      "id": 0,
      "content": "[pad]",
      "single_word": false,
      "lstrip": false,
      "rstrip": false,
      "normalized": false,
      "special": true
    },
    {
      "id": 1,
      "content": "[seq]",
      "single_word": false,
      "lstrip": false,
      "rstrip": false,
      "normalized": false,
      "special": true
    },
    {
      "id": 2,
      "content": "[/seq]",
      "single_word": false,
      "lstrip": false,
      "rstrip": false,
      "normalized": false,
      "special": true
    },
    {
      "id": 3,
      "content": "[unk]",
      "single_word": false,
      "lstrip": false,
      "rstrip": false,
      "normalized": false,
      "special": true
    },
    {
      "id": 4,
      "content": "[mask]",
      "single_word": false,
      "lstrip": false,
      "rstrip": false,
      "normalized": false,
      "special": true
    }
  ],
  "normalizer": {
    "type": "Sequence",
    "normalizers": [
      {
        "type": "NFD"
      },
      {
        "type": "Lowercase"
      },
      {
        "type": "Strip",
        "strip_left": true,
        "strip_right": true
      },
      {
        "type": "StripAccents"
      }
    ]
  },
  "pre_tokenizer": {
    "type": "Sequence",
    "pretokenizers": [
      {
        "type": "Whitespace"
      },
      {
        "type": "Digits",
        "individual_digits": true
      }
    ]
  },
  "post_processor": {
    "type": "TemplateProcessing",
    "single": [
      {
        "SpecialToken": {
          "id": "[seq]",
          "type_id": 0
        }
      },
      {
        "Sequence": {
          "id": "A",
          "type_id": 0
        }
      },
      {
        "SpecialToken": {
          "id": "[/seq]",
          "type_id": 0
        }
      }
    ],
    "pair": [
      {
        "Sequence": {
          "id": "A",
          "type_id": 0
        }
      },
      {
        "Sequence": {
          "id": "B",
          "type_id": 1
        }
      }
    ],
    "special_tokens": {
      "[/seq]": {
        "id": "[/seq]",
        "ids": [
          2
        ],
        "tokens": [
          "[/seq]"
        ]
      },
      "[seq]": {
        "id": "[seq]",
        "ids": [
          1
        ],
        "tokens": [
          "[seq]"
        ]
      }
    }
  },
  "decoder": null,
  "model": {
    "type": "WordPiece",
    "unk_token": "[unk]",
    "continuing_subword_prefix": "##",
    "max_input_chars_per_word": 100,
    "vocab": {
      "[pad]": 0,
      "[seq]": 1,
      "[/seq]": 2,
      "[unk]": 3,
      "[mask]": 4,
      "\u0000": 5,
      "!": 6,
      "\"": 7,
      "#": 8,
      "$": 9,
      "%": 10,
      "&": 11,
      "'": 12,
      "(": 13,
      ")": 14,
      "*": 15,
      "+": 16,
      ",": 17,
      "-": 18,
      ".": 19,
      "/": 20,
      "0": 21,
      "1": 22,
      "2": 23,
      "3": 24,
      "4": 25,
      "5": 26,
      "6": 27,
      "7": 28,
      "8": 29,
      "9": 30,
      ":": 31,
      ";": 32,
      "<": 33,
      "=": 34,
      ">": 35,
      "?": 36,
      "@": 37,
      "[": 38,
      "\\": 39,
      "]": 40,
      "^": 41,
      "_": 42,
      "`": 43,
      "a": 44,
      "b": 45,
      "c": 46,
      "d": 47,
      "e": 48,
      "f": 49,
      "g": 50,
      "h": 51,
      "i": 52,
      "j": 53,
      "k": 54,
      "l": 55,
      "m": 56,
      "n": 57,
      "o": 58,
      "p": 59,
      "q": 60,
      "r": 61,
      "s": 62,
      "t": 63,
      "u": 64,
      "v": 65,
      "w": 66,
      "x": 67,
      "y": 68,
      "z": 69,
      "{": 70,
      "|": 71,
      "}": 72,
      "~": 73,
      "": 74,
      "": 75,
      "": 76,
      "": 77,
      "": 78,
      "": 79,
      "": 80,
      "": 81,
      "": 82,
      "": 83,
      "": 84,
      "": 85,
      "": 86,
      "": 87,
      "": 88,
      "": 89,
      "": 90,
      "": 91,
      "": 92,
      "": 93,
      "": 94,
      "": 95,
      "": 96,
      "": 97,
      "": 98,
      "": 99,
      "": 100,
      "": 101,
      "": 102,
      "": 103,
      "¡": 104,
      "¢": 105,
      "£": 106,
      "¤": 107,
      "¥": 108,
      "¦": 109,
      "§": 110,
      "¨": 111,
      "©": 112,
      "ª": 113,
      "«": 114,
      "¬": 115,
      "­": 116,
      "®": 117,
      "¯": 118,
      "°": 119,
      "±": 120,
      "²": 121,
      "³": 122,
      "´": 123,
      "µ": 124,
      "¶": 125,
      "·": 126,
      "¸": 127,
      "¹": 128,
      "º": 129,
      "»": 130,
      "¼": 131,
      "½": 132,
      "¾": 133,
      "¿": 134,
      "×": 135,
      "ß": 136,
      "æ": 137,
      "ð": 138,
      "÷": 139,
      "ø": 140,
      "þ": 141,
      "ı": 142,
      "ĸ": 143,
      "ł": 144,
      "ŋ": 145,
      "œ": 146,
      "ɛ": 147,
      "ʰ": 148,
      "ʻ": 149,
      "˂": 150,
      "˃": 151,
      "ˇ": 152,
      "˚": 153,
      "˜": 154,
      "΄": 155,
      "α": 156,
      "β": 157,
      "γ": 158,
      "δ": 159,
      "ε": 160,
      "ζ": 161,
      "η": 162,
      "θ": 163,
      "ι": 164,
      "κ": 165,
      "λ": 166,
      "μ": 167,
      "ν": 168,
      "ξ": 169,
      "ο": 170,
      "π": 171,
      "ρ": 172,
      "ς": 173,
      "σ": 174,
      "τ": 175,
      "υ": 176,
      "φ": 177,
      "χ": 178,
      "ψ": 179,
      "ω": 180,
      "а": 181,
      "б": 182,
      "в": 183,
      "г": 184,
      "д": 185,
      "е": 186,
      "ж": 187,
      "з": 188,
      "и": 189,
      "к": 190,
      "л": 191,
      "м": 192,
      "н": 193,
      "о": 194,
      "п": 195,
      "р": 196,
      "с": 197,
      "т": 198,
      "у": 199,
      "ф": 200,
      "х": 201,
      "ц": 202,
      "ч": 203,
      "ш": 204,
      "щ": 205,
      "ъ": 206,
      "ы": 207,
      "ь": 208,
      "э": 209,
      "ю": 210,
      "я": 211,
      "є": 212,
      "ҫ": 213,
      "ב": 214,
      "ד": 215,
      "ء": 216,
      "ا": 217,
      "ب": 218,
      "ة": 219,
      "ت": 220,
      "ث": 221,
      "ج": 222,
      "ح": 223,
      "خ": 224,
      "د": 225,
      "ذ": 226,
      "ر": 227,
      "ز": 228,
      "س": 229,
      "ش": 230,
      "ص": 231,
      "ض": 232,
      "ط": 233,
      "ع": 234,
      "غ": 235,
      "ف": 236,
      "ق": 237,
      "ك": 238,
      "ل": 239,
      "م": 240,
      "ن": 241,
      "ه": 242,
      "و": 243,
      "ي": 244,
      "ଠ": 245,
      "ก": 246,
      "ข": 247,
      "ค": 248,
      "ง": 249,
      "จ": 250,
      "ช": 251,
      "ซ": 252,
      "ญ": 253,
      "ฐ": 254,
      "ณ": 255,
      "ด": 256,
      "ต": 257,
      "ถ": 258,
      "ท": 259,
      "ธ": 260,
      "น": 261,
      "บ": 262,
      "ป": 263,
      "ผ": 264,
      "พ": 265,
      "ภ": 266,
      "ม": 267,
      "ย": 268,
      "ร": 269,
      "ล": 270,
      "ว": 271,
      "ศ": 272,
      "ษ": 273,
      "ส": 274,
      "ห": 275,
      "อ": 276,
      "ฯ": 277,
      "ะ": 278,
      "า": 279,
      "ำ": 280,
      "เ": 281,
      "แ": 282,
      "โ": 283,
      "ใ": 284,
      "ไ": 285,
      "ๆ": 286,
      "ᄀ": 287,
      "ᄂ": 288,
      "ᄃ": 289,
      "ᄅ": 290,
      "ᄆ": 291,
      "ᄇ": 292,
      "ᄉ": 293,
      "ᄋ": 294,
      "ᄌ": 295,
      "ᄎ": 296,
      "ᄏ": 297,
      "ᄐ": 298,
      "ᄑ": 299,
      "ᄒ": 300,
      "ᅡ": 301,
      "ᅥ": 302,
      "ᅧ": 303,
      "ᅩ": 304,
      "ᅪ": 305,
      "ᅬ": 306,
      "ᅭ": 307,
      "ᅮ": 308,
      "ᅯ": 309,
      "ᅰ": 310,
      "ᅳ": 311,
      "ᅵ": 312,
      "ᆨ": 313,
      "ᆫ": 314,
      "ᆯ": 315,
      "ᆷ": 316,
      "ᆸ": 317,
      "ᆼ": 318,
      "ᴇ": 319,
      "ᴹ": 320,
      "ᵀ": 321,
      "ᵗ": 322,
      "​": 323,
      "‌": 324,
      "‍": 325,
      "‎": 326,
      "‏": 327,
      "‐": 328,
      "‑": 329,
      "‒": 330,
      "–": 331,
      "—": 332,
      "―": 333,
      "‘": 334,
      "’": 335,
      "‚": 336,
      "“": 337,
      "”": 338,
      "„": 339,
      "†": 340,
      "‡": 341,
      "•": 342,
      "…": 343,
      "‪": 344,
      "‬": 345,
      "‭": 346,
      "‮": 347,
      "‰": 348,
      "′": 349,
      "″": 350,
      "‹": 351,
      "›": 352,
      "※": 353,
      "⁄": 354,
      "⁠": 355,
      "⁣": 356,
      "⁮": 357,
      "⁰": 358,
      "⁷": 359,
      "⁸": 360,
      "₂": 361,
      "₤": 362,
      "₩": 363,
      "₪": 364,
      "€": 365,
      "₱": 366,
      "₵": 367,
      "₹": 368,
      "₽": 369,
      "№": 370,
      "℠": 371,
      "™": 372,
      "⅔": 373,
      "⅛": 374,
      "⅜": 375,
      "⅝": 376,
      "⅞": 377,
      "ⅰ": 378,
      "ⅱ": 379,
      "ⅳ": 380,
      "⇧": 381,
      "⇩": 382,
      "−": 383,
      "∙": 384,
      "∝": 385,
      "∼": 386,
      "≤": 387,
      "≥": 388,
      "␇": 389,
      "ⓡ": 390,
      "─": 391,
      "△": 392,
      "▼": 393,
      "○": 394,
      "◎": 395,
      "●": 396,
      "★": 397,
      "☘": 398,
      "♦": 399,
      "、": 400,
      "。": 401,
      "〃": 402,
      "々": 403,
      "「": 404,
      "」": 405,
      "〔": 406,
      "〕": 407,
      "あ": 408,
      "い": 409,
      "う": 410,
      "え": 411,
      "お": 412,
      "か": 413,
      "き": 414,
      "く": 415,
      "け": 416,
      "こ": 417,
      "さ": 418,
      "し": 419,
      "す": 420,
      "せ": 421,
      "そ": 422,
      "た": 423,
      "ち": 424,
      "っ": 425,
      "つ": 426,
      "て": 427,
      "と": 428,
      "な": 429,
      "に": 430,
      "の": 431,
      "は": 432,
      "ひ": 433,
      "ふ": 434,
      "へ": 435,
      "ほ": 436,
      "ま": 437,
      "み": 438,
      "む": 439,
      "め": 440,
      "も": 441,
      "や": 442,
      "ょ": 443,
      "よ": 444,
      "ら": 445,
      "り": 446,
      "る": 447,
      "れ": 448,
      "ろ": 449,
      "わ": 450,
      "を": 451,
      "ん": 452,
      "ァ": 453,
      "ア": 454,
      "ィ": 455,
      "イ": 456,
      "ゥ": 457,
      "ウ": 458,
      "ェ": 459,
      "エ": 460,
      "ォ": 461,
      "オ": 462,
      "カ": 463,
      "キ": 464,
      "ク": 465,
      "ケ": 466,
      "コ": 467,
      "サ": 468,
      "シ": 469,
      "ス": 470,
      "セ": 471,
      "ソ": 472,
      "タ": 473,
      "チ": 474,
      "ッ": 475,
      "ツ": 476,
      "テ": 477,
      "ト": 478,
      "ナ": 479,
      "ニ": 480,
      "ヌ": 481,
      "ネ": 482,
      "ノ": 483,
      "ハ": 484,
      "ヒ": 485,
      "フ": 486,
      "ヘ": 487,
      "ホ": 488,
      "マ": 489,
      "ミ": 490,
      "ム": 491,
      "メ": 492,
      "モ": 493,
      "ャ": 494,
      "ヤ": 495,
      "ュ": 496,
      "ユ": 497,
      "ョ": 498,
      "ヨ": 499,
      "ラ": 500,
      "リ": 501,
      "ル": 502,
      "レ": 503,
      "ロ": 504,
      "ワ": 505,
      "ン": 506,
      "・": 507,
      "ー": 508,
      "一": 509,
      "丁": 510,
      "七": 511,
      "万": 512,
      "三": 513,
      "上": 514,
      "下": 515,
      "不": 516,
      "与": 517,
      "专": 518,
      "且": 519,
      "世": 520,
      "业": 521,
      "並": 522,
      "中": 523,
      "丹": 524,
      "为": 525,
      "主": 526,
      "乃": 527,
      "久": 528,
      "之": 529,
      "乎": 530,
      "乏": 531,
      "乗": 532,
      "九": 533,
      "也": 534,
      "买": 535,
      "了": 536,
      "予": 537,
      "争": 538,
      "事": 539,
      "二": 540,
      "于": 541,
      "互": 542,
      "五": 543,
      "些": 544,
      "亜": 545,
      "亞": 546,
      "交": 547,
      "亥": 548,
      "亦": 549,
      "亨": 550,
      "京": 551,
      "人": 552,
      "什": 553,
      "今": 554,
      "介": 555,
      "仍": 556,
      "他": 557,
      "付": 558,
      "代": 559,
      "令": 560,
      "以": 561,
      "件": 562,
      "价": 563,
      "任": 564,
      "份": 565,
      "企": 566,
      "伏": 567,
      "休": 568,
      "伙": 569,
      "会": 570,
      "伝": 571,
      "伯": 572,
      "估": 573,
      "伴": 574,
      "伶": 575,
      "伸": 576,
      "似": 577,
      "但": 578,
      "佈": 579,
      "位": 580,
      "低": 581,
      "住": 582,
      "体": 583,
      "佔": 584,
      "何": 585,
      "作": 586,
      "佳": 587,
      "併": 588,
      "使": 589,
      "來": 590,
      "例": 591,
      "供": 592,
      "依": 593,
      "価": 594,
      "便": 595,
      "係": 596,
      "促": 597,
      "俄": 598,
      "保": 599,
      "信": 600,
      "修": 601,
      "個": 602,
      "倍": 603,
      "們": 604,
      "候": 605,
      "値": 606,
      "倦": 607,
      "倫": 608,
      "债": 609,
      "值": 610,
      "假": 611,
      "偏": 612,
      "做": 613,
      "停": 614,
      "側": 615,
      "傑": 616,
      "傘": 617,
      "備": 618,
      "催": 619,
      "傳": 620,
      "債": 621,
      "傾": 622,
      "僅": 623,
      "像": 624,
      "僑": 625,
      "價": 626,
      "儀": 627,
      "億": 628,
      "償": 629,
      "優": 630,
      "儲": 631,
      "元": 632,
      "充": 633,
      "兆": 634,
      "先": 635,
      "光": 636,
      "克": 637,
      "兌": 638,
      "免": 639,
      "入": 640,
      "內": 641,
      "全": 642,
      "兩": 643,
      "公": 644,
      "六": 645,
      "共": 646,
      "关": 647,
      "兴": 648,
      "其": 649,
      "具": 650,
      "内": 651,
      "円": 652,
      "冊": 653,
      "再": 654,
      "冠": 655,
      "冬": 656,
      "冷": 657,
      "凈": 658,
      "凰": 659,
      "凱": 660,
      "出": 661,
      "分": 662,
      "切": 663,
      "列": 664,
      "初": 665,
      "判": 666,
      "別": 667,
      "利": 668,
      "到": 669,
      "制": 670,
      "券": 671,
      "刺": 672,
      "則": 673,
      "削": 674,
      "前": 675,
      "剩": 676,
      "副": 677,
      "割": 678,
      "創": 679,
      "劃": 680,
      "劇": 681,
      "劉": 682,
      "力": 683,
      "功": 684,
      "加": 685,
      "助": 686,
      "努": 687,
      "効": 688,
      "勁": 689,
      "勒": 690,
      "動": 691,
      "務": 692,
      "勝": 693,
      "勞": 694,
      "勢": 695,
      "勤": 696,
      "勵": 697,
      "包": 698,
      "化": 699,
      "北": 700,
      "匯": 701,
      "区": 702,
      "医": 703,
      "區": 704,
      "十": 705,
      "升": 706,
      "午": 707,
      "半": 708,
      "华": 709,
      "協": 710,
      "单": 711,
      "卖": 712,
      "南": 713,
      "単": 714,
      "博": 715,
      "卡": 716,
      "印": 717,
      "危": 718,
      "即": 719,
      "却": 720,
      "卻": 721,
      "原": 722,
      "厭": 723,
      "去": 724,
      "参": 725,
      "參": 726,
      "又": 727,
      "及": 728,
      "友": 729,
      "反": 730,
      "収": 731,
      "发": 732,
      "取": 733,
      "受": 734,
      "口": 735,
      "另": 736,
      "只": 737,
      "召": 738,
      "可": 739,
      "台": 740,
      "史": 741,
      "右": 742,
      "号": 743,
      "司": 744,
      "吃": 745,
      "各": 746,
      "合": 747,
      "吉": 748,
      "吋": 749,
      "同": 750,
      "名": 751,
      "吐": 752,
      "向": 753,
      "否": 754,
      "含": 755,
      "吸": 756,
      "呈": 757,
      "告": 758,
      "周": 759,
      "味": 760,
      "呼": 761,
      "命": 762,
      "和": 763,
      "咨": 764,
      "品": 765,
      "哈": 766,
      "員": 767,
      "哥": 768,
      "唆": 769,
      "售": 770,
      "商": 771,
      "問": 772,
      "啤": 773,
      "善": 774,
      "喜": 775,
      "喬": 776,
      "單": 777,
      "営": 778,
      "器": 779,
      "噸": 780,
      "嚴": 781,
      "四": 782,
      "回": 783,
      "因": 784,
      "団": 785,
      "困": 786,
      "固": 787,
      "国": 788,
      "國": 789,
      "圓": 790,
      "圖": 791,
      "團": 792,
      "圜": 793,
      "土": 794,
      "圧": 795,
      "在": 796,
      "圭": 797,
      "地": 798,
      "圳": 799,
      "场": 800,
      "坂": 801,
      "均": 802,
      "坡": 803,
      "坦": 804,
      "型": 805,
      "城": 806,
      "域": 807,
      "執": 808,
      "基": 809,
      "堂": 810,
      "堅": 811,
      "堪": 812,
      "報": 813,
      "場": 814,
      "塑": 815,
      "填": 816,
      "境": 817,
      "増": 818,
      "增": 819,
      "墨": 820,
      "壓": 821,
      "壞": 822,
      "壤": 823,
      "士": 824,
      "声": 825,
      "売": 826,
      "変": 827,
      "外": 828,
      "多": 829,
      "夜": 830,
      "夥": 831,
      "大": 832,
      "天": 833,
      "太": 834,
      "夫": 835,
      "央": 836,
      "失": 837,
      "奇": 838,
      "契": 839,
      "奔": 840,
      "奕": 841,
      "奠": 842,
      "奧": 843,
      "奮": 844,
      "好": 845,
      "如": 846,
      "始": 847,
      "委": 848,
      "姿": 849,
      "威": 850,
      "媒": 851,
      "嫌": 852,
      "子": 853,
      "字": 854,
      "存": 855,
      "季": 856,
      "学": 857,
      "孫": 858,
      "學": 859,
      "它": 860,
      "宅": 861,
      "宇": 862,
      "守": 863,
      "安": 864,
      "完": 865,
      "宏": 866,
      "宕": 867,
      "宗": 868,
      "官": 869,
      "定": 870,
      "宜": 871,
      "実": 872,
      "客": 873,
      "宣": 874,
      "室": 875,
      "宮": 876,
      "害": 877,
      "家": 878,
      "容": 879,
      "寄": 880,
      "富": 881,
      "察": 882,
      "實": 883,
      "審": 884,
      "対": 885,
      "将": 886,
      "將": 887,
      "專": 888,
      "尋": 889,
      "對": 890,
      "導": 891,
      "小": 892,
      "少": 893,
      "尚": 894,
      "就": 895,
      "尺": 896,
      "尼": 897,
      "尽": 898,
      "尾": 899,
      "局": 900,
      "屋": 901,
      "展": 902,
      "履": 903,
      "屬": 904,
      "山": 905,
      "岐": 906,
      "岘": 907,
      "岸": 908,
      "峰": 909,
      "島": 910,
      "峻": 911,
      "峽": 912,
      "嵌": 913,
      "川": 914,
      "州": 915,
      "工": 916,
      "左": 917,
      "巨": 918,
      "差": 919,
      "己": 920,
      "已": 921,
      "巴": 922,
      "币": 923,
      "市": 924,
      "布": 925,
      "希": 926,
      "師": 927,
      "席": 928,
      "帳": 929,
      "帶": 930,
      "常": 931,
      "幅": 932,
      "幕": 933,
      "幣": 934,
      "干": 935,
      "平": 936,
      "年": 937,
      "并": 938,
      "幹": 939,
      "幾": 940,
      "广": 941,
      "庁": 942,
      "広": 943,
      "序": 944,
      "底": 945,
      "店": 946,
      "府": 947,
      "度": 948,
      "座": 949,
      "庫": 950,
      "庭": 951,
      "康": 952,
      "廉": 953,
      "廠": 954,
      "廳": 955,
      "延": 956,
      "廷": 957,
      "建": 958,
      "弁": 959,
      "弊": 960,
      "式": 961,
      "引": 962,
      "弱": 963,
      "張": 964,
      "強": 965,
      "弾": 966,
      "彈": 967,
      "彌": 968,
      "当": 969,
      "形": 970,
      "彩": 971,
      "影": 972,
      "役": 973,
      "彼": 974,
      "往": 975,
      "征": 976,
      "待": 977,
      "很": 978,
      "徊": 979,
      "後": 980,
      "徐": 981,
      "徑": 982,
      "従": 983,
      "得": 984,
      "徘": 985,
      "從": 986,
      "復": 987,
      "微": 988,
      "徵": 989,
      "德": 990,
      "心": 991,
      "必": 992,
      "志": 993,
      "応": 994,
      "快": 995,
      "念": 996,
      "忽": 997,
      "怕": 998,
      "思": 999,
      "急": 1000,
      "性": 1001,
      "总": 1002,
      "恆": 1003,
      "恐": 1004,
      "恩": 1005,
      "息": 1006,
      "悉": 1007,
      "患": 1008,
      "您": 1009,
      "悪": 1010,
      "情": 1011,
      "惠": 1012,
      "惡": 1013,
      "想": 1014,
      "意": 1015,
      "感": 1016,
      "愿": 1017,
      "態": 1018,
      "慎": 1019,
      "慢": 1020,
      "慮": 1021,
      "慰": 1022,
      "憂": 1023,
      "憑": 1024,
      "憶": 1025,
      "應": 1026,
      "懷": 1027,
      "懸": 1028,
      "成": 1029,
      "我": 1030,
      "戒": 1031,
      "或": 1032,
      "戚": 1033,
      "戦": 1034,
      "截": 1035,
      "戰": 1036,
      "戴": 1037,
      "戶": 1038,
      "戻": 1039,
      "房": 1040,
      "所": 1041,
      "手": 1042,
      "才": 1043,
      "打": 1044,
      "払": 1045,
      "托": 1046,
      "扣": 1047,
      "扭": 1048,
      "扳": 1049,
      "扶": 1050,
      "批": 1051,
      "找": 1052,
      "承": 1053,
      "技": 1054,
      "把": 1055,
      "抑": 1056,
      "投": 1057,
      "抜": 1058,
      "抵": 1059,
      "押": 1060,
      "担": 1061,
      "拆": 1062,
      "拉": 1063,
      "拋": 1064,
      "拍": 1065,
      "拒": 1066,
      "拖": 1067,
      "招": 1068,
      "拠": 1069,
      "拡": 1070,
      "括": 1071,
      "拭": 1072,
      "拿": 1073,
      "持": 1074,
      "指": 1075,
      "按": 1076,
      "挑": 1077,
      "挫": 1078,
      "振": 1079,
      "捜": 1080,
      "捧": 1081,
      "据": 1082,
      "捲": 1083,
      "掀": 1084,
      "掃": 1085,
      "掌": 1086,
      "掘": 1087,
      "掛": 1088,
      "採": 1089,
      "探": 1090,
      "接": 1091,
      "控": 1092,
      "推": 1093,
      "措": 1094,
      "提": 1095,
      "揚": 1096,
      "換": 1097,
      "援": 1098,
      "損": 1099,
      "搏": 1100,
      "搬": 1101,
      "搶": 1102,
      "携": 1103,
      "摘": 1104,
      "摩": 1105,
      "撐": 1106,
      "撥": 1107,
      "擁": 1108,
      "擇": 1109,
      "擊": 1110,
      "操": 1111,
      "擔": 1112,
      "擘": 1113,
      "據": 1114,
      "擷": 1115,
      "擺": 1116,
      "支": 1117,
      "收": 1118,
      "改": 1119,
      "放": 1120,
      "政": 1121,
      "效": 1122,
      "教": 1123,
      "散": 1124,
      "敦": 1125,
      "数": 1126,
      "整": 1127,
      "數": 1128,
      "文": 1129,
      "料": 1130,
      "斥": 1131,
      "断": 1132,
      "斯": 1133,
      "新": 1134,
      "斷": 1135,
      "方": 1136,
      "於": 1137,
      "施": 1138,
      "旅": 1139,
      "旗": 1140,
      "既": 1141,
      "日": 1142,
      "旦": 1143,
      "旧": 1144,
      "旨": 1145,
      "早": 1146,
      "旬": 1147,
      "旺": 1148,
      "昂": 1149,
      "昇": 1150,
      "昊": 1151,
      "明": 1152,
      "易": 1153,
      "星": 1154,
      "映": 1155,
      "春": 1156,
      "昨": 1157,
      "昭": 1158,
      "是": 1159,
      "時": 1160,
      "晚": 1161,
      "普": 1162,
      "景": 1163,
      "晶": 1164,
      "智": 1165,
      "暗": 1166,
      "暫": 1167,
      "暴": 1168,
      "曜": 1169,
      "更": 1170,
      "書": 1171,
      "曾": 1172,
      "替": 1173,
      "最": 1174,
      "會": 1175,
      "月": 1176,
      "有": 1177,
      "服": 1178,
      "朗": 1179,
      "望": 1180,
      "朝": 1181,
      "期": 1182,
      "木": 1183,
      "未": 1184,
      "末": 1185,
      "本": 1186,
      "札": 1187,
      "李": 1188,
      "材": 1189,
      "村": 1190,
      "杓": 1191,
      "杜": 1192,
      "束": 1193,
      "条": 1194,
      "来": 1195,
      "東": 1196,
      "板": 1197,
      "析": 1198,
      "林": 1199,
      "果": 1200,
      "枠": 1201,
      "柄": 1202,
      "柏": 1203,
      "染": 1204,
      "查": 1205,
      "柳": 1206,
      "査": 1207,
      "校": 1208,
      "株": 1209,
      "核": 1210,
      "根": 1211,
      "格": 1212,
      "桂": 1213,
      "案": 1214,
      "桶": 1215,
      "梅": 1216,
      "棉": 1217,
      "棘": 1218,
      "森": 1219,
      "検": 1220,
      "楊": 1221,
      "業": 1222,
      "極": 1223,
      "楽": 1224,
      "概": 1225,
      "榮": 1226,
      "構": 1227,
      "様": 1228,
      "樂": 1229,
      "樓": 1230,
      "標": 1231,
      "模": 1232,
      "樣": 1233,
      "権": 1234,
      "横": 1235,
      "橋": 1236,
      "機": 1237,
      "檔": 1238,
      "權": 1239,
      "欠": 1240,
      "次": 1241,
      "欣": 1242,
      "欧": 1243,
      "欲": 1244,
      "款": 1245,
      "歇": 1246,
      "歐": 1247,
      "歡": 1248,
      "止": 1249,
      "正": 1250,
      "此": 1251,
      "步": 1252,
      "武": 1253,
      "歴": 1254,
      "歷": 1255,
      "歸": 1256,
      "死": 1257,
      "殖": 1258,
      "段": 1259,
      "母": 1260,
      "毎": 1261,
      "每": 1262,
      "比": 1263,
      "氏": 1264,
      "民": 1265,
      "気": 1266,
      "氛": 1267,
      "氣": 1268,
      "水": 1269,
      "永": 1270,
      "求": 1271,
      "江": 1272,
      "污": 1273,
      "汤": 1274,
      "決": 1275,
      "汽": 1276,
      "沈": 1277,
      "沒": 1278,
      "沖": 1279,
      "河": 1280,
      "沸": 1281,
      "油": 1282,
      "治": 1283,
      "沿": 1284,
      "況": 1285,
      "泉": 1286,
      "法": 1287,
      "泛": 1288,
      "波": 1289,
      "注": 1290,
      "泰": 1291,
      "洋": 1292,
      "洗": 1293,
      "津": 1294,
      "洪": 1295,
      "洲": 1296,
      "活": 1297,
      "流": 1298,
      "浄": 1299,
      "浦": 1300,
      "浮": 1301,
      "海": 1302,
      "消": 1303,
      "淡": 1304,
      "淨": 1305,
      "深": 1306,
      "清": 1307,
      "済": 1308,
      "渉": 1309,
      "渋": 1310,
      "減": 1311,
      "渡": 1312,
      "測": 1313,
      "港": 1314,
      "游": 1315,
      "湧": 1316,
      "湾": 1317,
      "源": 1318,
      "準": 1319,
      "溫": 1320,
      "滑": 1321,
      "演": 1322,
      "漢": 1323,
      "漲": 1324,
      "漸": 1325,
      "潜": 1326,
      "潭": 1327,
      "澤": 1328,
      "澳": 1329,
      "激": 1330,
      "濟": 1331,
      "濤": 1332,
      "瀏": 1333,
      "灣": 1334,
      "災": 1335,
      "点": 1336,
      "為": 1337,
      "烏": 1338,
      "無": 1339,
      "焦": 1340,
      "焰": 1341,
      "然": 1342,
      "煉": 1343,
      "煌": 1344,
      "煙": 1345,
      "煤": 1346,
      "照": 1347,
      "熱": 1348,
      "燃": 1349,
      "營": 1350,
      "爆": 1351,
      "爭": 1352,
      "爱": 1353,
      "爾": 1354,
      "片": 1355,
      "版": 1356,
      "牌": 1357,
      "物": 1358,
      "特": 1359,
      "状": 1360,
      "狀": 1361,
      "狙": 1362,
      "独": 1363,
      "狭": 1364,
      "猀": 1365,
      "猜": 1366,
      "獲": 1367,
      "獻": 1368,
      "率": 1369,
      "玉": 1370,
      "王": 1371,
      "玩": 1372,
      "珀": 1373,
      "現": 1374,
      "球": 1375,
      "理": 1376,
      "琪": 1377,
      "瑞": 1378,
      "瑾": 1379,
      "環": 1380,
      "瓊": 1381,
      "甚": 1382,
      "生": 1383,
      "產": 1384,
      "産": 1385,
      "甦": 1386,
      "用": 1387,
      "田": 1388,
      "由": 1389,
      "甲": 1390,
      "申": 1391,
      "画": 1392,
      "界": 1393,
      "略": 1394,
      "番": 1395,
      "畫": 1396,
      "異": 1397,
      "當": 1398,
      "疑": 1399,
      "疲": 1400,
      "症": 1401,
      "療": 1402,
      "発": 1403,
      "發": 1404,
      "白": 1405,
      "百": 1406,
      "的": 1407,
      "盈": 1408,
      "益": 1409,
      "盎": 1410,
      "盛": 1411,
      "盟": 1412,
      "盡": 1413,
      "監": 1414,
      "盤": 1415,
      "盧": 1416,
      "盪": 1417,
      "目": 1418,
      "直": 1419,
      "相": 1420,
      "省": 1421,
      "看": 1422,
      "真": 1423,
      "眼": 1424,
      "眾": 1425,
      "着": 1426,
      "睞": 1427,
      "督": 1428,
      "知": 1429,
      "短": 1430,
      "石": 1431,
      "码": 1432,
      "砍": 1433,
      "研": 1434,
      "破": 1435,
      "硬": 1436,
      "確": 1437,
      "碼": 1438,
      "磅": 1439,
      "磊": 1440,
      "礦": 1441,
      "示": 1442,
      "社": 1443,
      "神": 1444,
      "票": 1445,
      "祭": 1446,
      "福": 1447,
      "科": 1448,
      "租": 1449,
      "称": 1450,
      "移": 1451,
      "程": 1452,
      "稍": 1453,
      "種": 1454,
      "稱": 1455,
      "稿": 1456,
      "穀": 1457,
      "積": 1458,
      "穗": 1459,
      "穩": 1460,
      "究": 1461,
      "空": 1462,
      "突": 1463,
      "窄": 1464,
      "立": 1465,
      "站": 1466,
      "端": 1467,
      "競": 1468,
      "符": 1469,
      "第": 1470,
      "等": 1471,
      "筋": 1472,
      "策": 1473,
      "简": 1474,
      "算": 1475,
      "管": 1476,
      "節": 1477,
      "範": 1478,
      "築": 1479,
      "簽": 1480,
      "簿": 1481,
      "籌": 1482,
      "米": 1483,
      "精": 1484,
      "系": 1485,
      "紀": 1486,
      "約": 1487,
      "紅": 1488,
      "納": 1489,
      "紐": 1490,
      "純": 1491,
      "紙": 1492,
      "級": 1493,
      "紛": 1494,
      "素": 1495,
      "索": 1496,
      "累": 1497,
      "細": 1498,
      "紹": 1499,
      "終": 1500,
      "組": 1501,
      "絆": 1502,
      "経": 1503,
      "結": 1504,
      "絕": 1505,
      "絡": 1506,
      "給": 1507,
      "統": 1508,
      "經": 1509,
      "継": 1510,
      "続": 1511,
      "綜": 1512,
      "維": 1513,
      "網": 1514,
      "総": 1515,
      "緒": 1516,
      "線": 1517,
      "締": 1518,
      "編": 1519,
      "緩": 1520,
      "縦": 1521,
      "縮": 1522,
      "總": 1523,
      "績": 1524,
      "繁": 1525,
      "織": 1526,
      "繩": 1527,
      "繼": 1528,
      "續": 1529,
      "纪": 1530,
      "细": 1531,
      "经": 1532,
      "缺": 1533,
      "置": 1534,
      "羅": 1535,
      "羈": 1536,
      "美": 1537,
      "群": 1538,
      "義": 1539,
      "翌": 1540,
      "翰": 1541,
      "翻": 1542,
      "考": 1543,
      "者": 1544,
      "而": 1545,
      "耐": 1546,
      "耗": 1547,
      "耶": 1548,
      "聖": 1549,
      "聚": 1550,
      "聞": 1551,
      "聯": 1552,
      "聲": 1553,
      "職": 1554,
      "股": 1555,
      "背": 1556,
      "胜": 1557,
      "胡": 1558,
      "能": 1559,
      "脅": 1560,
      "脫": 1561,
      "脹": 1562,
      "腦": 1563,
      "腳": 1564,
      "膨": 1565,
      "膽": 1566,
      "臆": 1567,
      "臉": 1568,
      "臣": 1569,
      "臨": 1570,
      "自": 1571,
      "至": 1572,
      "致": 1573,
      "臺": 1574,
      "與": 1575,
      "興": 1576,
      "舉": 1577,
      "舊": 1578,
      "舖": 1579,
      "舞": 1580,
      "航": 1581,
      "般": 1582,
      "艦": 1583,
      "良": 1584,
      "色": 1585,
      "艷": 1586,
      "芝": 1587,
      "芯": 1588,
      "花": 1589,
      "芳": 1590,
      "若": 1591,
      "英": 1592,
      "茉": 1593,
      "茨": 1594,
      "茲": 1595,
      "草": 1596,
      "荒": 1597,
      "药": 1598,
      "荷": 1599,
      "荻": 1600,
      "莉": 1601,
      "莫": 1602,
      "菁": 1603,
      "菜": 1604,
      "華": 1605,
      "萊": 1606,
      "萍": 1607,
      "营": 1608,
      "萬": 1609,
      "落": 1610,
      "著": 1611,
      "董": 1612,
      "蓄": 1613,
      "蔬": 1614,
      "蔽": 1615,
      "薦": 1616,
      "薩": 1617,
      "薪": 1618,
      "蘇": 1619,
      "蘋": 1620,
      "蘭": 1621,
      "處": 1622,
      "號": 1623,
      "虧": 1624,
      "融": 1625,
      "螢": 1626,
      "行": 1627,
      "術": 1628,
      "街": 1629,
      "衛": 1630,
      "衣": 1631,
      "表": 1632,
      "衰": 1633,
      "被": 1634,
      "裁": 1635,
      "裏": 1636,
      "補": 1637,
      "裝": 1638,
      "製": 1639,
      "複": 1640,
      "襲": 1641,
      "西": 1642,
      "要": 1643,
      "覇": 1644,
      "見": 1645,
      "規": 1646,
      "覓": 1647,
      "視": 1648,
      "覧": 1649,
      "観": 1650,
      "覽": 1651,
      "觀": 1652,
      "角": 1653,
      "解": 1654,
      "觸": 1655,
      "言": 1656,
      "訂": 1657,
      "計": 1658,
      "訊": 1659,
      "討": 1660,
      "託": 1661,
      "記": 1662,
      "訪": 1663,
      "設": 1664,
      "許": 1665,
      "訴": 1666,
      "註": 1667,
      "証": 1668,
      "評": 1669,
      "詢": 1670,
      "試": 1671,
      "話": 1672,
      "該": 1673,
      "詳": 1674,
      "認": 1675,
      "誕": 1676,
      "誘": 1677,
      "語": 1678,
      "說": 1679,
      "読": 1680,
      "誰": 1681,
      "課": 1682,
      "調": 1683,
      "談": 1684,
      "請": 1685,
      "論": 1686,
      "諮": 1687,
      "諸": 1688,
      "諾": 1689,
      "謂": 1690,
      "講": 1691,
      "謝": 1692,
      "謹": 1693,
      "證": 1694,
      "識": 1695,
      "警": 1696,
      "譯": 1697,
      "議": 1698,
      "護": 1699,
      "讀": 1700,
      "變": 1701,
      "证": 1702,
      "详": 1703,
      "请": 1704,
      "象": 1705,
      "豪": 1706,
      "貌": 1707,
      "貝": 1708,
      "負": 1709,
      "財": 1710,
      "貢": 1711,
      "貨": 1712,
      "販": 1713,
      "責": 1714,
      "買": 1715,
      "貸": 1716,
      "費": 1717,
      "貿": 1718,
      "賃": 1719,
      "資": 1720,
      "賠": 1721,
      "賣": 1722,
      "質": 1723,
      "購": 1724,
      "责": 1725,
      "资": 1726,
      "赤": 1727,
      "赫": 1728,
      "走": 1729,
      "起": 1730,
      "超": 1731,
      "越": 1732,
      "趙": 1733,
      "趨": 1734,
      "足": 1735,
      "跌": 1736,
      "距": 1737,
      "跟": 1738,
      "跡": 1739,
      "路": 1740,
      "踏": 1741,
      "蹤": 1742,
      "躍": 1743,
      "車": 1744,
      "軍": 1745,
      "軟": 1746,
      "転": 1747,
      "較": 1748,
      "輕": 1749,
      "輝": 1750,
      "輸": 1751,
      "轉": 1752,
      "辦": 1753,
      "辭": 1754,
      "農": 1755,
      "辺": 1756,
      "込": 1757,
      "迄": 1758,
      "迎": 1759,
      "近": 1760,
      "迫": 1761,
      "述": 1762,
      "迷": 1763,
      "追": 1764,
      "退": 1765,
      "送": 1766,
      "逆": 1767,
      "选": 1768,
      "透": 1769,
      "逐": 1770,
      "途": 1771,
      "這": 1772,
      "通": 1773,
      "速": 1774,
      "造": 1775,
      "逢": 1776,
      "連": 1777,
      "週": 1778,
      "進": 1779,
      "逾": 1780,
      "遅": 1781,
      "遇": 1782,
      "遊": 1783,
      "運": 1784,
      "過": 1785,
      "遏": 1786,
      "道": 1787,
      "達": 1788,
      "遜": 1789,
      "遠": 1790,
      "適": 1791,
      "遭": 1792,
      "遲": 1793,
      "遷": 1794,
      "選": 1795,
      "避": 1796,
      "還": 1797,
      "那": 1798,
      "邦": 1799,
      "邵": 1800,
      "郎": 1801,
      "部": 1802,
      "都": 1803,
      "鄭": 1804,
      "配": 1805,
      "酒": 1806,
      "酢": 1807,
      "酸": 1808,
      "醜": 1809,
      "采": 1810,
      "释": 1811,
      "里": 1812,
      "重": 1813,
      "量": 1814,
      "金": 1815,
      "針": 1816,
      "鈀": 1817,
      "鈍": 1818,
      "鈞": 1819,
      "銀": 1820,
      "銅": 1821,
      "銖": 1822,
      "銘": 1823,
      "銷": 1824,
      "鋁": 1825,
      "鋪": 1826,
      "鋼": 1827,
      "錄": 1828,
      "錢": 1829,
      "錦": 1830,
      "鍵": 1831,
      "鎊": 1832,
      "鎖": 1833,
      "鐵": 1834,
      "鐸": 1835,
      "银": 1836,
      "長": 1837,
      "門": 1838,
      "閉": 1839,
      "開": 1840,
      "閑": 1841,
      "間": 1842,
      "関": 1843,
      "閱": 1844,
      "關": 1845,
      "闻": 1846,
      "防": 1847,
      "阻": 1848,
      "阿": 1849,
      "附": 1850,
      "降": 1851,
      "限": 1852,
      "院": 1853,
      "陣": 1854,
      "除": 1855,
      "陥": 1856,
      "陳": 1857,
      "陷": 1858,
      "陸": 1859,
      "険": 1860,
      "隆": 1861,
      "階": 1862,
      "際": 1863,
      "隨": 1864,
      "險": 1865,
      "雅": 1866,
      "集": 1867,
      "雇": 1868,
      "雖": 1869,
      "雙": 1870,
      "離": 1871,
      "難": 1872,
      "雨": 1873,
      "零": 1874,
      "雷": 1875,
      "電": 1876,
      "需": 1877,
      "震": 1878,
      "露": 1879,
      "青": 1880,
      "静": 1881,
      "靚": 1882,
      "靜": 1883,
      "非": 1884,
      "面": 1885,
      "革": 1886,
      "鞋": 1887,
      "鞍": 1888,
      "鞏": 1889,
      "韌": 1890,
      "韓": 1891,
      "響": 1892,
      "頁": 1893,
      "項": 1894,
      "須": 1895,
      "預": 1896,
      "頓": 1897,
      "領": 1898,
      "頭": 1899,
      "頻": 1900,
      "頼": 1901,
      "題": 1902,
      "額": 1903,
      "願": 1904,
      "類": 1905,
      "顧": 1906,
      "顯": 1907,
      "页": 1908,
      "额": 1909,
      "風": 1910,
      "颱": 1911,
      "飆": 1912,
      "飛": 1913,
      "食": 1914,
      "飲": 1915,
      "飾": 1916,
      "餃": 1917,
      "首": 1918,
      "香": 1919,
      "馬": 1920,
      "驗": 1921,
      "驚": 1922,
      "驟": 1923,
      "體": 1924,
      "高": 1925,
      "鬥": 1926,
      "鮮": 1927,
      "鳥": 1928,
      "鳳": 1929,
      "鳴": 1930,
      "鴻": 1931,
      "鷺": 1932,
      "鹽": 1933,
      "麗": 1934,
      "麟": 1935,
      "麥": 1936,
      "黃": 1937,
      "黎": 1938,
      "黑": 1939,
      "點": 1940,
      "黨": 1941,
      "鼓": 1942,
      "鼠": 1943,
      "龐": 1944,
      "龔": 1945,
      "ꟷ": 1946,
      "": 1947,
      "": 1948,
      "": 1949,
      "": 1950,
      "": 1951,
      "": 1952,
      "": 1953,
      "": 1954,
      "": 1955,
      "": 1956,
      "": 1957,
      "ﬀ": 1958,
      "ﬁ": 1959,
      "ﬂ": 1960,
      "ﬃ": 1961,
      "ﬅ": 1962,
      "︰": 1963,
      "﻿": 1964,
      "％": 1965,
      "＆": 1966,
      "（": 1967,
      "）": 1968,
      "＊": 1969,
      "＋": 1970,
      "，": 1971,
      "．": 1972,
      "／": 1973,
      "０": 1974,
      "１": 1975,
      "２": 1976,
      "３": 1977,
      "４": 1978,
      "５": 1979,
      "６": 1980,
      "７": 1981,
      "８": 1982,
      "９": 1983,
      "：": 1984,
      "；": 1985,
      "＜": 1986,
      "＝": 1987,
      "＞": 1988,
      "＠": 1989,
      "［": 1990,
      "］": 1991,
      "ａ": 1992,
      "ｂ": 1993,
      "ｃ": 1994,
      "ｄ": 1995,
      "ｅ": 1996,
      "ｆ": 1997,
      "ｇ": 1998,
      "ｈ": 1999,
      "ｉ": 2000,
      "ｊ": 2001,
      "ｋ": 2002,
      "ｌ": 2003,
      "ｍ": 2004,
      "ｎ": 2005,
      "ｏ": 2006,
      "ｐ": 2007,
      "ｑ": 2008,
      "ｒ": 2009,
      "ｓ": 2010,
      "ｔ": 2011,
      "ｕ": 2012,
      "ｖ": 2013,
      "ｗ": 2014,
      "ｘ": 2015,
      "ｙ": 2016,
      "￥": 2017,
      "�": 2018,
      "##b": 2019,
      "##d": 2020,
      "##y": 2021,
      "##x": 2022,
      "##i": 2023,
      "##z": 2024,
      "##a": 2025,
      "##s": 2026,
      "##p": 2027,
      "##h": 2028,
      "##q": 2029,
      "##_": 2030,
      "##k": 2031,
      "##v": 2032,
      "##j": 2033,
      "##<": 2034,
      "##`": 2035,
      "##)": 2036,
      "##%": 2037,
      "##!": 2038,
      "##=": 2039,
      "##\\": 2040,
      "##:": 2041,
      "##*": 2042,
      "##(": 2043,
      "##,": 2044,
      "##[": 2045,
      "###": 2046,
      "##@": 2047,
      "##o": 2048,
      "##e": 2049,
      "##m": 2050,
      "##.": 2051,
      "##+": 2052,
      "##\"": 2053,
      "##t": 2054,
      "##u": 2055,
      "##l": 2056,
      "##r": 2057,
      "##w": 2058,
      "##c": 2059,
      "##-": 2060,
      "##/": 2061,
      "##>": 2062,
      "##]": 2063,
      "##g": 2064,
      "##f": 2065,
      "##n": 2066,
      "##'": 2067,
      "##?": 2068,
      "##$": 2069,
      "##&": 2070,
      "##;": 2071,
      "##^": 2072,
      "##а": 2073,
      "##м": 2074,
      "##е": 2075,
      "##д": 2076,
      "##л": 2077,
      "##и": 2078,
      "##с": 2079,
      "##ь": 2080,
      "##者": 2081,
      "##將": 2082,
      "##尋": 2083,
      "##覓": 2084,
      "##合": 2085,
      "##作": 2086,
      "##伙": 2087,
      "##伴": 2088,
      "##”": 2089,
      "##午": 2090,
      "##前": 2091,
      "##中": 2092,
      "##盤": 2093,
      "##の": 2094,
      "##ニ": 2095,
      "##ュ": 2096,
      "##ー": 2097,
      "##ヨ": 2098,
      "##ク": 2099,
      "##株": 2100,
      "##式": 2101,
      "##市": 2102,
      "##場": 2103,
      "##は": 2104,
      "##ß": 2105,
      "##º": 2106,
      "##速": 2107,
      "##大": 2108,
      "##容": 2109,
      "##量": 2110,
      "##通": 2111,
      "##信": 2112,
      "##|": 2113,
      "##μ": 2114,
      "##α": 2115,
      "##δ": 2116,
      "##ς": 2117,
      "##‘": 2118,
      "##会": 2119,
      "##後": 2120,
      "##ト": 2121,
      "##リ": 2122,
      "##シ": 2123,
      "##ェ": 2124,
      "##総": 2125,
      "##裁": 2126,
      "##見": 2127,
      "##て": 2128,
      "##コ": 2129,
      "##メ": 2130,
      "##ン": 2131,
      "##か": 2132,
      "##ら": 2133,
      "##拿": 2134,
      "##林": 2135,
      "##分": 2136,
      "##析": 2137,
      "##師": 2138,
      "##在": 2139,
      "##報": 2140,
      "##告": 2141,
      "##稱": 2142,
      "##η": 2143,
      "##ν": 2144,
      "##τ": 2145,
      "##ι": 2146,
      "##κ": 2147,
      "##ε": 2148,
      "##ﬁ": 2149,
      "##以": 2150,
      "##来": 2151,
      "##水": 2152,
      "##準": 2153,
      "##に": 2154,
      "##上": 2155,
      "##昇": 2156,
      "##ο": 2157,
      "##�": 2158,
      "##æ": 2159,
      "##日": 2160,
      "##有": 2161,
      "##消": 2162,
      "##息": 2163,
      "##指": 2164,
      "##歐": 2165,
      "##洲": 2166,
      "##央": 2167,
      "##行": 2168,
      "##軟": 2169,
      "##ィ": 2170,
      "##ッ": 2171,
      "##タ": 2172,
      "##ハ": 2173,
      "##イ": 2174,
      "##ス": 2175,
      "##フ": 2176,
      "##レ": 2177,
      "##テ": 2178,
      "##ø": 2179,
      "##χ": 2180,
      "##ل": 2181,
      "##ا": 2182,
      "##周": 2183,
      "##四": 2184,
      "##並": 2185,
      "##無": 2186,
      "##重": 2187,
      "##政": 2188,
      "##府": 2189,
      "##數": 2190,
      "##據": 2191,
      "##公": 2192,
      "##佈": 2193,
      "##此": 2194,
      "##自": 2195,
      "##營": 2196,
      "##商": 2197,
      "##開": 2198,
      "##始": 2199,
      "##回": 2200,
      "##補": 2201,
      "##空": 2202,
      "##頭": 2203,
      "##部": 2204,
      "##位": 2205,
      "##た": 2206,
      "##こ": 2207,
      "##看": 2208,
      "##国": 2209,
      "##股": 2210,
      "##相": 2211,
      "##关": 2212,
      "##新": 2213,
      "##闻": 2214,
      "##{": 2215,
      "##加": 2216,
      "##元": 2217,
      "##ｏ": 2218,
      "##ｌ": 2219,
      "##ホ": 2220,
      "##マ": 2221,
      "##同": 2222,
      "##紙": 2223,
      "##対": 2224,
      "##し": 2225,
      "##本": 2226,
      "##一": 2227,
      "##因": 2228,
      "##國": 2229,
      "##定": 2230,
      "##假": 2231,
      "##而": 2232,
      "##休": 2233,
      "##天": 2234,
      "##~": 2235,
      "##υ": 2236,
      "##ρ": 2237,
      "##ł": 2238,
      "##可": 2239,
      "##能": 2240,
      "##依": 2241,
      "##舊": 2242,
      "##引": 2243,
      "##人": 2244,
      "##憂": 2245,
      "##心": 2246,
      "##‌": 2247,
      "##£": 2248,
      "##‍": 2249,
      "##‎": 2250,
      "##": 2251,
      "##π": 2252,
      "##β": 2253,
      "##月": 2254,
      "##降": 2255,
      "##方": 2256,
      "##割": 2257,
      "##れ": 2258,
      "##る": 2259,
      "##と": 2260,
      "##売": 2261,
      "##": 2262,
      "##}": 2263,
      "##軍": 2264,
      "##σ": 2265,
      "##ω": 2266,
      "##預": 2267,
      "##期": 2268,
      "##": 2269,
      "##": 2270,
      "##セ": 2271,
      "##数": 2272,
      "##業": 2273,
      "##種": 2274,
      "##別": 2275,
      "##外": 2276,
      "##的": 2277,
      "##航": 2278,
      "##展": 2279,
      "##及": 2280,
      "##¿": 2281,
      "##ʻ": 2282,
      "##為": 2283,
      "##替": 2284,
      "##’": 2285,
      "##λ": 2286,
      "##": 2287,
      "##よ": 2288,
      "##旅": 2289,
      "##客": 2290,
      "##需": 2291,
      "##要": 2292,
      "##減": 2293,
      "##少": 2294,
      "##や": 2295,
      "##あ": 2296,
      "##т": 2297,
      "##р": 2298,
      "##н": 2299,
      "##ы": 2300,
      "##纪": 2301,
      "##证": 2302,
      "##券": 2303,
      "##限": 2304,
      "##责": 2305,
      "##任": 2306,
      "##司": 2307,
      "##ロ": 2308,
      "##ラ": 2309,
      "##海": 2310,
      "##交": 2311,
      "##易": 2312,
      "##所": 2313,
      "##φ": 2314,
      "##発": 2315,
      "##表": 2316,
      "##第": 2317,
      "##…": 2318,
      "##ป": 2319,
      "##ร": 2320,
      "##บ": 2321,
      "##เ": 2322,
      "##พ": 2323,
      "##ม": 2324,
      "##ข": 2325,
      "##น": 2326,
      "##ใ": 2327,
      "##下": 2328,
      "##至": 2329,
      "##ｅ": 2330,
      "##ｔ": 2331,
      "##о": 2332,
      "##з": 2333,
      "##ж": 2334,
      "##θ": 2335,
      "##": 2336,
      "##年": 2337,
      "##兩": 2338,
      "##個": 2339,
      "##精": 2340,
      "##煉": 2341,
      "##銅": 2342,
      "##產": 2343,
      "##由": 2344,
      "##去": 2345,
      "##難": 2346,
      "##な": 2347,
      "##っ": 2348,
      "##ｎ": 2349,
      "##ｙ": 2350,
      "##疑": 2351,
      "##わ": 2352,
      "##い": 2353,
      "##口": 2354,
      "##座": 2355,
      "##へ": 2356,
      "##送": 2357,
      "##金": 2358,
      "##関": 2359,
      "##与": 2360,
      "##融": 2361,
      "##機": 2362,
      "##貿": 2363,
      "##ヘ": 2364,
      "##貨": 2365,
      "##投": 2366,
      "##資": 2367,
      "##管": 2368,
      "##理": 2369,
      "##基": 2370,
      "##經": 2371,
      "##萊": 2372,
      "##斯": 2373,
      "##說": 2374,
      "##道": 2375,
      "##区": 2376,
      "##連": 2377,
      "##銀": 2378,
      "##受": 2379,
      "##美": 2380,
      "##濟": 2381,
      "##放": 2382,
      "##緩": 2383,
      "##慮": 2384,
      "##沖": 2385,
      "##擊": 2386,
      "##γ": 2387,
      "##品": 2388,
      "##類": 2389,
      "##半": 2390,
      "##導": 2391,
      "##體": 2392,
      "##到": 2393,
      "##收": 2394,
      "##現": 2395,
      "##不": 2396,
      "##佳": 2397,
      "##利": 2398,
      "##打": 2399,
      "##挫": 2400,
      "##比": 2401,
      "##邦": 2402,
      "##保": 2403,
      "##険": 2404,
      "##社": 2405,
      "##ﬀ": 2406,
      "##​": 2407,
      "##世": 2408,
      "##界": 2409,
      "##地": 2410,
      "##項": 2411,
      "##目": 2412,
      "##多": 2413,
      "##是": 2414,
      "##廉": 2415,
      "##價": 2416,
      "##住": 2417,
      "##宅": 2418,
      "##勁": 2419,
      "##揚": 2420,
      "##他": 2421,
      "##也": 2422,
      "##出": 2423,
      "##債": 2424,
      "##完": 2425,
      "##全": 2426,
      "##其": 2427,
      "##測": 2428,
      "##值": 2429,
      "##反": 2430,
      "##映": 2431,
      "##匯": 2432,
      "##率": 2433,
      "##波": 2434,
      "##動": 2435,
      "##素": 2436,
      "##け": 2437,
      "##再": 2438,
      "##ひ": 2439,
      "##落": 2440,
      "##幅": 2441,
      "##を": 2442,
      "##広": 2443,
      "##す": 2444,
      "##範": 2445,
      "##米": 2446,
      "##ル": 2447,
      "##服": 2448,
      "##я": 2449,
      "##ц": 2450,
      "##北": 2451,
      "##氏": 2452,
      "##考": 2453,
      "##原": 2454,
      "##文": 2455,
      "##較": 2456,
      "##得": 2457,
      "##關": 2458,
      "##注": 2459,
      "##包": 2460,
      "##括": 2461,
      "##事": 2462,
      "##企": 2463,
      "##情": 2464,
      "##ウ": 2465,
      "##ォ": 2466,
      "##修": 2467,
      "##正": 2468,
      "##—": 2469,
      "##ถ": 2470,
      "##า": 2471,
      "##ช": 2472,
      "##ญ": 2473,
      "##ย": 2474,
      "##摩": 2475,
      "##根": 2476,
      "##ア": 2477,
      "##ム": 2478,
      "##選": 2479,
      "##手": 2480,
      "##決": 2481,
      "##勝": 2482,
      "##戦": 2483,
      "##き": 2484,
      "##真": 2485,
      "##升": 2486,
      "##子": 2487,
      "##區": 2488,
      "##り": 2489,
      "##份": 2490,
      "##認": 2491,
      "##ч": 2492,
      "##調": 2493,
      "##益": 2494,
      "##©": 2495,
      "##台": 2496,
      "##幣": 2497,
      "##制": 2498,
      "##造": 2499,
      "##增": 2500,
      "##長": 2501,
      "##度": 2502,
      "##料": 2503,
      "##微": 2504,
      "##快": 2505,
      "##": 2506,
      "##略": 2507,
      "##低": 2508,
      "##于": 2509,
      "##該": 2510,
      "##印": 2511,
      "##尼": 2512,
      "##盧": 2513,
      "##和": 2514,
      "##泰": 2515,
      "##銖": 2516,
      "##算": 2517,
      "##滑": 2518,
      "##超": 2519,
      "##越": 2520,
      "##亞": 2521,
      "##п": 2522,
      "##威": 2523,
      "##路": 2524,
      "##营": 2525,
      "##业": 2526,
      "##格": 2527,
      "##ξ": 2528,
      "##欲": 2529,
      "##提": 2530,
      "##取": 2531,
      "##初": 2532,
      "##意": 2533,
      "##達": 2534,
      "##": 2535,
      "##−": 2536,
      "##麗": 2537,
      "##艷": 2538,
      "##в": 2539,
      "##城": 2540,
      "##建": 2541,
      "##к": 2542,
      "##「": 2543,
      "##州": 2544,
      "##煤": 2545,
      "##會": 2546,
      "##議": 2547,
      "##題": 2548,
      "##應": 2549,
      "##集": 2550,
      "##ャ": 2551,
      "##ナ": 2552,
      "##読": 2553,
      "##む": 2554,
      "##": 2555,
      "##爾": 2556,
      "##電": 2557,
      "##腦": 2558,
      "##製": 2559,
      "##う": 2560,
      "##み": 2561,
      "##圓": 2562,
      "##今": 2563,
      "##早": 2564,
      "##兌": 2565,
      "##漲": 2566,
      "##接": 2567,
      "##近": 2568,
      "##萬": 2569,
      "##點": 2570,
      "##": 2571,
      "##覧": 2572,
      "##く": 2573,
      "##さ": 2574,
      "##ｓ": 2575,
      "##価": 2576,
      "##そ": 2577,
      "##法": 2578,
      "##院": 2579,
      "##係": 2580,
      "##購": 2581,
      "##案": 2582,
      "##扣": 2583,
      "##款": 2584,
      "##左": 2585,
      "##右": 2586,
      "##時": 2587,
      "##間": 2588,
      "##內": 2589,
      "##了": 2590,
      "##ผ": 2591,
      "##ล": 2592,
      "##ส": 2593,
      "##ำ": 2594,
      "##ว": 2595,
      "##จ": 2596,
      "##ด": 2597,
      "##ค": 2598,
      "##อ": 2599,
      "##โ": 2600,
      "##ภ": 2601,
      "##［": 2602,
      "##ｄ": 2603,
      "##ｐ": 2604,
      "##三": 2605,
      "##面": 2606,
      "##走": 2607,
      "##成": 2608,
      "##執": 2609,
      "##勤": 2610,
      "##買": 2611,
      "##賣": 2612,
      "##協": 2613,
      "##窄": 2614,
      "##跌": 2615,
      "##立": 2616,
      "##ま": 2617,
      "##字": 2618,
      "##久": 2619,
      "##財": 2620,
      "##増": 2621,
      "##予": 2622,
      "##想": 2623,
      "##郎": 2624,
      "##強": 2625,
      "##對": 2626,
      "##構": 2627,
      "##壓": 2628,
      "##力": 2629,
      "##具": 2630,
      "##б": 2631,
      "##即": 2632,
      "##續": 2633,
      "##俄": 2634,
      "##ᅵ": 2635,
      "##ᆯ": 2636,
      "##ｉ": 2637,
      "##朝": 2638,
      "##ﬂ": 2639,
      "##些": 2640,
      "##候": 2641,
      "##ψ": 2642,
      "##務": 2643,
      "##編": 2644,
      "##環": 2645,
      "##ي": 2646,
      "##灣": 2647,
      "##記": 2648,
      "##憶": 2649,
      "##廠": 2650,
      "##華": 2651,
      "##鎖": 2652,
      "##停": 2653,
      "##ﬃ": 2654,
      "##權": 2655,
      "##ª": 2656,
      "##渉": 2657,
      "##進": 2658,
      "##め": 2659,
      "##明": 2660,
      "##工": 2661,
      "##用": 2662,
      "##先": 2663,
      "##鈍": 2664,
      "##化": 2665,
      "##背": 2666,
      "##景": 2667,
      "##績": 2668,
      "##湧": 2669,
      "##値": 2670,
      "##営": 2671,
      "##産": 2672,
      "##倍": 2673,
      "##せ": 2674,
      "##計": 2675,
      "##画": 2676,
      "##証": 2677,
      "##ヒ": 2678,
      "##ｃ": 2679,
      "##盟": 2680,
      "##ш": 2681,
      "##当": 2682,
      "##色": 2683,
      "##屬": 2684,
      "##材": 2685,
      "##技": 2686,
      "##且": 2687,
      "##逆": 2688,
      "##差": 2689,
      "##五": 2690,
      "##韓": 2691,
      "##€": 2692,
      "##充": 2693,
      "##證": 2694,
      "##顯": 2695,
      "##示": 2696,
      "##最": 2697,
      "##™": 2698,
      "##ケ": 2699,
      "##お": 2700,
      "##坂": 2701,
      "##曜": 2702,
      "##堂": 2703,
      "##僅": 2704,
      "##九": 2705,
      "##普": 2706,
      "##港": 2707,
      "##戶": 2708,
      "##熱": 2709,
      "##絡": 2710,
      "##帶": 2711,
      "##勢": 2712,
      "##査": 2713,
      "##約": 2714,
      "##ζ": 2715,
      "##م": 2716,
      "##ق": 2717,
      "##ر": 2718,
      "##如": 2719,
      "##恆": 2720,
      "##來": 2721,
      "##ユ": 2722,
      "##も": 2723,
      "##家": 2724,
      "##失": 2725,
      "##望": 2726,
      "##宣": 2727,
      "##針": 2728,
      "##尾": 2729,
      "##獲": 2730,
      "##結": 2731,
      "##カ": 2732,
      "##支": 2733,
      "##持": 2734,
      "##線": 2735,
      "##渋": 2736,
      "##ミ": 2737,
      "##ョ": 2738,
      "##二": 2739,
      "##轉": 2740,
      "##高": 2741,
      "##物": 2742,
      "##ｆ": 2743,
      "##布": 2744,
      "##更": 2745,
      "##ん": 2746,
      "##戻": 2747,
      "##沒": 2748,
      "##確": 2749,
      "##彈": 2750,
      "##跡": 2751,
      "##象": 2752,
      "##紛": 2753,
      "##拋": 2754,
      "##ก": 2755,
      "##ن": 2756,
      "##経": 2757,
      "##済": 2758,
      "##ほ": 2759,
      "##復": 2760,
      "##兆": 2761,
      "##ج": 2762,
      "##油": 2763,
      "##發": 2764,
      "##警": 2765,
      "##訊": 2766,
      "##供": 2767,
      "##額": 2768,
      "##撐": 2769,
      "##房": 2770,
      "##屋": 2771,
      "##聯": 2772,
      "##儲": 2773,
      "##備": 2774,
      "##克": 2775,
      "##г": 2776,
      "##活": 2777,
      "##躍": 2778,
      "##ｍ": 2779,
      "##常": 2780,
      "##董": 2781,
      "##費": 2782,
      "##性": 2783,
      "##巨": 2784,
      "##擘": 2785,
      "##王": 2786,
      "##令": 2787,
      "##麟": 2788,
      "##捲": 2789,
      "##入": 2790,
      "##土": 2791,
      "##弊": 2792,
      "##於": 2793,
      "##香": 2794,
      "##與": 2795,
      "##球": 2796,
      "##求": 2797,
      "##甦": 2798,
      "##激": 2799,
      "##勵": 2800,
      "##型": 2801,
      "##ネ": 2802,
      "##昊": 2803,
      "##次": 2804,
      "##聞": 2805,
      "##流": 2806,
      "##拉": 2807,
      "##幾": 2808,
      "##百": 2809,
      "##内": 2810,
      "##モ": 2811,
      "##著": 2812,
      "##般": 2813,
      "##覽": 2814,
      "##哈": 2815,
      "##薩": 2816,
      "##·": 2817,
      "##": 2818,
      "##": 2819,
      "##ب": 2820,
      "##ط": 2821,
      "##ı": 2822,
      "##条": 2823,
      "##件": 2824,
      "##エ": 2825,
      "##ノ": 2826,
      "##策": 2827,
      "##維": 2828,
      "##援": 2829,
      "##▼": 2830,
      "##œ": 2831,
      "##": 2832,
      "##好": 2833,
      "##感": 2834,
      "##–": 2835,
      "##続": 2836,
      "##堅": 2837,
      "##這": 2838,
      "##晶": 2839,
      "##觸": 2840,
      "##七": 2841,
      "##門": 2842,
      "##側": 2843,
      "##或": 2844,
      "##码": 2845,
      "##官": 2846,
      "##振": 2847,
      "##杓": 2848,
      "##申": 2849,
      "##圜": 2850,
      "##擔": 2851,
      "##凰": 2852,
      "##衛": 2853,
      "##視": 2854,
      "##語": 2855,
      "##抵": 2856,
      "##庫": 2857,
      "##訂": 2858,
      "##每": 2859,
      "##員": 2860,
      "##過": 2861,
      "##究": 2862,
      "##街": 2863,
      "##學": 2864,
      "##変": 2865,
      "##宗": 2866,
      "##为": 2867,
      "##ァ": 2868,
      "##払": 2869,
      "##問": 2870,
      "##牌": 2871,
      "##逾": 2872,
      "##猜": 2873,
      "##評": 2874,
      "##論": 2875,
      "##込": 2876,
      "##等": 2877,
      "##規": 2878,
      "##急": 2879,
      "##伸": 2880,
      "##継": 2881,
      "##実": 2882,
      "##施": 2883,
      "##ツ": 2884,
      "##点": 2885,
      "##士": 2886,
      "##稍": 2887,
      "##售": 2888,
      "##車": 2889,
      "##術": 2890,
      "##民": 2891,
      "##終": 2892,
      "##星": 2893,
      "##圧": 2894,
      "##縮": 2895,
      "##ᅬ": 2896,
      "##ᄋ": 2897,
      "##ᅡ": 2898,
      "##ᅧ": 2899,
      "##ᆼ": 2900,
      "##紐": 2901,
      "##拆": 2902,
      "##校": 2903,
      "##博": 2904,
      "##際": 2905,
      "##局": 2906,
      "##ك": 2907,
      "##": 2908,
      "##飛": 2909,
      "##單": 2910,
      "##ᅮ": 2911,
      "##ᆸ": 2912,
      "##史": 2913,
      "##ð": 2914,
      "##円": 2915,
      "##ち": 2916,
      "##止": 2917,
      "##観": 2918,
      "##透": 2919,
      "##堪": 2920,
      "##鷺": 2921,
      "##鳴": 2922,
      "##⁠": 2923,
      "##ふ": 2924,
      "##安": 2925,
      "##桶": 2926,
      "##平": 2927,
      "##均": 2928,
      "##チ": 2929,
      "##查": 2930,
      "##估": 2931,
      "##豪": 2932,
      "##酒": 2933,
      "##店": 2934,
      "##控": 2935,
      "##暫": 2936,
      "##必": 2937,
      "##試": 2938,
      "##已": 2939,
      "##¥": 2940,
      "##‐": 2941,
      "##週": 2942,
      "##英": 2943,
      "##委": 2944,
      "##据": 2945,
      "##え": 2946,
      "##置": 2947,
      "##索": 2948,
      "##德": 2949,
      "##伯": 2950,
      "##蘋": 2951,
      "##果": 2952,
      "##オ": 2953,
      "##影": 2954,
      "##響": 2955,
      "##小": 2956,
      "##推": 2957,
      "##移": 2958,
      "##惠": 2959,
      "##遊": 2960,
      "##樂": 2961,
      "##器": 2962,
      "##銷": 2963,
      "##改": 2964,
      "##善": 2965,
      "##ع": 2966,
      "##話": 2967,
      "##首": 2968,
      "##巴": 2969,
      "##西": 2970,
      "##閉": 2971,
      "##擁": 2972,
      "##號": 2973,
      "##代": 2974,
      "##碼": 2975,
      "##按": 2976,
      "##鼠": 2977,
      "##鍵": 2978,
      "##¦": 2979,
      "##損": 2980,
      "##害": 2981,
      "##賠": 2982,
      "##償": 2983,
      "##既": 2984,
      "##織": 2985,
      "##京": 2986,
      "##洪": 2987,
      "##武": 2988,
      "##諸": 2989,
      "##歴": 2990,
      "##訪": 2991,
      "##曾": 2992,
      "##頻": 2993,
      "##繁": 2994,
      "##干": 2995,
      "##細": 2996,
      "##節": 2997,
      "##付": 2998,
      "##つ": 2999,
      "##直": 3000,
      "##ง": 3001,
      "##ท": 3002,
      "##ฯ": 3003,
      "##±": 3004,
      "##深": 3005,
      "##圳": 3006,
      "##標": 3007,
      "##之": 3008,
      "##擺": 3009,
      "##脫": 3010,
      "##溫": 3011,
      "##負": 3012,
      "##江": 3013,
      "##實": 3014,
      "##鮮": 3015,
      "##蔬": 3016,
      "##菜": 3017,
      "##則": 3018,
      "##拡": 3019,
      "##札": 3020,
      "##参": 3021,
      "##劃": 3022,
      "##主": 3023,
      "##尚": 3024,
      "##伝": 3025,
      "##ะ": 3026,
      "##ต": 3027,
      "##僑": 3028,
      "##南": 3029,
      "##繩": 3030,
      "##島": 3031,
      "##舉": 3032,
      "##峰": 3033,
      "##設": 3034,
      "##": 3035,
      "##荻": 3036,
      "##陣": 3037,
      "##“": 3038,
      "##擇": 3039,
      "##優": 3040,
      "##ش": 3041,
      "##د": 3042,
      "##気": 3043,
      "##キ": 3044,
      "##声": 3045,
      "##─": 3046,
      "##含": 3047,
      "##裝": 3048,
      "##零": 3049,
      "##判": 3050,
      "##断": 3051,
      "##輸": 3052,
      "##遲": 3053,
      "##把": 3054,
      "##使": 3055,
      "##審": 3056,
      "##慎": 3057,
      "##頼": 3058,
      "##域": 3059,
      "##春": 3060,
      "##紅": 3061,
      "##枠": 3062,
      "##參": 3063,
      "##杜": 3064,
      "##森": 3065,
      "##貝": 3066,
      "##赫": 3067,
      "##＋": 3068,
      "##都": 3069,
      "##避": 3070,
      "##險": 3071,
      "##席": 3072,
      "##網": 3073,
      "##站": 3074,
      "##源": 3075,
      "##陷": 3076,
      "##整": 3077,
      "##破": 3078,
      "##": 3079,
      "##ห": 3080,
      "##給": 3081,
      "##介": 3082,
      "##墨": 3083,
      "##哥": 3084,
      "##運": 3085,
      "##生": 3086,
      "##采": 3087,
      "##斷": 3088,
      "##措": 3089,
      "##防": 3090,
      "##患": 3091,
      "##未": 3092,
      "##然": 3093,
      "##庁": 3094,
      "##坡": 3095,
      "##筋": 3096,
      "##許": 3097,
      "##餃": 3098,
      "##起": 3099,
      "##段": 3100,
      "##言": 3101,
      "##太": 3102,
      "##、": 3103,
      "##票": 3104,
      "##缺": 3105,
      "##乏": 3106,
      "##謹": 3107,
      "##境": 3108,
      "##摘": 3109,
      "##弁": 3110,
      "##省": 3111,
      "##綜": 3112,
      "##乗": 3113,
      "##盈": 3114,
      "##ソ": 3115,
      "##配": 3116,
      "##＝": 3117,
      "##": 3118,
      "##請": 3119,
      "##東": 3120,
      "##佔": 3121,
      "##例": 3122,
      "##亦": 3123,
      "##願": 3124,
      "##ｊ": 3125,
      "##麥": 3126,
      "##競": 3127,
      "##爭": 3128,
      "##و": 3129,
      "##耐": 3130,
      "##吃": 3131,
      "##驚": 3132,
      "##ᄅ": 3133,
      "##ᅥ": 3134,
      "##閱": 3135,
      "##系": 3136,
      "##幹": 3137,
      "##，": 3138,
      "##ف": 3139,
      "##傳": 3140,
      "##科": 3141,
      "##劇": 3142,
      "##督": 3143,
      "##狙": 3144,
      "##若": 3145,
      "##弱": 3146,
      "##氣": 3147,
      "##污": 3148,
      "##染": 3149,
      "##鋼": 3150,
      "##良": 3151,
      "##銘": 3152,
      "##柄": 3153,
      "##角": 3154,
      "##扶": 3155,
      "##助": 3156,
      "##®": 3157,
      "##宕": 3158,
      "##伏": 3159,
      "##膽": 3160,
      "##戰": 3161,
      "##宇": 3162,
      "##彩": 3163,
      "##努": 3164,
      "##抜": 3165,
      "##歇": 3166,
      "##«": 3167,
      "##契": 3168,
      "##": 3169,
      "##释": 3170,
      "##盛": 3171,
      "##玩": 3172,
      "##截": 3173,
      "##嚴": 3174,
      "##淡": 3175,
      "##靜": 3176,
      "##紹": 3177,
      "##食": 3178,
      "##押": 3179,
      "##況": 3180,
      "##很": 3181,
      "##從": 3182,
      "##搶": 3183,
      "##步": 3184,
      "##サ": 3185,
      "##ء": 3186,
      "##ᅩ": 3187,
      "##ᄐ": 3188,
      "##毎": 3189,
      "##ﬅ": 3190,
      "##ة": 3191,
      "##悪": 3192,
      "##担": 3193,
      "##榮": 3194,
      "##們": 3195,
      "##ヤ": 3196,
      "##у": 3197,
      "##談": 3198,
      "##狀": 3199,
      "##脅": 3200,
      "##瑞": 3201,
      "##束": 3202,
      "##鼓": 3203,
      "##舞": 3204,
      "##•": 3205,
      "##職": 3206,
      "##換": 3207,
      "##§": 3208,
      "##訴": 3209,
      "##拭": 3210,
      "##石": 3211,
      "##岘": 3212,
      "##貸": 3213,
      "##季": 3214,
      "##仍": 3215,
      "##趨": 3216,
      "##ت": 3217,
      "##泉": 3218,
      "##純": 3219,
      "##講": 3220,
      "##變": 3221,
      "##臆": 3222,
      "##檔": 3223,
      "##）": 3224,
      "##途": 3225,
      "##旨": 3226,
      "##濤": 3227,
      "##­": 3228,
      "##単": 3229,
      "##模": 3230,
      "##繼": 3231,
      "##承": 3232,
      "##研": 3233,
      "##免": 3234,
      "##¸": 3235,
      "##ד": 3236,
      "##還": 3237,
      "##ᅳ": 3238,
      "##ᄀ": 3239,
      "##託": 3240,
      "##遭": 3241,
      "##襲": 3242,
      "##旗": 3243,
      "##艦": 3244,
      "##採": 3245,
      "##简": 3246,
      "##称": 3247,
      "##解": 3248,
      "##端": 3249,
      "##ᴇ": 3250,
      "##極": 3251,
      "##岐": 3252,
      "##抑": 3253,
      "##靚": 3254,
      "##特": 3255,
      "##臣": 3256,
      "##柳": 3257,
      "##澤": 3258,
      "##夫": 3259,
      "##辭": 3260,
      "##柏": 3261,
      "##唆": 3262,
      "##": 3263,
      "##玉": 3264,
      "##х": 3265,
      "##湾": 3266,
      "##命": 3267,
      "##須": 3268,
      "##¢": 3269,
      "##ワ": 3270,
      "##": 3271,
      "##慢": 3272,
      "##我": 3273,
      "##吐": 3274,
      "##虧": 3275,
      "##щ": 3276,
      "##ю": 3277,
      "##神": 3278,
      "##質": 3279,
      "##ｘ": 3280,
      "##ａ": 3281,
      "##ｂ": 3282,
      "##※": 3283,
      "##向": 3284,
      "##名": 3285,
      "##擷": 3286,
      "##什": 3287,
      "##瑾": 3288,
      "##否": 3289,
      "##朗": 3290,
      "##風": 3291,
      "##楽": 3292,
      "##片": 3293,
      "##彌": 3294,
      "##當": 3295,
      "##懸": 3296,
      "##念": 3297,
      "##浮": 3298,
      "##搬": 3299,
      "##遷": 3300,
      "##宜": 3301,
      "##切": 3302,
      "##創": 3303,
      "##˜": 3304,
      "##讀": 3305,
      "##倫": 3306,
      "##敦": 3307,
      "##ｇ": 3308,
      "##監": 3309,
      "##ｕ": 3310,
      "##ｖ": 3311,
      "##赤": 3312,
      "##転": 3313,
      "##ょ": 3314,
      "##探": 3315,
      "##非": 3316,
      "##棉": 3317,
      "##花": 3318,
      "##光": 3319,
      "##互": 3320,
      "##嫌": 3321,
      "##₤": 3322,
      "##寄": 3323,
      "##ณ": 3324,
      "##ศ": 3325,
      "##ษ": 3326,
      "##ฐ": 3327,
      "##แ": 3328,
      "##ธ": 3329,
      "##汽": 3330,
      "##団": 3331,
      "##携": 3332,
      "##締": 3333,
      "##・": 3334,
      "##﻿": 3335,
      "##": 3336,
      "##紀": 3337,
      "##権": 3338,
      "##掌": 3339,
      "##螢": 3340,
      "##幕": 3341,
      "##¡": 3342,
      "##疲": 3343,
      "##役": 3344,
      "##思": 3345,
      "##吸": 3346,
      "##聲": 3347,
      "##衰": 3348,
      "##似": 3349,
      "##⁣": 3350,
      "##販": 3351,
      "##促": 3352,
      "##様": 3353,
      "##辦": 3354,
      "##ろ": 3355,
      "##責": 3356,
      "##ไ": 3357,
      "##华": 3358,
      "##治": 3359,
      "##ᅯ": 3360,
      "##ᆫ": 3361,
      "##ᄆ": 3362,
      "##ᄉ": 3363,
      "##焦": 3364,
      "##琪": 3365,
      "##統": 3366,
      "##拒": 3367,
      "##絕": 3368,
      "##露": 3369,
      "##茨": 3370,
      "##領": 3371,
      "##尺": 3372,
      "##專": 3373,
      "##照": 3374,
      "##番": 3375,
      "##号": 3376,
      "##س": 3377,
      "##»": 3378,
      "##往": 3379,
      "##¤": 3380,
      "##ᄃ": 3381,
      "##单": 3382,
      "##ʰ": 3383,
      "##ф": 3384,
      "##累": 3385,
      "##離": 3386,
      "##収": 3387,
      "##‡": 3388,
      "##": 3389,
      "##": 3390,
      "##級": 3391,
      "##媒": 3392,
      "##團": 3393,
      "##ᄒ": 3394,
      "##ᅪ": 3395,
      "##吉": 3396,
      "##隆": 3397,
      "##樣": 3398,
      "##耗": 3399,
      "##": 3400,
      "##乎": 3401,
      "##被": 3402,
      "##壞": 3403,
      "##附": 3404,
      "##逢": 3405,
      "##逐": 3406,
      "##漸": 3407,
      "##］": 3408,
      "##丹": 3409,
      "##阿": 3410,
      "##卡": 3411,
      "##斥": 3412,
      "##教": 3413,
      "##祭": 3414,
      "##鋁": 3415,
      "##": 3416,
      "##瀏": 3417,
      "##穗": 3418,
      "##昂": 3419,
      "##短": 3420,
      "##版": 3421,
      "##价": 3422,
      "##症": 3423,
      "##呼": 3424,
      "##群": 3425,
      "##剩": 3426,
      "##危": 3427,
      "##鹽": 3428,
      "##川": 3429,
      "##十": 3430,
      "##圖": 3431,
      "##形": 3432,
      "##又": 3433,
      "##µ": 3434,
      "##乃": 3435,
      "##識": 3436,
      "##追": 3437,
      "##蹤": 3438,
      "##ᅭ": 3439,
      "##療": 3440,
      "##ｒ": 3441,
      "##ⓡ": 3442,
      "##喜": 3443,
      "##待": 3444,
      "##徐": 3445,
      "##々": 3446,
      "##迷": 3447,
      "##盎": 3448,
      "##歸": 3449,
      "##像": 3450,
      "##卻": 3451,
      "##戴": 3452,
      "##恩": 3453,
      "##洗": 3454,
      "##浄": 3455,
      "##鳥": 3456,
      "##青": 3457,
      "##辺": 3458,
      "##陸": 3459,
      "##便": 3460,
      "##": 3461,
      "##致": 3462,
      "##淨": 3463,
      "##您": 3464,
      "##述": 3465,
      "##遇": 3466,
      "##●": 3467,
      "##": 3468,
      "##譯": 3469,
      "##‒": 3470,
      "##批": 3471,
      "##ҫ": 3472,
      "##\u0000": 3473,
      "##歷": 3474,
      "##ح": 3475,
      "##課": 3476,
      "##總": 3477,
      "##億": 3478,
      "##徘": 3479,
      "##徊": 3480,
      "##ซ": 3481,
      "##削": 3482,
      "##詳": 3483,
      "##欧": 3484,
      "##蘭": 3485,
      "##福": 3486,
      "##拠": 3487,
      "##＊": 3488,
      "##彼": 3489,
      "##貢": 3490,
      "##獻": 3491,
      "##ز": 3492,
      "##諮": 3493,
      "##共": 3494,
      "##冊": 3495,
      "##欣": 3496,
      "##慰": 3497,
      "##存": 3498,
      "##ه": 3499,
      "##": 3500,
      "##额": 3501,
      "##桂": 3502,
      "##撥": 3503,
      "##蘇": 3504,
      "##黎": 3505,
      "##鐵": 3506,
      "##做": 3507,
      "##底": 3508,
      "##延": 3509,
      "##奕": 3510,
      "##伶": 3511,
      "##才": 3512,
      "##。": 3513,
      "##富": 3514,
      "##末": 3515,
      "##°": 3516,
      "##戒": 3517,
      "##莫": 3518,
      "##就": 3519,
      "##突": 3520,
      "##刺": 3521,
      "##医": 3522,
      "##志": 3523,
      "##酢": 3524,
      "##酸": 3525,
      "##拍": 3526,
      "##處": 3527,
      "##態": 3528,
      "##选": 3529,
      "##閑": 3530,
      "##散": 3531,
      "##謝": 3532,
      "##希": 3533,
      "##翰": 3534,
      "##遜": 3535,
      "##鈞": 3536,
      "##清": 3537,
      "##丁": 3538,
      "##畫": 3539,
      "##顧": 3540,
      "##賃": 3541,
      "##学": 3542,
      "##漢": 3543,
      "##峽": 3544,
      "##鞍": 3545,
      "##山": 3546,
      "##胜": 3547,
      "##珀": 3548,
      "##芝": 3549,
      "##觀": 3550,
      "##磊": 3551,
      "##序": 3552,
      "##ᅰ": 3553,
      "##荒": 3554,
      "##六": 3555,
      "##嵌": 3556,
      "##芯": 3557,
      "##奔": 3558,
      "##隨": 3559,
      "##聚": 3560,
      "##穩": 3561,
      "##各": 3562,
      "##却": 3563,
      "##錢": 3564,
      "##ض": 3565,
      "##薪": 3566,
      "##庭": 3567,
      "##飾": 3568,
      "##鞋": 3569,
      "##履": 3570,
      "##功": 3571,
      "##裏": 3572,
      "##暗": 3573,
      "##雅": 3574,
      "##菁": 3575,
      "##（": 3576,
      "##護": 3577,
      "##兴": 3578,
      "##经": 3579,
      "##冷": 3580,
      "##樓": 3581,
      "##舖": 3582,
      "##发": 3583,
      "##退": 3584,
      "##姿": 3585,
      "##昨": 3586,
      "##填": 3587,
      "##托": 3588,
      "##羅": 3589,
      "##ث": 3590,
      "##憑": 3591,
      "##組": 3592,
      "##膨": 3593,
      "##列": 3594,
      "##災": 3595,
      "##死": 3596,
      "##恐": 3597,
      "##怕": 3598,
      "##掀": 3599,
      "##飆": 3600,
      "##呈": 3601,
      "##体": 3602,
      "##遅": 3603,
      "##効": 3604,
      "##：": 3605,
      "##脹": 3606,
      "##田": 3607,
      "##木": 3608,
      "##頓": 3609,
      "##雙": 3610,
      "##検": 3611,
      "##棘": 3612,
      "##挑": 3613,
      "##‭": 3614,
      "##خ": 3615,
      "##適": 3616,
      "##板": 3617,
      "##掛": 3618,
      "##茲": 3619,
      "##河": 3620,
      "##争": 3621,
      "##錄": 3622,
      "##驟": 3623,
      "##效": 3624,
      "##里": 3625,
      "##註": 3626,
      "##爆": 3627,
      "##弾": 3628,
      "##龐": 3629,
      "##甚": 3630,
      "##掃": 3631,
      "##黑": 3632,
      "##傘": 3633,
      "##捧": 3634,
      "##冠": 3635,
      "##遏": 3636,
      "##捜": 3637,
      "##廷": 3638,
      "##鎊": 3639,
      "##⁄": 3640,
      "##‏": 3641,
      "##夜": 3642,
      "##亜": 3643,
      "##ᆷ": 3644,
      "##ᆨ": 3645,
      "##ᄌ": 3646,
      "##悉": 3647,
      "##旦": 3648,
      "##阻": 3649,
      "##踏": 3650,
      "##ˇ": 3651,
      "##": 3652,
      "##宏": 3653,
      "##澳": 3654,
      "##瓊": 3655,
      "##己": 3656,
      "##臉": 3657,
      "##覇": 3658,
      "##興": 3659,
      "##": 3660,
      "##狭": 3661,
      "##招": 3662,
      "##震": 3663,
      "##盪": 3664,
      "##核": 3665,
      "##応": 3666,
      "##尽": 3667,
      "##¬": 3668,
      "##暴": 3669,
      "##芳": 3670,
      "##蓄": 3671,
      "##％": 3672,
      "##飲": 3673,
      "##煙": 3674,
      "##草": 3675,
      "##韌": 3676,
      "##謂": 3677,
      "##籌": 3678,
      "##偏": 3679,
      "##納": 3680,
      "##羈": 3681,
      "##義": 3682,
      "##租": 3683,
      "##黨": 3684,
      "##併": 3685,
      "##概": 3686,
      "##ב": 3687,
      "##拖": 3688,
      "##凱": 3689,
      "##夥": 3690,
      "##萍": 3691,
      "##操": 3692,
      "##縦": 3693,
      "##万": 3694,
      "##催": 3695,
      "##傾": 3696,
      "##岸": 3697,
      "##階": 3698,
      "##ъ": 3699,
      "##跟": 3700,
      "##符": 3701,
      "##誰": 3702,
      "##迫": 3703,
      "##穀": 3704,
      "##諾": 3705,
      "##银": 3706,
      "##资": 3707,
      "##積": 3708,
      "##厭": 3709,
      "##倦": 3710,
      "##扳": 3711,
      "##圭": 3712,
      "##康": 3713,
      "##横": 3714,
      "##坦": 3715,
      "##噸": 3716,
      "##従": 3717,
      "##足": 3718,
      "##程": 3719,
      "##頁": 3720,
      "##页": 3721,
      "##ๆ": 3722,
      "##眾": 3723,
      "##臨": 3724,
      "##†": 3725,
      "##着": 3726,
      "##ᄂ": 3727,
      "##ᄇ": 3728,
      "##緒": 3729,
      "##鳳": 3730,
      "##村": 3731,
      "##ゥ": 3732,
      "##醜": 3733,
      "##貌": 3734,
      "##雇": 3735,
      "##游": 3736,
      "##廳": 3737,
      "##蔽": 3738,
      "##啤": 3739,
      "##潜": 3740,
      "##欠": 3741,
      "##陥": 3742,
      "##它": 3743,
      "##غ": 3744,
      "##冬": 3745,
      "##困": 3746,
      "##独": 3747,
      "##茉": 3748,
      "##莉": 3749,
      "##昭": 3750,
      "##儀": 3751,
      "##帳": 3752,
      "##簿": 3753,
      "##雷": 3754,
      "##勒": 3755,
      "##‑": 3756,
      "##鴻": 3757,
      "##亥": 3758,
      "##書": 3759,
      "##胡": 3760,
      "##錦": 3761,
      "##砍": 3762,
      "##ᄎ": 3763,
      "##状": 3764,
      "##徵": 3765,
      "##迎": 3766,
      "##细": 3767,
      "##除": 3768,
      "##睞": 3769,
      "##懷": 3770,
      "##凈": 3771,
      "##鞏": 3772,
      "##固": 3773,
      "##愿": 3774,
      "##并": 3775,
      "##氛": 3776,
      "##稿": 3777,
      "##異": 3778,
      "##峻": 3779,
      "##驗": 3780,
      "##礦": 3781,
      "##颱": 3782,
      "##雨": 3783,
      "##燃": 3784,
      "##搏": 3785,
      "##鬥": 3786,
      "##磅": 3787,
      "##药": 3788,
      "##征": 3789,
      "##誘": 3790,
      "##宮": 3791,
      "##奠": 3792,
      "##渡": 3793,
      "##壤": 3794,
      "##þ": 3795,
      "##ᵀ": 3796,
      "##ᴹ": 3797,
      "##察": 3798,
      "##〃": 3799,
      "##‰": 3800,
      "##ŋ": 3801,
      "##鋪": 3802,
      "##¨": 3803,
      "##亨": 3804,
      "##梅": 3805,
      "##鐸": 3806,
      "##掘": 3807,
      "##奧": 3808,
      "##ص": 3809,
      "##耶": 3810,
      "##誕": 3811,
      "##聖": 3812,
      "##旺": 3813,
      "##≥": 3814,
      "##革": 3815,
      "##絆": 3816,
      "##腳": 3817,
      "##何": 3818,
      "##演": 3819,
      "##陳": 3820,
      "##专": 3821,
      "##场": 3822,
      "##找": 3823,
      "##ｋ": 3824,
      "##浦": 3825,
      "##晚": 3826,
      "##沸": 3827,
      "##輕": 3828,
      "##旬": 3829,
      "##徑": 3830,
      "##討": 3831,
      "##副": 3832,
      "##沈": 3833,
      "##静": 3834,
      "##農": 3835,
      "##距": 3836,
      "##债": 3837,
      "##味": 3838,
      "##焰": 3839,
      "##輝": 3840,
      "##煌": 3841,
      "##築": 3842,
      "##洋": 3843,
      "##津": 3844,
      "##橋": 3845,
      "##币": 3846,
      "##薦": 3847,
      "##翌": 3848,
      "##惡": 3849,
      "##总": 3850,
      "##室": 3851,
      "##；": 3852,
      "##咨": 3853,
      "##詢": 3854,
      "##er": 3855,
      "th": 3856,
      "##on": 3857,
      "##es": 3858,
      "##in": 3859,
      "##at": 3860,
      "##en": 3861,
      "the": 3862,
      "##ed": 3863,
      "##an": 3864,
      "##..": 3865,
      "##or": 3866,
      "in": 3867,
      "##ar": 3868,
      "##al": 3869,
      "##it": 3870,
      "of": 3871,
      "an": 3872,
      "##ion": 3873,
      "##ing": 3874,
      "to": 3875,
      "##om": 3876,
      "##ur": 3877,
      "##ent": 3878,
      "and": 3879,
      "##ec": 3880,
      "##ic": 3881,
      "re": 3882,
      "##....": 3883,
      "##as": 3884,
      "##il": 3885,
      "##is": 3886,
      "##--": 3887,
      "##ro": 3888,
      "##re": 3889,
      "##et": 3890,
      "com": 3891,
      "##ment": 3892,
      "##st": 3893,
      "##ut": 3894,
      "##ation": 3895,
      "for": 3896,
      "##el": 3897,
      "st": 3898,
      "as": 3899,
      "##ct": 3900,
      "##iv": 3901,
      "##id": 3902,
      "ex": 3903,
      "##ul": 3904,
      "##ol": 3905,
      "##ers": 3906,
      "on": 3907,
      "con": 3908,
      "##ect": 3909,
      "##........": 3910,
      "comp": 3911,
      "##le": 3912,
      "##ate": 3913,
      "pro": 3914,
      "##ce": 3915,
      "##ch": 3916,
      "inc": 3917,
      "##th": 3918,
      "##----": 3919,
      "##ts": 3920,
      "##ies": 3921,
      "##ir": 3922,
      "##ter": 3923,
      "##un": 3924,
      "##ill": 3925,
      "or": 3926,
      "##ay": 3927,
      "##ig": 3928,
      "##em": 3929,
      "##est": 3930,
      "our": 3931,
      "we": 3932,
      "##ly": 3933,
      "##os": 3934,
      "##ab": 3935,
      "##ge": 3936,
      "##us": 3937,
      "is": 3938,
      "##ial": 3939,
      "##ot": 3940,
      "##im": 3941,
      "be": 3942,
      "##ess": 3943,
      "##ow": 3944,
      "pr": 3945,
      "su": 3946,
      "sh": 3947,
      "un": 3948,
      "##ith": 3949,
      "##qu": 3950,
      "compan": 3951,
      "##ated": 3952,
      "that": 3953,
      "de": 3954,
      "with": 3955,
      "co": 3956,
      "by": 3957,
      "##por": 3958,
      "fr": 3959,
      "##ity": 3960,
      "per": 3961,
      "wh": 3962,
      "##ain": 3963,
      "##oc": 3964,
      "##per": 3965,
      "##ad": 3966,
      "##ver": 3967,
      "##ber": 3968,
      "company": 3969,
      "en": 3970,
      "##ments": 3971,
      "ac": 3972,
      "##ive": 3973,
      "ch": 3974,
      "res": 3975,
      "ad": 3976,
      "are": 3977,
      "ne": 3978,
      "at": 3979,
      "##ve": 3980,
      "##ant": 3981,
      "mar": 3982,
      "##anc": 3983,
      "al": 3984,
      "##ear": 3985,
      "not": 3986,
      "##ud": 3987,
      "##illion": 3988,
      "from": 3989,
      "##if": 3990,
      "##ue": 3991,
      "exp": 3992,
      "fin": 3993,
      "##ust": 3994,
      "##tr": 3995,
      "##................": 3996,
      "##ities": 3997,
      "##act": 3998,
      "##ap": 3999,
      "##ions": 4000,
      "##um": 4001,
      "##able": 4002,
      "##ance": 4003,
      "##ations": 4004,
      "##ther": 4005,
      "tr": 4006,
      "comm": 4007,
      "##--------": 4008,
      "##ip": 4009,
      "year": 4010,
      "shar": 4011,
      "##and": 4012,
      "##oun": 4013,
      "##ens": 4014,
      "##ember": 4015,
      "##od": 4016,
      "##ib": 4017,
      "##age": 4018,
      "##end": 4019,
      "million": 4020,
      "##port": 4021,
      "ass": 4022,
      "##ere": 4023,
      "##pp": 4024,
      "##am": 4025,
      "##ome": 4026,
      "##for": 4027,
      "financ": 4028,
      "it": 4029,
      "##ock": 4030,
      "##ase": 4031,
      "am": 4032,
      "oper": 4033,
      "dec": 4034,
      "##uct": 4035,
      "us": 4036,
      "other": 4037,
      "##pt": 4038,
      "ag": 4039,
      "acc": 4040,
      "inter": 4041,
      "rec": 4042,
      "mark": 4043,
      "qu": 4044,
      "##der": 4045,
      "new": 4046,
      "stock": 4047,
      "sec": 4048,
      "##ard": 4049,
      "financial": 4050,
      "se": 4051,
      "##art": 4052,
      "##iz": 4053,
      "##igh": 4054,
      "##ac": 4055,
      "##ition": 4056,
      "##ich": 4057,
      "cont": 4058,
      "##fer": 4059,
      "net": 4060,
      "##ure": 4061,
      "ind": 4062,
      "##mp": 4063,
      "market": 4064,
      "##ans": 4065,
      "its": 4066,
      "##lud": 4067,
      "top": 4068,
      "ha": 4069,
      "cons": 4070,
      "inv": 4071,
      "state": 4072,
      "act": 4073,
      "pl": 4074,
      "cl": 4075,
      "reg": 4076,
      "dis": 4077,
      "app": 4078,
      "le": 4079,
      "##__": 4080,
      "##ff": 4081,
      "ta": 4082,
      "may": 4083,
      "was": 4084,
      "which": 4085,
      "this": 4086,
      "##ary": 4087,
      "##ating": 4088,
      "##erm": 4089,
      "##uld": 4090,
      "##ors": 4091,
      "have": 4092,
      "will": 4093,
      "##uters": 4094,
      "##ree": 4095,
      "##ates": 4096,
      "includ": 4097,
      "##ie": 4098,
      "##form": 4099,
      "report": 4100,
      "lo": 4101,
      "##ely": 4102,
      "##ice": 4103,
      "##op": 4104,
      "sub": 4105,
      "##ange": 4106,
      "sa": 4107,
      "##low": 4108,
      "##red": 4109,
      "##ign": 4110,
      "part": 4111,
      "under": 4112,
      "man": 4113,
      "income": 4114,
      "##ased": 4115,
      "##old": 4116,
      "resul": 4117,
      "rev": 4118,
      "any": 4119,
      "gro": 4120,
      "##ank": 4121,
      "##lo": 4122,
      "invest": 4123,
      "##su": 4124,
      "##tain": 4125,
      "##ell": 4126,
      "sp": 4127,
      "##ug": 4128,
      "##erv": 4129,
      "##duct": 4130,
      "--": 4131,
      "ab": 4132,
      "secur": 4133,
      "pur": 4134,
      "##==": 4135,
      "equ": 4136,
      "##arter": 4137,
      "cas": 4138,
      "reuters": 4139,
      "december": 4140,
      "rel": 4141,
      "end": 4142,
      "up": 4143,
      "int": 4144,
      "##all": 4145,
      "bus": 4146,
      "##iness": 4147,
      "##ount": 4148,
      "asset": 4149,
      "##ings": 4150,
      "##urr": 4151,
      "li": 4152,
      "##oss": 4153,
      "business": 4154,
      "##ility": 4155,
      "sal": 4156,
      "val": 4157,
      "share": 4158,
      "no": 4159,
      "##ices": 4160,
      "tax": 4161,
      "add": 4162,
      "quarter": 4163,
      "off": 4164,
      "product": 4165,
      "imp": 4166,
      "go": 4167,
      "##ore": 4168,
      "cash": 4169,
      "##ak": 4170,
      "##cent": 4171,
      "##ort": 4172,
      "prov": 4173,
      "##ail": 4174,
      "has": 4175,
      "##ag": 4176,
      "pre": 4177,
      "cost": 4178,
      "me": 4179,
      "mon": 4180,
      "all": 4181,
      "##vel": 4182,
      "percent": 4183,
      "##ual": 4184,
      "##ast": 4185,
      "##ese": 4186,
      "##ong": 4187,
      "##our": 4188,
      "##pr": 4189,
      "##ents": 4190,
      "term": 4191,
      "loss": 4192,
      "serv": 4193,
      "interest": 4194,
      "curr": 4195,
      "##ical": 4196,
      "cap": 4197,
      "bo": 4198,
      "shares": 4199,
      "statements": 4200,
      "said": 4201,
      "securities": 4202,
      "##ine": 4203,
      "##^^": 4204,
      "##ia": 4205,
      "##ous": 4206,
      "##eral": 4207,
      "##ist": 4208,
      "##ffect": 4209,
      "such": 4210,
      "##og": 4211,
      "incre": 4212,
      "##ord": 4213,
      "bank": 4214,
      "expens": 4215,
      "##air": 4216,
      "out": 4217,
      "##ou": 4218,
      "##ang": 4219,
      "##ence": 4220,
      "##----------------": 4221,
      "if": 4222,
      "ear": 4223,
      "over": 4224,
      "assets": 4225,
      "##ific": 4226,
      "requ": 4227,
      "mat": 4228,
      "agree": 4229,
      "##bl": 4230,
      "news": 4231,
      "##out": 4232,
      "##tal": 4233,
      "cor": 4234,
      "reven": 4235,
      "appro": 4236,
      "est": 4237,
      "total": 4238,
      "these": 4239,
      "form": 4240,
      "##ital": 4241,
      "##ok": 4242,
      "##................................": 4243,
      "he": 4244,
      "##ond": 4245,
      "##its": 4246,
      "exch": 4247,
      "gen": 4248,
      "value": 4249,
      "were": 4250,
      "##irect": 4251,
      "pay": 4252,
      "exchange": 4253,
      "expect": 4254,
      "##ose": 4255,
      "##und": 4256,
      "non": 4257,
      "tim": 4258,
      "operating": 4259,
      "fe": 4260,
      "##ject": 4261,
      "ended": 4262,
      "##enc": 4263,
      "##ould": 4264,
      "operations": 4265,
      "##ire": 4266,
      "##ight": 4267,
      "trans": 4268,
      "##ugh": 4269,
      "results": 4270,
      "common": 4271,
      "fil": 4272,
      "##ures": 4273,
      "str": 4274,
      "direct": 4275,
      "ev": 4276,
      "##ertain": 4277,
      "##uring": 4278,
      "##iod": 4279,
      "##erg": 4280,
      "##ized": 4281,
      "disc": 4282,
      "fir": 4283,
      "##istr": 4284,
      "period": 4285,
      "ris": 4286,
      "##ited": 4287,
      "provid": 4288,
      "##ach": 4289,
      "sales": 4290,
      "##arg": 4291,
      "##bt": 4292,
      "current": 4293,
      "##so": 4294,
      "af": 4295,
      "br": 4296,
      "acqu": 4297,
      "capital": 4298,
      "##olid": 4299,
      "including": 4300,
      "based": 4301,
      "addition": 4302,
      "more": 4303,
      "eur": 4304,
      "##ection": 4305,
      "##ward": 4306,
      "you": 4307,
      "##ru": 4308,
      "related": 4309,
      "##ory": 4310,
      "manage": 4311,
      "can": 4312,
      "agreement": 4313,
      "there": 4314,
      "##ef": 4315,
      "price": 4316,
      "##oll": 4317,
      "##up": 4318,
      "also": 4319,
      "##____": 4320,
      "so": 4321,
      "effect": 4322,
      "could": 4323,
      "contin": 4324,
      "ann": 4325,
      "high": 4326,
      "month": 4327,
      "##ty": 4328,
      "##ex": 4329,
      "##pect": 4330,
      "sign": 4331,
      "##ied": 4332,
      "inform": 4333,
      "ec": 4334,
      "##ork": 4335,
      "##ior": 4336,
      "cred": 4337,
      "##ative": 4338,
      "##ilities": 4339,
      "information": 4340,
      "consolid": 4341,
      "than": 4342,
      "bel": 4343,
      "issu": 4344,
      "account": 4345,
      "##wn": 4346,
      "##gr": 4347,
      "fut": 4348,
      "mo": 4349,
      "costs": 4350,
      "contr": 4351,
      "grow": 4352,
      "##ack": 4353,
      "but": 4354,
      "##day": 4355,
      "##iss": 4356,
      "fol": 4357,
      "earn": 4358,
      "management": 4359,
      "pres": 4360,
      "##ey": 4361,
      "plan": 4362,
      "rate": 4363,
      "date": 4364,
      "follow": 4365,
      "equity": 4366,
      "would": 4367,
      "##aw": 4368,
      "credit": 4369,
      "##ecut": 4370,
      "cust": 4371,
      "##ibut": 4372,
      "liab": 4373,
      "do": 4374,
      "trad": 4375,
      "risk": 4376,
      "certain": 4377,
      "ga": 4378,
      "custom": 4379,
      "##velop": 4380,
      "##ric": 4381,
      "##ues": 4382,
      "bas": 4383,
      "time": 4384,
      "##hn": 4385,
      ",\"": 4386,
      "##loy": 4387,
      "item": 4388,
      "consolidated": 4389,
      "debt": 4390,
      "el": 4391,
      "##oin": 4392,
      "##rol": 4393,
      "ben": 4394,
      "revenue": 4395,
      "develop": 4396,
      "after": 4397,
      "execut": 4398,
      "##are": 4399,
      "general": 4400,
      "regul": 4401,
      "been": 4402,
      "##ee": 4403,
      "years": 4404,
      "services": 4405,
      "##ult": 4406,
      "subs": 4407,
      "##pos": 4408,
      "adv": 4409,
      "##olders": 4410,
      "nl": 4411,
      "##ustr": 4412,
      "##====": 4413,
      "##itt": 4414,
      "offic": 4415,
      "one": 4416,
      "dr": 4417,
      "pursu": 4418,
      "##erial": 4419,
      "ret": 4420,
      "##yst": 4421,
      "estim": 4422,
      "ar": 4423,
      "emp": 4424,
      "##verage": 4425,
      "##ise": 4426,
      "first": 4427,
      "registr": 4428,
      "their": 4429,
      "result": 4430,
      "##ame": 4431,
      "pursuant": 4432,
      "des": 4433,
      "##cess": 4434,
      "material": 4435,
      "future": 4436,
      "##itions": 4437,
      "corpor": 4438,
      "##own": 4439,
      "products": 4440,
      "##ired": 4441,
      "##erc": 4442,
      "##ately": 4443,
      "fund": 4444,
      "adj": 4445,
      "##rough": 4446,
      "av": 4447,
      "##ke": 4448,
      "perform": 4449,
      "fair": 4450,
      "##onom": 4451,
      "during": 4452,
      "employ": 4453,
      "due": 4454,
      "gaap": 4455,
      "earnings": 4456,
      "red": 4457,
      "rest": 4458,
      "def": 4459,
      "##ix": 4460,
      "##arr": 4461,
      "num": 4462,
      "##ish": 4463,
      "proper": 4464,
      "adjust": 4465,
      "growth": 4466,
      "into": 4467,
      "purch": 4468,
      "##ata": 4469,
      "det": 4470,
      "own": 4471,
      "##ible": 4472,
      "prof": 4473,
      "##ass": 4474,
      "##ounts": 4475,
      "chang": 4476,
      "##ferred": 4477,
      "rece": 4478,
      "econom": 4479,
      "through": 4480,
      "##aus": 4481,
      "div": 4482,
      "##isc": 4483,
      "##io": 4484,
      "about": 4485,
      "markets": 4486,
      "companies": 4487,
      "intern": 4488,
      "bu": 4489,
      "))": 4490,
      "benef": 4491,
      "##hib": 4492,
      "acquis": 4493,
      "respect": 4494,
      "see": 4495,
      "investment": 4496,
      "##ian": 4497,
      "##ined": 4498,
      "opt": 4499,
      "##cr": 4500,
      "control": 4501,
      "expense": 4502,
      "op": 4503,
      "##da": 4504,
      "##ower": 4505,
      "##her": 4506,
      "cond": 4507,
      "tec": 4508,
      "##ace": 4509,
      "compar": 4510,
      "ph": 4511,
      "##^^^^": 4512,
      "##xim": 4513,
      "real": 4514,
      "gu": 4515,
      "data": 4516,
      "tw": 4517,
      "contract": 4518,
      "expenses": 4519,
      "gr": 4520,
      "additional": 4521,
      "##ious": 4522,
      "billion": 4523,
      "increase": 4524,
      "look": 4525,
      "notes": 4526,
      "##olog": 4527,
      "##**": 4528,
      "##ified": 4529,
      "##hip": 4530,
      "##gin": 4531,
      "##ss": 4532,
      "id": 4533,
      "spec": 4534,
      "##tribut": 4535,
      "executive": 4536,
      "##ational": 4537,
      "following": 4538,
      "had": 4539,
      "subject": 4540,
      "rem": 4541,
      "well": 4542,
      "##uc": 4543,
      "##ively": 4544,
      "reporting": 4545,
      "##inc": 4546,
      "##holders": 4547,
      "##ile": 4548,
      "number": 4549,
      "jun": 4550,
      "##ep": 4551,
      "##``": 4552,
      "accounting": 4553,
      "del": 4554,
      "##urn": 4555,
      "##eld": 4556,
      "exhib": 4557,
      "rates": 4558,
      "some": 4559,
      "##one": 4560,
      "inst": 4561,
      "amount": 4562,
      "##ite": 4563,
      "industr": 4564,
      "##ants": 4565,
      "signific": 4566,
      "##ization": 4567,
      "techn": 4568,
      "each": 4569,
      "min": 4570,
      "significant": 4571,
      "em": 4572,
      "liabilities": 4573,
      "##av": 4574,
      "\")": 4575,
      "##son": 4576,
      "##ency": 4577,
      "compl": 4578,
      "group": 4579,
      "fac": 4580,
      "require": 4581,
      "march": 4582,
      "activ": 4583,
      "mak": 4584,
      "##ays": 4585,
      "compens": 4586,
      "##ident": 4587,
      "##anding": 4588,
      "##iscal": 4589,
      "fiscal": 4590,
      "cr": 4591,
      "##ons": 4592,
      "lim": 4593,
      "##ference": 4594,
      "aut": 4595,
      "pu": 4596,
      "pa": 4597,
      "bal": 4598,
      "##ide": 4599,
      "##ily": 4600,
      "<.": 4601,
      "ma": 4602,
      "##iew": 4603,
      "expected": 4604,
      "impact": 4605,
      "port": 4606,
      "##fl": 4607,
      "ins": 4608,
      "rep": 4609,
      "set": 4610,
      "annual": 4611,
      "appl": 4612,
      "approxim": 4613,
      "long": 4614,
      "##blig": 4615,
      "transact": 4616,
      "oblig": 4617,
      "rul": 4618,
      "june": 4619,
      "fact": 4620,
      "changes": 4621,
      "forward": 4622,
      "months": 4623,
      "registrant": 4624,
      "##ope": 4625,
      "bec": 4626,
      "loans": 4627,
      "partn": 4628,
      "average": 4629,
      "##ief": 4630,
      "board": 4631,
      "##ended": 4632,
      "##mm": 4633,
      "level": 4634,
      "compensation": 4635,
      "thir": 4636,
      "mr": 4637,
      "gain": 4638,
      "avail": 4639,
      "##ick": 4640,
      "princ": 4641,
      "bet": 4642,
      "loan": 4643,
      "##ld": 4644,
      "princip": 4645,
      "prim": 4646,
      "meas": 4647,
      "sept": 4648,
      "third": 4649,
      "##ade": 4650,
      "record": 4651,
      "approximately": 4652,
      "performance": 4653,
      "note": 4654,
      "flow": 4655,
      "##uly": 4656,
      "##ases": 4657,
      "##cept": 4658,
      "met": 4659,
      "((": 4660,
      "##les": 4661,
      "anal": 4662,
      "basis": 4663,
      "they": 4664,
      "pol": 4665,
      "##vern": 4666,
      "##standing": 4667,
      "dif": 4668,
      "publ": 4669,
      "ob": 4670,
      "##we": 4671,
      "offer": 4672,
      "directors": 4673,
      "glo": 4674,
      "##ause": 4675,
      "section": 4676,
      "good": 4677,
      "),": 4678,
      "##ink": 4679,
      "##lease": 4680,
      "##bal": 4681,
      "last": 4682,
      "those": 4683,
      "hold": 4684,
      "##ys": 4685,
      "govern": 4686,
      "jan": 4687,
      "development": 4688,
      "##ission": 4689,
      "targ": 4690,
      "subsid": 4691,
      "prices": 4692,
      "target": 4693,
      "##ergy": 4694,
      "##urance": 4695,
      "##alth": 4696,
      ").": 4697,
      ".................................": 4698,
      "receiv": 4699,
      "##ost": 4700,
      "technolog": 4701,
      "##icip": 4702,
      "wor": 4703,
      "index": 4704,
      "prior": 4705,
      "global": 4706,
      "down": 4707,
      "subsidi": 4708,
      "nor": 4709,
      "##ties": 4710,
      "pos": 4711,
      "looking": 4712,
      "ed": 4713,
      "##oint": 4714,
      "profit": 4715,
      "progr": 4716,
      "supp": 4717,
      "##............": 4718,
      "applic": 4719,
      "customers": 4720,
      "incor": 4721,
      "how": 4722,
      "main": 4723,
      "fed": 4724,
      "three": 4725,
      "law": 4726,
      "europe": 4727,
      "##als": 4728,
      "energy": 4729,
      "gas": 4730,
      "##--------------------------------": 4731,
      "enter": 4732,
      "##ision": 4733,
      "incorpor": 4734,
      "continu": 4735,
      "when": 4736,
      "officer": 4737,
      "par": 4738,
      "sell": 4739,
      "issued": 4740,
      "available": 4741,
      "##reat": 4742,
      "statement": 4743,
      "second": 4744,
      "##ogn": 4745,
      "med": 4746,
      "ful": 4747,
      "##tion": 4748,
      "compared": 4749,
      "##ceed": 4750,
      "thom": 4751,
      "outstanding": 4752,
      "losses": 4753,
      "##ership": 4754,
      "pat": 4755,
      "ro": 4756,
      "revenues": 4757,
      "states": 4758,
      "oil": 4759,
      "##ination": 4760,
      "##iation": 4761,
      "september": 4762,
      "required": 4763,
      "balance": 4764,
      "exhibit": 4765,
      "dep": 4766,
      "change": 4767,
      "sale": 4768,
      "##lement": 4769,
      "chief": 4770,
      "##ateg": 4771,
      "public": 4772,
      "ext": 4773,
      "fore": 4774,
      "filed": 4775,
      "##fore": 4776,
      "property": 4777,
      "##ystem": 4778,
      "united": 4779,
      "two": 4780,
      "distribut": 4781,
      "increased": 4782,
      "ll": 4783,
      "compet": 4784,
      "accord": 4785,
      "##ning": 4786,
      "##aries": 4787,
      "##ery": 4788,
      "acquisition": 4789,
      "purchase": 4790,
      "##ek": 4791,
      "##ider": 4792,
      "##ying": 4793,
      "belie": 4794,
      "tel": 4795,
      "##eric": 4796,
      "table": 4797,
      "##iting": 4798,
      "##fr": 4799,
      "##ina": 4800,
      "sc": 4801,
      "##ands": 4802,
      "four": 4803,
      "here": 4804,
      "##ved": 4805,
      "##member": 4806,
      "indic": 4807,
      "system": 4808,
      "ent": 4809,
      "##________": 4810,
      "##arily": 4811,
      "coun": 4812,
      "exc": 4813,
      "##ft": 4814,
      "##gan": 4815,
      "##ential": 4816,
      "service": 4817,
      "determ": 4818,
      "recogn": 4819,
      "prev": 4820,
      "##ollar": 4821,
      "##ier": 4822,
      "cent": 4823,
      "##ruct": 4824,
      "terms": 4825,
      "sol": 4826,
      "activities": 4827,
      "thomson": 4828,
      "##ives": 4829,
      "=>": 4830,
      "affect": 4831,
      "use": 4832,
      "divid": 4833,
      "key": 4834,
      "economic": 4835,
      "ii": 4836,
      "##ress": 4837,
      "##ew": 4838,
      "##uss": 4839,
      "used": 4840,
      "dollar": 4841,
      "principal": 4842,
      "vol": 4843,
      "work": 4844,
      "upon": 4845,
      "##hor": 4846,
      "reported": 4847,
      "var": 4848,
      "consum": 4849,
      "##urs": 4850,
      "##over": 4851,
      "dem": 4852,
      "##man": 4853,
      "##ends": 4854,
      "corporation": 4855,
      "foreign": 4856,
      "bro": 4857,
      "elect": 4858,
      "##ont": 4859,
      "included": 4860,
      "remain": 4861,
      "##ines": 4862,
      "program": 4863,
      "##cc": 4864,
      "##ability": 4865,
      "##ees": 4866,
      "made": 4867,
      ".,": 4868,
      "include": 4869,
      "##ances": 4870,
      "adjusted": 4871,
      "class": 4872,
      "##uary": 4873,
      "lat": 4874,
      "##hh": 4875,
      "federal": 4876,
      "stand": 4877,
      "americ": 4878,
      "january": 4879,
      "call": 4880,
      "ability": 4881,
      "##ights": 4882,
      "##bs": 4883,
      "ra": 4884,
      "##ason": 4885,
      "##aging": 4886,
      "##row": 4887,
      "##ince": 4888,
      "continue": 4889,
      "##xt": 4890,
      "rule": 4891,
      "##uf": 4892,
      "(\"": 4893,
      "fl": 4894,
      "commun": 4895,
      "ht": 4896,
      "decre": 4897,
      "loc": 4898,
      "again": 4899,
      "present": 4900,
      "##ercial": 4901,
      "below": 4902,
      "##ween": 4903,
      "allow": 4904,
      "project": 4905,
      "taxes": 4906,
      "commission": 4907,
      "between": 4908,
      "pers": 4909,
      "commercial": 4910,
      "sim": 4911,
      "health": 4912,
      "bl": 4913,
      "##ps": 4914,
      "cal": 4915,
      "##los": 4916,
      "coll": 4917,
      "effective": 4918,
      "now": 4919,
      "requirements": 4920,
      "within": 4921,
      "##de": 4922,
      "complet": 4923,
      "seg": 4924,
      "author": 4925,
      "factors": 4926,
      "nov": 4927,
      "aud": 4928,
      "investments": 4929,
      "consider": 4930,
      "##ics": 4931,
      "($": 4932,
      "##atory": 4933,
      "##iated": 4934,
      "feb": 4935,
      "higher": 4936,
      "amounts": 4937,
      "primarily": 4938,
      "##uts": 4939,
      "since": 4940,
      "##ced": 4941,
      "clos": 4942,
      "meet": 4943,
      "##ces": 4944,
      "##ving": 4945,
      "qual": 4946,
      "##aim": 4947,
      "##%%": 4948,
      "assoc": 4949,
      "less": 4950,
      "world": 4951,
      "amort": 4952,
      "assum": 4953,
      "oct": 4954,
      "government": 4955,
      "comb": 4956,
      "rating": 4957,
      "provide": 4958,
      "pot": 4959,
      "##ik": 4960,
      "strateg": 4961,
      "sen": 4962,
      "back": 4963,
      "president": 4964,
      "sm": 4965,
      "apr": 4966,
      "deferred": 4967,
      "reference": 4968,
      "init": 4969,
      "dil": 4970,
      "advers": 4971,
      "impro": 4972,
      "bond": 4973,
      "repr": 4974,
      "margin": 4975,
      "##ports": 4976,
      "##ether": 4977,
      "fur": 4978,
      "mod": 4979,
      "investors": 4980,
      "##ional": 4981,
      "unc": 4982,
      "week": 4983,
      "##ound": 4984,
      "press": 4985,
      "further": 4986,
      "repres": 4987,
      "before": 4988,
      "sch": 4989,
      "polic": 4990,
      ":/": 4991,
      "sw": 4992,
      "lower": 4993,
      "impair": 4994,
      "bor": 4995,
      "##ted": 4996,
      "decl": 4997,
      "ant": 4998,
      "plans": 4999,
      "provided": 5000,
      "standard": 5001,
      "april": 5002,
      "##itive": 5003,
      "release": 5004,
      "technology": 5005,
      "differ": 5006,
      "potential": 5007,
      "ve": 5008,
      "lif": 5009,
      "china": 5010,
      "##ufact": 5011,
      "need": 5012,
      "##pl": 5013,
      "respectively": 5014,
      "manufact": 5015,
      "ml": 5016,
      "lease": 5017,
      "while": 5018,
      "july": 5019,
      "dilut": 5020,
      "##ient": 5021,
      "think": 5022,
      "##arge": 5023,
      "##min": 5024,
      "aug": 5025,
      "##reuters": 5026,
      "companys": 5027,
      "incorporated": 5028,
      "thomsonreuters": 5029,
      "disclos": 5030,
      "process": 5031,
      "##(\"": 5032,
      "industry": 5033,
      "risks": 5034,
      "##iate": 5035,
      "proceed": 5036,
      "carr": 5037,
      "eb": 5038,
      "##iven": 5039,
      "kn": 5040,
      "claim": 5041,
      "sl": 5042,
      "##alf": 5043,
      "senior": 5044,
      "jo": 5045,
      "full": 5046,
      "##ize": 5047,
      "currency": 5048,
      "corporate": 5049,
      "insurance": 5050,
      "just": 5051,
      "options": 5052,
      "summ": 5053,
      "because": 5054,
      "##isting": 5055,
      "restric": 5056,
      "paid": 5057,
      "##isions": 5058,
      "##til": 5059,
      "conditions": 5060,
      "wr": 5061,
      "refl": 5062,
      "trust": 5063,
      "##ipment": 5064,
      "const": 5065,
      "im": 5066,
      "##earch": 5067,
      "##========": 5068,
      "estimates": 5069,
      "limited": 5070,
      "most": 5071,
      "reflect": 5072,
      "firm": 5073,
      "merg": 5074,
      "##ically": 5075,
      "##led": 5076,
      "##^^^^^^^^": 5077,
      "##par": 5078,
      "##alu": 5079,
      "benefit": 5080,
      "hel": 5081,
      "power": 5082,
      "facility": 5083,
      "##ources": 5084,
      "make": 5085,
      "ser": 5086,
      "sup": 5087,
      "stockholders": 5088,
      "internal": 5089,
      "##ised": 5090,
      "what": 5091,
      "nat": 5092,
      "borrow": 5093,
      "shall": 5094,
      "##ending": 5095,
      "stocks": 5096,
      "lt": 5097,
      "admin": 5098,
      "only": 5099,
      "subsidiaries": 5100,
      ".\"": 5101,
      "lead": 5102,
      "grant": 5103,
      "exper": 5104,
      "she": 5105,
      "##ral": 5106,
      "##))": 5107,
      "warr": 5108,
      "##ption": 5109,
      "##ind": 5110,
      "##ages": 5111,
      "fees": 5112,
      "obligations": 5113,
      "pe": 5114,
      "##arm": 5115,
      "strong": 5116,
      "day": 5117,
      "equipment": 5118,
      "##ification": 5119,
      "customer": 5120,
      "accounts": 5121,
      "production": 5122,
      "##ield": 5123,
      "bre": 5124,
      "previous": 5125,
      "against": 5126,
      "generally": 5127,
      "analyst": 5128,
      ">:": 5129,
      "##ural": 5130,
      "forec": 5131,
      "der": 5132,
      "believe": 5133,
      "demand": 5134,
      "##vert": 5135,
      "mu": 5136,
      "leg": 5137,
      "##fol": 5138,
      "where": 5139,
      "next": 5140,
      "rights": 5141,
      "shareholders": 5142,
      "party": 5143,
      "deal": 5144,
      "gener": 5145,
      "applicable": 5146,
      "committ": 5147,
      "descr": 5148,
      "payments": 5149,
      "conn": 5150,
      "international": 5151,
      "##ially": 5152,
      "funds": 5153,
      "##ruary": 5154,
      "://": 5155,
      "conc": 5156,
      ">,": 5157,
      "communic": 5158,
      "february": 5159,
      "regulatory": 5160,
      "both": 5161,
      "ty": 5162,
      "european": 5163,
      "##bb": 5164,
      "recorded": 5165,
      "retail": 5166,
      "should": 5167,
      "##ful": 5168,
      "##ark": 5169,
      "subst": 5170,
      "flows": 5171,
      "announ": 5172,
      "corp": 5173,
      "##ium": 5174,
      "line": 5175,
      "##ator": 5176,
      "##`@": 5177,
      "gross": 5178,
      "administr": 5179,
      "ident": 5180,
      "##equ": 5181,
      "##mt": 5182,
      "trading": 5183,
      "regard": 5184,
      "discuss": 5185,
      "estimated": 5186,
      "transactions": 5187,
      "low": 5188,
      "pct": 5189,
      "held": 5190,
      "return": 5191,
      "same": 5192,
      "dated": 5193,
      "fourth": 5194,
      "portfol": 5195,
      "thous": 5196,
      "fix": 5197,
      "click": 5198,
      "rat": 5199,
      "page": 5200,
      "yen": 5201,
      "suc": 5202,
      "support": 5203,
      "award": 5204,
      "buy": 5205,
      "actual": 5206,
      "contain": 5207,
      "##ble": 5208,
      "agreements": 5209,
      "occ": 5210,
      "##dd": 5211,
      "depos": 5212,
      "exerc": 5213,
      "##ober": 5214,
      "##reg": 5215,
      "director": 5216,
      "october": 5217,
      "segment": 5218,
      "priv": 5219,
      "##he": 5220,
      "deliv": 5221,
      "design": 5222,
      "deriv": 5223,
      "##ival": 5224,
      "york": 5225,
      "maj": 5226,
      "##ert": 5227,
      "##ister": 5228,
      "##gage": 5229,
      "research": 5230,
      "diluted": 5231,
      "amortization": 5232,
      "units": 5233,
      "whether": 5234,
      "amended": 5235,
      "transaction": 5236,
      "liqu": 5237,
      "##ove": 5238,
      "##itut": 5239,
      "condition": 5240,
      "##..............": 5241,
      "reason": 5242,
      "##ured": 5243,
      "financing": 5244,
      ".................................................................": 5245,
      "guid": 5246,
      "employees": 5247,
      "mess": 5248,
      "lic": 5249,
      "##ffic": 5250,
      "ebit": 5251,
      "filing": 5252,
      "evalu": 5253,
      "help": 5254,
      "##eng": 5255,
      "ce": 5256,
      "##older": 5257,
      "##ton": 5258,
      "except": 5259,
      "##ict": 5260,
      "ef": 5261,
      "person": 5262,
      "##ild": 5263,
      "trade": 5264,
      "commod": 5265,
      "##val": 5266,
      "##tern": 5267,
      "major": 5268,
      "mid": 5269,
      "liability": 5270,
      "uncertain": 5271,
      "success": 5272,
      "mult": 5273,
      "att": 5274,
      "contracts": 5275,
      "liquid": 5276,
      "air": 5277,
      "##endent": 5278,
      "portfolio": 5279,
      "name": 5280,
      "head": 5281,
      "offs": 5282,
      "sur": 5283,
      "ir": 5284,
      "continued": 5285,
      "north": 5286,
      "associated": 5287,
      "events": 5288,
      "##yn": 5289,
      "di": 5290,
      "##land": 5291,
      "great": 5292,
      "short": 5293,
      "##vers": 5294,
      "licens": 5295,
      "mort": 5296,
      "payment": 5297,
      "event": 5298,
      "aff": 5299,
      "##ough": 5300,
      "preferred": 5301,
      "maintain": 5302,
      "estate": 5303,
      "then": 5304,
      "resp": 5305,
      "neg": 5306,
      "mc": 5307,
      "##ven": 5308,
      "above": 5309,
      "impairment": 5310,
      "sheet": 5311,
      "fo": 5312,
      "):": 5313,
      "car": 5314,
      "does": 5315,
      "tre": 5316,
      "unit": 5317,
      "recent": 5318,
      "htt": 5319,
      "earl": 5320,
      "exclud": 5321,
      "fixed": 5322,
      "sett": 5323,
      "november": 5324,
      "option": 5325,
      "properties": 5326,
      "##ests": 5327,
      "##eck": 5328,
      "canad": 5329,
      "august": 5330,
      "stor": 5331,
      "position": 5332,
      "going": 5333,
      "##te": 5334,
      "benefits": 5335,
      "experi": 5336,
      "items": 5337,
      "##ptions": 5338,
      "valu": 5339,
      "thousands": 5340,
      "recognized": 5341,
      "being": 5342,
      "owned": 5343,
      "larg": 5344,
      "includes": 5345,
      "dou": 5346,
      "who": 5347,
      "among": 5348,
      "##ves": 5349,
      "represent": 5350,
      "##iance": 5351,
      "consumer": 5352,
      "##ished": 5353,
      "quest": 5354,
      "env": 5355,
      "##oints": 5356,
      "charg": 5357,
      "acquisitions": 5358,
      "llc": 5359,
      "##abl": 5360,
      "##ises": 5361,
      "post": 5362,
      "##nes": 5363,
      "currently": 5364,
      "officers": 5365,
      "your": 5366,
      "communications": 5367,
      "##az": 5368,
      "##ever": 5369,
      "##iron": 5370,
      "access": 5371,
      "recover": 5372,
      "##pa": 5373,
      "messaging": 5374,
      "##_p": 5375,
      "##co": 5376,
      "ebitda": 5377,
      "##`\"": 5378,
      "very": 5379,
      "##work": 5380,
      "contents": 5381,
      "##iption": 5382,
      "hist": 5383,
      "my": 5384,
      "gains": 5385,
      "indep": 5386,
      "##ular": 5387,
      "claims": 5388,
      "america": 5389,
      "##ulated": 5390,
      "partnership": 5391,
      "nas": 5392,
      "te": 5393,
      "sever": 5394,
      "volum": 5395,
      "code": 5396,
      "existing": 5397,
      "environ": 5398,
      "##ators": 5399,
      "##ients": 5400,
      "ms": 5401,
      "provisions": 5402,
      "laws": 5403,
      "take": 5404,
      "banks": 5405,
      "accordance": 5406,
      "review": 5407,
      "defined": 5408,
      "ltd": 5409,
      "##urt": 5410,
      "depr": 5411,
      "improve": 5412,
      "points": 5413,
      "acquired": 5414,
      "committee": 5415,
      "right": 5416,
      "weight": 5417,
      "incur": 5418,
      "particip": 5419,
      "amend": 5420,
      "obtain": 5421,
      "decrease": 5422,
      "sat": 5423,
      "begin": 5424,
      "measure": 5425,
      "##ocus": 5426,
      "##less": 5427,
      "life": 5428,
      "audit": 5429,
      "measures": 5430,
      "connection": 5431,
      "emerg": 5432,
      "reports": 5433,
      "payable": 5434,
      "systems": 5435,
      "substant": 5436,
      "##uce": 5437,
      "ge": 5438,
      "##go": 5439,
      "check": 5440,
      "relations": 5441,
      "##ords": 5442,
      "focus": 5443,
      "##eciation": 5444,
      "environment": 5445,
      "##ross": 5446,
      "##hod": 5447,
      "sold": 5448,
      "obligation": 5449,
      "periods": 5450,
      "##portun": 5451,
      "regarding": 5452,
      "opportun": 5453,
      "using": 5454,
      "central": 5455,
      "equival": 5456,
      "gold": 5457,
      "##ensive": 5458,
      "order": 5459,
      "address": 5460,
      ")(": 5461,
      "##round": 5462,
      "##ling": 5463,
      "instru": 5464,
      "distribution": 5465,
      "fail": 5466,
      "security": 5467,
      "cfr": 5468,
      "regulations": 5469,
      "%,": 5470,
      "merger": 5471,
      "anticip": 5472,
      "basic": 5473,
      "file": 5474,
      "_p": 5475,
      "invent": 5476,
      "marketing": 5477,
      "##ern": 5478,
      "##ising": 5479,
      "bonds": 5480,
      "typ": 5481,
      "##daq": 5482,
      "la": 5483,
      "economy": 5484,
      "arr": 5485,
      "mi": 5486,
      "##ra": 5487,
      "vot": 5488,
      "method": 5489,
      "thank": 5490,
      "clin": 5491,
      "##ware": 5492,
      "##ky": 5493,
      "##`!": 5494,
      "mortgage": 5495,
      "##ilar": 5496,
      "fts": 5497,
      "mor": 5498,
      "received": 5499,
      "##itig": 5500,
      "##encies": 5501,
      "ste": 5502,
      "nasdaq": 5503,
      "##asing": 5504,
      "prot": 5505,
      "private": 5506,
      "##ax": 5507,
      "his": 5508,
      "##of": 5509,
      "quarterly": 5510,
      "however": 5511,
      "like": 5512,
      "ww": 5513,
      "##ters": 5514,
      "sout": 5515,
      "open": 5516,
      "proceeds": 5517,
      "ftse": 5518,
      "mm": 5519,
      "ca": 5520,
      "similar": 5521,
      "##room": 5522,
      "establ": 5523,
      "ado": 5524,
      "##els": 5525,
      "former": 5526,
      "##greg": 5527,
      "##line": 5528,
      "respons": 5529,
      "##hing": 5530,
      "ref": 5531,
      "various": 5532,
      "according": 5533,
      "offering": 5534,
      "mt": 5535,
      "tak": 5536,
      "natural": 5537,
      "view": 5538,
      "independent": 5539,
      "mg": 5540,
      "contribut": 5541,
      "prem": 5542,
      "organ": 5543,
      "##ension": 5544,
      "##ks": 5545,
      "days": 5546,
      "initial": 5547,
      "big": 5548,
      "##angible": 5549,
      "administrative": 5550,
      "aggreg": 5551,
      "facilities": 5552,
      "##ruction": 5553,
      "many": 5554,
      "eq": 5555,
      "##icing": 5556,
      "assess": 5557,
      "##ph": 5558,
      "countr": 5559,
      "standards": 5560,
      "eng": 5561,
      "dividends": 5562,
      "forecast": 5563,
      "newsroom": 5564,
      "lik": 5565,
      "weighted": 5566,
      "fu": 5567,
      "##ai": 5568,
      "holdings": 5569,
      "##ness": 5570,
      "##arant": 5571,
      "depreciation": 5572,
      "build": 5573,
      "limit": 5574,
      "specified": 5575,
      "es": 5576,
      "##edul": 5577,
      "##ah": 5578,
      "approval": 5579,
      "##aud": 5580,
      "sect": 5581,
      "##ials": 5582,
      "guidance": 5583,
      "##ders": 5584,
      "##holder": 5585,
      "##ury": 5586,
      "tal": 5587,
      "upd": 5588,
      "prod": 5589,
      "mln": 5590,
      "##egr": 5591,
      "five": 5592,
      "emerging": 5593,
      "restricted": 5594,
      "##ake": 5595,
      "vis": 5596,
      "series": 5597,
      "parties": 5598,
      "stat": 5599,
      "schedul": 5600,
      "##istered": 5601,
      "##atives": 5602,
      "jap": 5603,
      "detail": 5604,
      "start": 5605,
      "conf": 5606,
      "histor": 5607,
      "national": 5608,
      "guarant": 5609,
      "clinical": 5610,
      "attribut": 5611,
      "japan": 5612,
      "affil": 5613,
      "offset": 5614,
      "##inated": 5615,
      "soft": 5616,
      "prom": 5617,
      "beh": 5618,
      "assumptions": 5619,
      "them": 5620,
      "legal": 5621,
      "editing": 5622,
      "manag": 5623,
      "whol": 5624,
      "accru": 5625,
      "vers": 5626,
      "rose": 5627,
      "##ones": 5628,
      "today": 5629,
      "portion": 5630,
      "six": 5631,
      "base": 5632,
      "##ety": 5633,
      "##wise": 5634,
      "issuance": 5635,
      "integr": 5636,
      "reserv": 5637,
      "without": 5638,
      "determined": 5639,
      "propos": 5640,
      "col": 5641,
      "---------": 5642,
      "provides": 5643,
      "sing": 5644,
      "aggregate": 5645,
      "get": 5646,
      "combination": 5647,
      "bar": 5648,
      "##isf": 5649,
      "hed": 5650,
      "yield": 5651,
      "expectations": 5652,
      "charges": 5653,
      "duly": 5654,
      "until": 5655,
      "provision": 5656,
      "banking": 5657,
      "did": 5658,
      "special": 5659,
      "##ify": 5660,
      "resources": 5661,
      "adverse": 5662,
      "poss": 5663,
      "meeting": 5664,
      "saf": 5665,
      "able": 5666,
      "invol": 5667,
      "##ecess": 5668,
      "calc": 5669,
      "materially": 5670,
      "authorized": 5671,
      "##read": 5672,
      "##(\"`@": 5673,
      "stre": 5674,
      "subsidiary": 5675,
      "vi": 5676,
      "otherwise": 5677,
      ".................................................": 5678,
      "doc": 5679,
      "analysts": 5680,
      "closing": 5681,
      "drug": 5682,
      "ach": 5683,
      "convert": 5684,
      "http": 5685,
      "appropr": 5686,
      "partners": 5687,
      "local": 5688,
      "test": 5689,
      "employee": 5690,
      "accept": 5691,
      "levels": 5692,
      "consist": 5693,
      "##ins": 5694,
      "place": 5695,
      "##will": 5696,
      "latest": 5697,
      "incent": 5698,
      "/]": 5699,
      "instruments": 5700,
      "##ource": 5701,
      "satisf": 5702,
      "adjustments": 5703,
      "money": 5704,
      "businesses": 5705,
      "##ably": 5706,
      "mean": 5707,
      "mw": 5708,
      "ut": 5709,
      "##ov": 5710,
      "institut": 5711,
      "entered": 5712,
      "still": 5713,
      "##ews": 5714,
      "##be": 5715,
      "##lying": 5716,
      "##ables": 5717,
      "##se": 5718,
      "##omp": 5719,
      "policy": 5720,
      "herein": 5721,
      "##uction": 5722,
      "---------------------------------": 5723,
      "finance": 5724,
      "mem": 5725,
      "nn": 5726,
      "uk": 5727,
      "##inal": 5728,
      "dividend": 5729,
      "##reh": 5730,
      "small": 5731,
      "fall": 5732,
      "##ention": 5733,
      "early": 5734,
      "network": 5735,
      "question": 5736,
      "##xic": 5737,
      "half": 5738,
      "##ms": 5739,
      "manufacturing": 5740,
      "##bers": 5741,
      "##erman": 5742,
      "cre": 5743,
      "##ession": 5744,
      "disclosure": 5745,
      "##uced": 5746,
      "cause": 5747,
      "achie": 5748,
      "gl": 5749,
      "##lear": 5750,
      "range": 5751,
      "goodwill": 5752,
      "wed": 5753,
      "allowance": 5754,
      "##sue": 5755,
      "##rehensive": 5756,
      "vice": 5757,
      "matur": 5758,
      "weak": 5759,
      "cop": 5760,
      "dom": 5761,
      "sel": 5762,
      "##itor": 5763,
      "##ences": 5764,
      "##...............": 5765,
      "likely": 5766,
      "euro": 5767,
      "keyw": 5768,
      "cy": 5769,
      "docu": 5770,
      "forth": 5771,
      "accrued": 5772,
      "##poses": 5773,
      "adversely": 5774,
      "##ude": 5775,
      "keywords": 5776,
      "supply": 5777,
      "solut": 5778,
      "purposes": 5779,
      "##orn": 5780,
      "pros": 5781,
      "near": 5782,
      "turn": 5783,
      "commit": 5784,
      "##ane": 5785,
      "selling": 5786,
      "##ale": 5787,
      "##urch": 5788,
      "vari": 5789,
      "treas": 5790,
      "area": 5791,
      "across": 5792,
      "previously": 5793,
      "m_": 5794,
      "##erve": 5795,
      "##ender": 5796,
      "##ret": 5797,
      "plus": 5798,
      "imm": 5799,
      "double": 5800,
      "show": 5801,
      "broad": 5802,
      "beginning": 5803,
      "arrange": 5804,
      "comprehensive": 5805,
      ".............................................................................": 5806,
      "thurs": 5807,
      "##****": 5808,
      "##to": 5809,
      "thursday": 5810,
      "##ron": 5811,
      "registered": 5812,
      "po": 5813,
      "austr": 5814,
      "earlier": 5815,
      "exercise": 5816,
      "policies": 5817,
      "ever": 5818,
      "##ting": 5819,
      "close": 5820,
      "mk": 5821,
      "wat": 5822,
      "##ibed": 5823,
      "investor": 5824,
      "##amp": 5825,
      "orig": 5826,
      "##news": 5827,
      "continuing": 5828,
      "appropriate": 5829,
      "deliver": 5830,
      "vest": 5831,
      "##idual": 5832,
      "euros": 5833,
      "cir": 5834,
      "point": 5835,
      "##enture": 5836,
      "proced": 5837,
      "cert": 5838,
      "compon": 5839,
      "bi": 5840,
      "rent": 5841,
      "let": 5842,
      "**": 5843,
      "##eph": 5844,
      "md": 5845,
      "bbb": 5846,
      "interests": 5847,
      "tues": 5848,
      "percentage": 5849,
      "break": 5850,
      "tuesday": 5851,
      "analys": 5852,
      "##````": 5853,
      "wednes": 5854,
      "around": 5855,
      "##bc": 5856,
      "wednesday": 5857,
      "##________________": 5858,
      "infl": 5859,
      "lab": 5860,
      "capac": 5861,
      "cn": 5862,
      ".)": 5863,
      "%.": 5864,
      "##dic": 5865,
      "home": 5866,
      "##uris": 5867,
      "##gest": 5868,
      "incurred": 5869,
      "valuation": 5870,
      "leases": 5871,
      "expl": 5872,
      "mn": 5873,
      "##udg": 5874,
      "ten": 5875,
      "experience": 5876,
      "repurch": 5877,
      "awards": 5878,
      "media": 5879,
      "circ": 5880,
      "equivalents": 5881,
      "##ipp": 5882,
      "operator": 5883,
      "warrants": 5884,
      "say": 5885,
      "ren": 5886,
      "##ires": 5887,
      "mz": 5888,
      "##ub": 5889,
      "##urse": 5890,
      "##ten": 5891,
      "amendment": 5892,
      "restruct": 5893,
      "greater": 5894,
      "stud": 5895,
      "approved": 5896,
      "mv": 5897,
      "perm": 5898,
      "attributable": 5899,
      "express": 5900,
      "partic": 5901,
      "asia": 5902,
      "pet": 5903,
      "past": 5904,
      "cuts": 5905,
      "case": 5906,
      "ul": 5907,
      "##(\"`@(\"`@": 5908,
      "ther": 5909,
      "construction": 5910,
      "joint": 5911,
      "##hic": 5912,
      "necess": 5913,
      "ratio": 5914,
      "please": 5915,
      "##xy": 5916,
      "import": 5917,
      "announced": 5918,
      "intangible": 5919,
      "exhibits": 5920,
      "german": 5921,
      "particular": 5922,
      "##ley": 5923,
      "gmt": 5924,
      "##br": 5925,
      "member": 5926,
      "much": 5927,
      "##itures": 5928,
      "software": 5929,
      "austral": 5930,
      "brok": 5931,
      "conduct": 5932,
      "volume": 5933,
      "chair": 5934,
      "liquidity": 5935,
      "office": 5936,
      "charge": 5937,
      ">.": 5938,
      "tex": 5939,
      "ok": 5940,
      "##ann": 5941,
      "caus": 5942,
      "##look": 5943,
      "hk": 5944,
      "pen": 5945,
      "large": 5946,
      "free": 5947,
      "largest": 5948,
      "ownership": 5949,
      "www": 5950,
      "advis": 5951,
      "frid": 5952,
      "canada": 5953,
      "juris": 5954,
      "subscr": 5955,
      "ss": 5956,
      "follows": 5957,
      "friday": 5958,
      "outlook": 5959,
      "compliance": 5960,
      "court": 5961,
      "know": 5962,
      "telec": 5963,
      "analysis": 5964,
      "expend": 5965,
      "alloc": 5966,
      "incentive": 5967,
      "er": 5968,
      "list": 5969,
      "monday": 5970,
      "##lus": 5971,
      "wa": 5972,
      "##itten": 5973,
      "##ump": 5974,
      "relationship": 5975,
      "crit": 5976,
      "##ither": 5977,
      "(#": 5978,
      "mx": 5979,
      "##ompan": 5980,
      "receivable": 5981,
      "indiv": 5982,
      "even": 5983,
      "fell": 5984,
      "crude": 5985,
      "ip": 5986,
      "mer": 5987,
      "premium": 5988,
      "carrying": 5989,
      "individual": 5990,
      "reserve": 5991,
      "##anch": 5992,
      "cover": 5993,
      "##iates": 5994,
      "##---": 5995,
      "rele": 5996,
      "dollars": 5997,
      "strategy": 5998,
      "##head": 5999,
      "specific": 6000,
      "(+": 6001,
      "procedures": 6002,
      "relating": 6003,
      "suppl": 6004,
      "activity": 6005,
      "summary": 6006,
      "conference": 6007,
      "brit": 6008,
      "pricing": 6009,
      "__": 6010,
      "treat": 6011,
      "capacity": 6012,
      "gre": 6013,
      "described": 6014,
      "discount": 6015,
      "team": 6016,
      "convertible": 6017,
      "overall": 6018,
      "##other": 6019,
      "##lex": 6020,
      "mb": 6021,
      "bk": 6022,
      "matters": 6023,
      "##eler": 6024,
      "supplement": 6025,
      "raises": 6026,
      "granted": 6027,
      "##going": 6028,
      "##side": 6029,
      "##equent": 6030,
      "hy": 6031,
      "##ibility": 6032,
      "final": 6033,
      "##ists": 6034,
      "mh": 6035,
      "prospect": 6036,
      "##ucture": 6037,
      "iii": 6038,
      "mj": 6039,
      "jp": 6040,
      "accum": 6041,
      "telecom": 6042,
      "remaining": 6043,
      "visit": 6044,
      "quality": 6045,
      "receive": 6046,
      "hhh": 6047,
      "washing": 6048,
      "##igned": 6049,
      "##onc": 6050,
      "behalf": 6051,
      "commodity": 6052,
      "users": 6053,
      "reduce": 6054,
      "sy": 6055,
      "completed": 6056,
      "regulation": 6057,
      "estimate": 6058,
      "##ner": 6059,
      "mq": 6060,
      "deposits": 6061,
      "washington": 6062,
      "reserves": 6063,
      "controls": 6064,
      "##^^^^^^^^^^^^^^^^": 6065,
      "reasonable": 6066,
      "several": 6067,
      "##tract": 6068,
      "[.": 6069,
      "excluding": 6070,
      "uncertainties": 6071,
      "##emed": 6072,
      "##itigation": 6073,
      "##not": 6074,
      "holders": 6075,
      "written": 6076,
      "dig": 6077,
      "pred": 6078,
      "ax": 6079,
      "\"),": 6080,
      "##@`": 6081,
      "employment": 6082,
      "..............................................................................": 6083,
      "dj": 6084,
      "minim": 6085,
      "##ondon": 6086,
      "inventory": 6087,
      "rs": 6088,
      "south": 6089,
      "##ivers": 6090,
      "issue": 6091,
      "##ute": 6092,
      "##res": 6093,
      "london": 6094,
      "electric": 6095,
      "##unct": 6096,
      "equal": 6097,
      "sf": 6098,
      "bid": 6099,
      "effor": 6100,
      "working": 6101,
      "%)": 6102,
      "##fficient": 6103,
      "##audited": 6104,
      "unaudited": 6105,
      "successful": 6106,
      "historical": 6107,
      "##avor": 6108,
      "equities": 6109,
      "dispos": 6110,
      "##acy": 6111,
      "acceler": 6112,
      "##inary": 6113,
      "intended": 6114,
      "solutions": 6115,
      "millions": 6116,
      "##by": 6117,
      "increases": 6118,
      "##ged": 6119,
      "plat": 6120,
      "il": 6121,
      "says": 6122,
      "different": 6123,
      "mp": 6124,
      "prepar": 6125,
      "signed": 6126,
      "core": 6127,
      "retain": 6128,
      "must": 6129,
      "hhhh": 6130,
      "resulting": 6131,
      "street": 6132,
      "plant": 6133,
      "mf": 6134,
      "indicate": 6135,
      "industrial": 6136,
      "iv": 6137,
      "chairman": 6138,
      "##care": 6139,
      "registration": 6140,
      "litigation": 6141,
      "restructuring": 6142,
      "holding": 6143,
      "rise": 6144,
      "rules": 6145,
      "accumulated": 6146,
      "ns": 6147,
      "pharm": 6148,
      "implement": 6149,
      "partner": 6150,
      "afric": 6151,
      "commence": 6152,
      "programs": 6153,
      "cents": 6154,
      "derivative": 6155,
      "cut": 6156,
      "##idential": 6157,
      "pension": 6158,
      "decline": 6159,
      "excess": 6160,
      "@`": 6161,
      "reconc": 6162,
      "##<.": 6163,
      "move": 6164,
      "##itted": 6165,
      "expos": 6166,
      "ke": 6167,
      "#.": 6168,
      "##wr": 6169,
      "teleph": 6170,
      "extent": 6171,
      "find": 6172,
      "warrant": 6173,
      "agre": 6174,
      "fee": 6175,
      "##irement": 6176,
      "eu": 6177,
      "................................................................": 6178,
      "yes": 6179,
      "collect": 6180,
      "expenditures": 6181,
      "john": 6182,
      "##ength": 6183,
      "fas": 6184,
      "phone": 6185,
      "settlement": 6186,
      "mil": 6187,
      "ap": 6188,
      "hous": 6189,
      "?\\": 6190,
      "action": 6191,
      "separ": 6192,
      "##view": 6193,
      "competitive": 6194,
      "##cl": 6195,
      "peop": 6196,
      "alth": 6197,
      "cp": 6198,
      "secured": 6199,
      "given": 6200,
      "caused": 6201,
      "although": 6202,
      "futures": 6203,
      "litt": 6204,
      "##bo": 6205,
      "charter": 6206,
      "convers": 6207,
      "vs": 6208,
      "technologies": 6209,
      "##app": 6210,
      "source": 6211,
      "##way": 6212,
      "healthcare": 6213,
      "things": 6214,
      "become": 6215,
      "##ood": 6216,
      "##ulation": 6217,
      "concern": 6218,
      "diff": 6219,
      "##me": 6220,
      "##mark": 6221,
      "front": 6222,
      "sector": 6223,
      "land": 6224,
      "little": 6225,
      "don": 6226,
      "read": 6227,
      "considered": 6228,
      "subsequent": 6229,
      "dev": 6230,
      "unless": 6231,
      "##tra": 6232,
      "sources": 6233,
      "consult": 6234,
      "pip": 6235,
      "either": 6236,
      "affected": 6237,
      "telephone": 6238,
      "ago": 6239,
      "##ateral": 6240,
      "cand": 6241,
      "##urring": 6242,
      "##af": 6243,
      "reduction": 6244,
      "believes": 6245,
      "book": 6246,
      "##ames": 6247,
      "defin": 6248,
      "occur": 6249,
      "opportunities": 6250,
      "her": 6251,
      "mac": 6252,
      "##imb": 6253,
      "##kyo": 6254,
      "##ibor": 6255,
      "et": 6256,
      "combined": 6257,
      "depend": 6258,
      "care": 6259,
      "repl": 6260,
      "presented": 6261,
      "presentation": 6262,
      "gb": 6263,
      "tokyo": 6264,
      "explor": 6265,
      "##mk": 6266,
      "really": 6267,
      "strategic": 6268,
      "nf": 6269,
      "circum": 6270,
      "american": 6271,
      "way": 6272,
      "treasury": 6273,
      "possible": 6274,
      "##ech": 6275,
      "description": 6276,
      "util": 6277,
      "every": 6278,
      "##eline": 6279,
      "commencement": 6280,
      "webs": 6281,
      "##ned": 6282,
      "war": 6283,
      "live": 6284,
      "ahead": 6285,
      "candid": 6286,
      "##aff": 6287,
      "bill": 6288,
      "prec": 6289,
      "people": 6290,
      "fuel": 6291,
      "##itors": 6292,
      "actions": 6293,
      "materials": 6294,
      "##olving": 6295,
      "sn": 6296,
      "tem": 6297,
      "necessary": 6298,
      "exceed": 6299,
      "assurance": 6300,
      "tit": 6301,
      "termination": 6302,
      "pract": 6303,
      "maturity": 6304,
      "diffic": 6305,
      "significantly": 6306,
      ")%": 6307,
      "another": 6308,
      "added": 6309,
      "environmental": 6310,
      "asian": 6311,
      "##rel": 6312,
      "(-": 6313,
      "dav": 6314,
      "medical": 6315,
      "##ining": 6316,
      "requires": 6317,
      "opin": 6318,
      "collateral": 6319,
      "##fo": 6320,
      "##cy": 6321,
      "decreased": 6322,
      "circumst": 6323,
      "coverage": 6324,
      "patients": 6325,
      "##gy": 6326,
      "substantial": 6327,
      "incorporation": 6328,
      "comput": 6329,
      "consideration": 6330,
      "clear": 6331,
      "deposit": 6332,
      "adopt": 6333,
      "domest": 6334,
      "discussion": 6335,
      "##etary": 6336,
      "##unch": 6337,
      "autom": 6338,
      "canc": 6339,
      "om": 6340,
      "##ached": 6341,
      "competition": 6342,
      "dow": 6343,
      "hot": 6344,
      "sk": 6345,
      "breaking": 6346,
      "expand": 6347,
      "volat": 6348,
      "infr": 6349,
      "reconcil": 6350,
      "reduced": 6351,
      "important": 6352,
      "deemed": 6353,
      "##ories": 6354,
      "better": 6355,
      "least": 6356,
      "fully": 6357,
      "##eto": 6358,
      "##ath": 6359,
      "##rop": 6360,
      "circumstances": 6361,
      "platform": 6362,
      "africa": 6363,
      "##ontin": 6364,
      "agent": 6365,
      "seek": 6366,
      "entity": 6367,
      "immed": 6368,
      "contained": 6369,
      "seen": 6370,
      "##rap": 6371,
      "patent": 6372,
      "projects": 6373,
      "arrangements": 6374,
      "##ry": 6375,
      "spe": 6376,
      "`$": 6377,
      "##lines": 6378,
      "broker": 6379,
      "##ault": 6380,
      "##rupt": 6381,
      "model": 6382,
      "goods": 6383,
      "ceo": 6384,
      "fda": 6385,
      "established": 6386,
      "license": 6387,
      "eps": 6388,
      "agreed": 6389,
      "making": 6390,
      "bm": 6391,
      "##ution": 6392,
      "members": 6393,
      "##icit": 6394,
      "cannot": 6395,
      "details": 6396,
      "##================": 6397,
      "diary": 6398,
      "=><": 6399,
      "update": 6400,
      "##enced": 6401,
      "select": 6402,
      "rm": 6403,
      "conting": 6404,
      "recovery": 6405,
      "domestic": 6406,
      "expects": 6407,
      "conversion": 6408,
      "satisfy": 6409,
      "best": 6410,
      "restrict": 6411,
      "mot": 6412,
      "complete": 6413,
      "negative": 6414,
      "\\`": 6415,
      "food": 6416,
      "-----------------------------------------------------------------": 6417,
      "outside": 6418,
      "accompan": 6419,
      "australia": 6420,
      "mich": 6421,
      "##diction": 6422,
      "\",": 6423,
      "##ott": 6424,
      "positive": 6425,
      "website": 6426,
      "mob": 6427,
      "jurisdiction": 6428,
      "##yal": 6429,
      "signat": 6430,
      "fy": 6431,
      "found": 6432,
      "ps": 6433,
      "indicators": 6434,
      "##ne": 6435,
      "inflation": 6436,
      "##iers": 6437,
      "##atively": 6438,
      "offices": 6439,
      "run": 6440,
      "efforts": 6441,
      "##ued": 6442,
      "failure": 6443,
      "brand": 6444,
      "prob": 6445,
      "nik": 6446,
      "ratings": 6447,
      "den": 6448,
      "affiliates": 6449,
      "bear": 6450,
      "slow": 6451,
      "##ler": 6452,
      "entities": 6453,
      "fh": 6454,
      "minimum": 6455,
      "produc": 6456,
      "east": 6457,
      "san": 6458,
      "bit": 6459,
      "kind": 6460,
      "\").": 6461,
      "commitments": 6462,
      "discontin": 6463,
      "treatment": 6464,
      "rich": 6465,
      "jones": 6466,
      "commodities": 6467,
      "purchased": 6468,
      "benefic": 6469,
      "##ously": 6470,
      "values": 6471,
      "comment": 6472,
      "##emption": 6473,
      "opinion": 6474,
      "anticipated": 6475,
      "funding": 6476,
      "calif": 6477,
      "##put": 6478,
      "adjustment": 6479,
      "positions": 6480,
      "transition": 6481,
      "increasing": 6482,
      "proposed": 6483,
      "achieve": 6484,
      "##mal": 6485,
      "##omm": 6486,
      "##idence": 6487,
      "dam": 6488,
      "ze": 6489,
      "safety": 6490,
      "single": 6491,
      "sr": 6492,
      "proxy": 6493,
      "repurchase": 6494,
      "##ging": 6495,
      "refer": 6496,
      "depart": 6497,
      "difficult": 6498,
      "underlying": 6499,
      "ho": 6500,
      "closed": 6501,
      "strength": 6502,
      "##fe": 6503,
      "ny": 6504,
      "##au": 6505,
      "leading": 6506,
      "primary": 6507,
      "borrowings": 6508,
      "principles": 6509,
      "link": 6510,
      "accompanying": 6511,
      "renew": 6512,
      "##utical": 6513,
      "want": 6514,
      "engine": 6515,
      "driven": 6516,
      "##eful": 6517,
      "braz": 6518,
      "comparable": 6519,
      "##thers": 6520,
      "quot": 6521,
      "talk": 6522,
      "launch": 6523,
      "country": 6524,
      "session": 6525,
      "might": 6526,
      "store": 6527,
      "restated": 6528,
      "##aceutical": 6529,
      "advert": 6530,
      "relationships": 6531,
      "electron": 6532,
      "issues": 6533,
      "##real": 6534,
      "represents": 6535,
      "brazil": 6536,
      "@(\"": 6537,
      "favor": 6538,
      "##ets": 6539,
      "agency": 6540,
      "times": 6541,
      "##iving": 6542,
      "super": 6543,
      "nine": 6544,
      "exact": 6545,
      "cd": 6546,
      "##aged": 6547,
      "directly": 6548,
      "transfer": 6549,
      "changed": 6550,
      "margins": 6551,
      "-----": 6552,
      "revolving": 6553,
      "##sh": 6554,
      "put": 6555,
      "nz": 6556,
      "swap": 6557,
      "contact": 6558,
      "yu": 6559,
      "delivery": 6560,
      "substantially": 6561,
      "located": 6562,
      "certific": 6563,
      "uns": 6564,
      "distributions": 6565,
      "gm": 6566,
      "fam": 6567,
      "judg": 6568,
      "##ather": 6569,
      "regional": 6570,
      "subm": 6571,
      "ur": 6572,
      "##ived": 6573,
      "hit": 6574,
      "lot": 6575,
      "original": 6576,
      "##imed": 6577,
      "##arters": 6578,
      "david": 6579,
      "unders": 6580,
      "qualified": 6581,
      "flo": 6582,
      "intell": 6583,
      "##ox": 6584,
      "##kei": 6585,
      "timing": 6586,
      "exclus": 6587,
      "##ev": 6588,
      "contractual": 6589,
      ");": 6590,
      "decision": 6591,
      "##puts": 6592,
      "californ": 6593,
      "nikkei": 6594,
      "##rec": 6595,
      "##anced": 6596,
      "shareholder": 6597,
      "notice": 6598,
      "venture": 6599,
      "box": 6600,
      "enh": 6601,
      "subscription": 6602,
      "##lin": 6603,
      "##tim": 6604,
      "west": 6605,
      "effects": 6606,
      "vir": 6607,
      "california": 6608,
      "tm": 6609,
      "stores": 6610,
      "rede": 6611,
      "hong": 6612,
      "countries": 6613,
      "##hold": 6614,
      "therap": 6615,
      "##tenance": 6616,
      "components": 6617,
      "##itch": 6618,
      "clients": 6619,
      "maintenance": 6620,
      "='": 6621,
      "majority": 6622,
      "ng": 6623,
      "/\\": 6624,
      "realized": 6625,
      "bp": 6626,
      "refin": 6627,
      "sit": 6628,
      "kr": 6629,
      "entit": 6630,
      "##emic": 6631,
      "##force": 6632,
      "altern": 6633,
      "yt": 6634,
      "##eep": 6635,
      "fre": 6636,
      "default": 6637,
      "tv": 6638,
      "ongoing": 6639,
      "wealth": 6640,
      "served": 6641,
      "##nel": 6642,
      "therefore": 6643,
      "transport": 6644,
      "ox": 6645,
      "##perform": 6646,
      "attract": 6647,
      "je": 6648,
      "versus": 6649,
      "vehic": 6650,
      "furn": 6651,
      "discontinued": 6652,
      "hs": 6653,
      "chall": 6654,
      "##izes": 6655,
      "residential": 6656,
      "expans": 6657,
      "repay": 6658,
      "retirement": 6659,
      "##fs": 6660,
      "##osp": 6661,
      "establish": 6662,
      "##omes": 6663,
      "mix": 6664,
      "##iw": 6665,
      "ton": 6666,
      "determine": 6667,
      "purchases": 6668,
      "canadian": 6669,
      "polit": 6670,
      "deb": 6671,
      "stake": 6672,
      "##ering": 6673,
      "underwr": 6674,
      "parent": 6675,
      "##roup": 6676,
      "ot": 6677,
      "royal": 6678,
      "biggest": 6679,
      "char": 6680,
      "phase": 6681,
      "building": 6682,
      "disclosures": 6683,
      "chr": 6684,
      "investing": 6685,
      "pg": 6686,
      "wall": 6687,
      "hu": 6688,
      "##iring": 6689,
      "hand": 6690,
      "##paid": 6691,
      "multip": 6692,
      "ow": 6693,
      "labor": 6694,
      "bh": 6695,
      "##utsch": 6696,
      "pass": 6697,
      "sav": 6698,
      "unable": 6699,
      "texas": 6700,
      "spons": 6701,
      "areas": 6702,
      "gd": 6703,
      "needs": 6704,
      "adequ": 6705,
      "tra": 6706,
      "har": 6707,
      "application": 6708,
      "deutsch": 6709,
      "##ally": 6710,
      "forma": 6711,
      "ts": 6712,
      "sufficient": 6713,
      "##wards": 6714,
      "give": 6715,
      "##iveness": 6716,
      "maxim": 6717,
      "medic": 6718,
      "known": 6719,
      "meaning": 6720,
      "]?": 6721,
      ":>": 6722,
      "traded": 6723,
      "manufactur": 6724,
      "pharmaceutical": 6725,
      "discussed": 6726,
      "russ": 6727,
      "undersigned": 6728,
      "##dle": 6729,
      "drill": 6730,
      "ded": 6731,
      "operate": 6732,
      "center": 6733,
      "kong": 6734,
      "bang": 6735,
      "sg": 6736,
      ",#": 6737,
      "opportunity": 6738,
      "##lation": 6739,
      ".................": 6740,
      "pc": 6741,
      "##med": 6742,
      "ey": 6743,
      "active": 6744,
      "protection": 6745,
      "few": 6746,
      "##aware": 6747,
      "employer": 6748,
      "coven": 6749,
      "nq": 6750,
      "document": 6751,
      "appoint": 6752,
      "acquire": 6753,
      "o_": 6754,
      "].": 6755,
      "longer": 6756,
      "adopted": 6757,
      "normal": 6758,
      "late": 6759,
      "##asts": 6760,
      "`*": 6761,
      "accepted": 6762,
      "title": 6763,
      "partially": 6764,
      "##ody": 6765,
      "##ash": 6766,
      "##uctu": 6767,
      "fluctu": 6768,
      "pipeline": 6769,
      "expansion": 6770,
      "internet": 6771,
      "##izing": 6772,
      "banc": 6773,
      "nonc": 6774,
      "trial": 6775,
      "applications": 6776,
      "categ": 6777,
      "object": 6778,
      "candidates": 6779,
      "metals": 6780,
      "(%": 6781,
      "schedule": 6782,
      "lp": 6783,
      "sheets": 6784,
      "[%": 6785,
      "##ench": 6786,
      "ep": 6787,
      "##ios": 6788,
      "light": 6789,
      "$(": 6790,
      "effic": 6791,
      "overs": 6792,
      "delaware": 6793,
      "sfas": 6794,
      "***": 6795,
      "redemption": 6796,
      "accelerated": 6797,
      "unreal": 6798,
      "city": 6799,
      "providing": 6800,
      "squ": 6801,
      "extended": 6802,
      "season": 6803,
      "segments": 6804,
      "##ij": 6805,
      "ol": 6806,
      "card": 6807,
      "won": 6808,
      "##iest": 6809,
      "water": 6810,
      "cz": 6811,
      "recognition": 6812,
      "\".": 6813,
      "taking": 6814,
      "cs": 6815,
      "##ready": 6816,
      "##[.": 6817,
      "reimb": 6818,
      "already": 6819,
      "##iately": 6820,
      "nt": 6821,
      "operational": 6822,
      "france": 6823,
      "asc": 6824,
      "yd": 6825,
      "...": 6826,
      "others": 6827,
      "unrealized": 6828,
      "##issions": 6829,
      "completion": 6830,
      "morning": 6831,
      "pages": 6832,
      "exposure": 6833,
      "-------------------------------------------------------------------------": 6834,
      "personnel": 6835,
      "##unto": 6836,
      "profits": 6837,
      "topnews": 6838,
      "industries": 6839,
      "additionally": 6840,
      "adoption": 6841,
      "divers": 6842,
      "lu": 6843,
      "cm": 6844,
      "##ology": 6845,
      "enterpr": 6846,
      "mobile": 6847,
      "accordingly": 6848,
      "later": 6849,
      "##back": 6850,
      "competitors": 6851,
      "pound": 6852,
      "##bank": 6853,
      "orders": 6854,
      "bn": 6855,
      "##dr": 6856,
      "##ison": 6857,
      "##entures": 6858,
      "far": 6859,
      "spending": 6860,
      "##ening": 6861,
      "poll": 6862,
      "reconciliation": 6863,
      "advertising": 6864,
      "##amed": 6865,
      "pm": 6866,
      "volatility": 6867,
      "identification": 6868,
      "generated": 6869,
      "sus": 6870,
      "oh": 6871,
      "##enders": 6872,
      "thanks": 6873,
      "initi": 6874,
      "htm": 6875,
      "consistent": 6876,
      "investig": 6877,
      "mexic": 6878,
      "za": 6879,
      "web": 6880,
      "delay": 6881,
      "step": 6882,
      "simult": 6883,
      "simultane": 6884,
      "##iver": 6885,
      "ic": 6886,
      "middle": 6887,
      "spread": 6888,
      "[-": 6889,
      "sens": 6890,
      "=&": 6891,
      "ele": 6892,
      "morgan": 6893,
      "leverage": 6894,
      "ks": 6895,
      "du": 6896,
      "ba": 6897,
      "told": 6898,
      "##vest": 6899,
      "fs": 6900,
      "##emn": 6901,
      "##ger": 6902,
      "gs": 6903,
      "ter": 6904,
      "entitled": 6905,
      "documents": 6906,
      "adds": 6907,
      "entire": 6908,
      "##ael": 6909,
      "voting": 6910,
      "progress": 6911,
      "maker": 6912,
      "digital": 6913,
      "##ob": 6914,
      "ending": 6915,
      "cell": 6916,
      "frx": 6917,
      "french": 6918,
      "os": 6919,
      "stockholder": 6920,
      "receivables": 6921,
      "site": 6922,
      "savings": 6923,
      "counter": 6924,
      "carry": 6925,
      "raise": 6926,
      "##ull": 6927,
      "profitability": 6928,
      "play": 6929,
      "cov": 6930,
      "##imedia": 6931,
      "]/": 6932,
      "trends": 6933,
      "syn": 6934,
      "britain": 6935,
      "##iqu": 6936,
      "ft": 6937,
      "plc": 6938,
      "dc": 6939,
      "nw": 6940,
      "bon": 6941,
      "multimedia": 6942,
      "bankrupt": 6943,
      "lines": 6944,
      "hi": 6945,
      "##sel": 6946,
      "?^": 6947,
      "highl": 6948,
      "^/": 6949,
      "\\/": 6950,
      "protect": 6951,
      "##orp": 6952,
      "w_": 6953,
      "operation": 6954,
      "yr": 6955,
      "simultaneously": 6956,
      "kore": 6957,
      "assessment": 6958,
      "##lv": 6959,
      "type": 6960,
      "growing": 6961,
      "earliest": 6962,
      "tk": 6963,
      "mergers": 6964,
      "##ulative": 6965,
      "intellect": 6966,
      "having": 6967,
      "aw": 6968,
      "manager": 6969,
      "face": 6970,
      "funct": 6971,
      "fasb": 6972,
      "dji": 6973,
      "intellectual": 6974,
      "recurring": 6975,
      "pack": 6976,
      "returns": 6977,
      "course": 6978,
      "revised": 6979,
      "recently": 6980,
      "##ns": 6981,
      "##ea": 6982,
      "##_g": 6983,
      "come": 6984,
      "univers": 6985,
      "##retion": 6986,
      "##\"!": 6987,
      "join": 6988,
      "##inate": 6989,
      "respective": 6990,
      "vote": 6991,
      "supplemental": 6992,
      "listed": 6993,
      "|<": 6994,
      "designed": 6995,
      "##ograp": 6996,
      "variable": 6997,
      "##ci": 6998,
      "indemn": 6999,
      "tog": 7000,
      "dut": 7001,
      "eci": 7002,
      "##stain": 7003,
      "kw": 7004,
      "##ges": 7005,
      "ord": 7006,
      "though": 7007,
      "generation": 7008,
      "calculated": 7009,
      "none": 7010,
      "request": 7011,
      "fx": 7012,
      "frank": 7013,
      "nature": 7014,
      "##eria": 7015,
      "inde": 7016,
      "immediately": 7017,
      "highly": 7018,
      "restrictions": 7019,
      "##str": 7020,
      "taken": 7021,
      "approach": 7022,
      "kl": 7023,
      "##astr": 7024,
      "wells": 7025,
      "aa": 7026,
      "cat": 7027,
      "fd": 7028,
      ".'": 7029,
      "rr": 7030,
      "dd": 7031,
      "monthly": 7032,
      "division": 7033,
      "continues": 7034,
      "coal": 7035,
      "focused": 7036,
      "##ush": 7037,
      "staff": 7038,
      "sponsor": 7039,
      "institutions": 7040,
      "##wide": 7041,
      "##tainment": 7042,
      "copy": 7043,
      "together": 7044,
      "eas": 7045,
      "coup": 7046,
      "predict": 7047,
      "\"@": 7048,
      "nd": 7049,
      "yet": 7050,
      "balances": 7051,
      "##int": 7052,
      "@,": 7053,
      "derivatives": 7054,
      "indicated": 7055,
      "##rg": 7056,
      "michael": 7057,
      "volumes": 7058,
      "cx": 7059,
      ".:": 7060,
      "ry": 7061,
      "reform": 7062,
      "inn": 7063,
      "cv": 7064,
      "vo": 7065,
      "enc": 7066,
      "improvement": 7067,
      "##bert": 7068,
      "deals": 7069,
      "borrower": 7070,
      "tempor": 7071,
      "pac": 7072,
      "evaluation": 7073,
      "na": 7074,
      "chin": 7075,
      "##pose": 7076,
      "cb": 7077,
      "`%": 7078,
      "election": 7079,
      "infrastr": 7080,
      "lc": 7081,
      "ib": 7082,
      "ixic": 7083,
      "fq": 7084,
      "dail": 7085,
      "##ford": 7086,
      "##kn": 7087,
      "art": 7088,
      "##istics": 7089,
      "-\"": 7090,
      "trials": 7091,
      "abs": 7092,
      "improvements": 7093,
      "means": 7094,
      ";%": 7095,
      "proceedings": 7096,
      "bankruptcy": 7097,
      "##organ": 7098,
      "##bted": 7099,
      "daily": 7100,
      "cum": 7101,
      "..": 7102,
      "compr": 7103,
      "hard": 7104,
      "elected": 7105,
      "anticipate": 7106,
      "department": 7107,
      "drive": 7108,
      "comply": 7109,
      ">'": 7110,
      "pressure": 7111,
      "nom": 7112,
      "lender": 7113,
      "resulted": 7114,
      "ah": 7115,
      "online": 7116,
      "letter": 7117,
      "bb": 7118,
      "bangal": 7119,
      "elim": 7120,
      "profess": 7121,
      "covid": 7122,
      "##come": 7123,
      "earned": 7124,
      "?]": 7125,
      "infrastructure": 7126,
      "@#": 7127,
      "planned": 7128,
      "##inter": 7129,
      "chem": 7130,
      "chap": 7131,
      "[?": 7132,
      "##ih": 7133,
      "story": 7134,
      "cases": 7135,
      "bangalore": 7136,
      "##kt": 7137,
      "indebted": 7138,
      "examp": 7139,
      "effectiveness": 7140,
      "accounted": 7141,
      "desp": 7142,
      "xtra": 7143,
      "##wh": 7144,
      "boost": 7145,
      "identified": 7146,
      "keep": 7147,
      "pt": 7148,
      "negot": 7149,
      "quant": 7150,
      "hedge": 7151,
      "\\?": 7152,
      "cc": 7153,
      "``": 7154,
      "$!": 7155,
      "##vant": 7156,
      "despite": 7157,
      "reflected": 7158,
      "##ecured": 7159,
      "##ung": 7160,
      "useful": 7161,
      "technical": 7162,
      "nv": 7163,
      "wholly": 7164,
      "##inations": 7165,
      "bench": 7166,
      "g_": 7167,
      "##gn": 7168,
      "entertainment": 7169,
      "##%%%%": 7170,
      "lv": 7171,
      "challeng": 7172,
      "space": 7173,
      "##izations": 7174,
      "prevent": 7175,
      "]:": 7176,
      "taxable": 7177,
      "patents": 7178,
      "improved": 7179,
      "ct": 7180,
      "quarters": 7181,
      "sustain": 7182,
      "##ened": 7183,
      "limitations": 7184,
      "filings": 7185,
      "slight": 7186,
      "spo": 7187,
      "##yond": 7188,
      "pret": 7189,
      "hh": 7190,
      "indebtedness": 7191,
      "da": 7192,
      "?[": 7193,
      "mic": 7194,
      "okay": 7195,
      "asu": 7196,
      "personal": 7197,
      "/(": 7198,
      "forecasts": 7199,
      "##omet": 7200,
      "^?": 7201,
      "ens": 7202,
      "corr": 7203,
      "ital": 7204,
      "star": 7205,
      "amortized": 7206,
      "structure": 7207,
      "availability": 7208,
      "chinese": 7209,
      "black": 7210,
      "covenants": 7211,
      "nm": 7212,
      "##thing": 7213,
      "_z": 7214,
      "subjects": 7215,
      "_x": 7216,
      "led": 7217,
      "fi": 7218,
      "issuer": 7219,
      "developed": 7220,
      "firms": 7221,
      "family": 7222,
      "involve": 7223,
      "/^": 7224,
      "=.": 7225,
      "declar": 7226,
      "square": 7227,
      "union": 7228,
      "gi": 7229,
      "mining": 7230,
      "coming": 7231,
      "eik": 7232,
      "benchmark": 7233,
      "um": 7234,
      "k_": 7235,
      "unsecured": 7236,
      "headlines": 7237,
      "track": 7238,
      ";&": 7239,
      "beyond": 7240,
      "##ifying": 7241,
      "tn": 7242,
      "##aft": 7243,
      "****": 7244,
      "]*": 7245,
      "dy": 7246,
      "phys": 7247,
      "tx": 7248,
      "lenders": 7249,
      "pd": 7250,
      "india": 7251,
      "study": 7252,
      "[>": 7253,
      "barrel": 7254,
      "vx": 7255,
      "install": 7256,
      "##abor": 7257,
      "reit": 7258,
      "reasonably": 7259,
      "typically": 7260,
      "$.": 7261,
      "ly": 7262,
      "named": 7263,
      "resol": 7264,
      "eikon": 7265,
      "reimburse": 7266,
      "classified": 7267,
      "chapter": 7268,
      ".-": 7269,
      "und": 7270,
      "pp": 7271,
      "##mental": 7272,
      "agric": 7273,
      "nb": 7274,
      "condens": 7275,
      "rental": 7276,
      "measurement": 7277,
      "dl": 7278,
      "bonus": 7279,
      "weeks": 7280,
      "wm": 7281,
      "fc": 7282,
      "steel": 7283,
      "chann": 7284,
      "`****": 7285,
      "[^": 7286,
      "##``@`": 7287,
      "got": 7288,
      "revers": 7289,
      "bd": 7290,
      "particularly": 7291,
      "pn": 7292,
      "https": 7293,
      "intend": 7294,
      "obs": 7295,
      "ultim": 7296,
      "beneficial": 7297,
      "##pri": 7298,
      "stated": 7299,
      "multiple": 7300,
      "component": 7301,
      "si": 7302,
      "_y": 7303,
      "foot": 7304,
      "ordinary": 7305,
      "generate": 7306,
      "##(`\"": 7307,
      "favorable": 7308,
      "az": 7309,
      "professional": 7310,
      "bc": 7311,
      "hear": 7312,
      "elig": 7313,
      "reflects": 7314,
      "td": 7315,
      "##ips": 7316,
      ".#": 7317,
      "minute": 7318,
      "rd": 7319,
      "@@": 7320,
      "bt": 7321,
      "jr": 7322,
      "^]": 7323,
      "agencies": 7324,
      "signatures": 7325,
      "interim": 7326,
      "penal": 7327,
      "maximum": 7328,
      "promot": 7329,
      "soc": 7330,
      "ipo": 7331,
      "dan": 7332,
      "managing": 7333,
      "desk": 7334,
      "lending": 7335,
      "##ipt": 7336,
      "##aint": 7337,
      "[]": 7338,
      "alle": 7339,
      "-$": 7340,
      "brands": 7341,
      "##down": 7342,
      "exclusive": 7343,
      "participants": 7344,
      "nys": 7345,
      "##uctions": 7346,
      "organization": 7347,
      "nh": 7348,
      "monitor": 7349,
      "inputs": 7350,
      "##ually": 7351,
      "mexico": 7352,
      ")/": 7353,
      "pf": 7354,
      "##apor": 7355,
      "##uk": 7356,
      "ver": 7357,
      "persons": 7358,
      "##cing": 7359,
      "authorities": 7360,
      "comments": 7361,
      "uncertainty": 7362,
      "pan": 7363,
      "\"!": 7364,
      "-#": 7365,
      "vm": 7366,
      "##?\\": 7367,
      "cro": 7368,
      "utility": 7369,
      "throughout": 7370,
      "inf": 7371,
      "storage": 7372,
      "impacted": 7373,
      "telecoms": 7374,
      "##ney": 7375,
      "cen": 7376,
      "rch": 7377,
      "##itative": 7378,
      "`!": 7379,
      "hereunto": 7380,
      "##ams": 7381,
      "sil": 7382,
      "euribor": 7383,
      "redeem": 7384,
      "'-": 7385,
      "los": 7386,
      "administration": 7387,
      "`$`!": 7388,
      "jv": 7389,
      "capitalized": 7390,
      "prepared": 7391,
      "projected": 7392,
      "ddd": 7393,
      "(&": 7394,
      "sb": 7395,
      "^'": 7396,
      "evaluating": 7397,
      "initiatives": 7398,
      "cumulative": 7399,
      "c_": 7400,
      "_w": 7401,
      "summaries": 7402,
      "testing": 7403,
      "-/": 7404,
      "transportation": 7405,
      "hum": 7406,
      "processing": 7407,
      "lived": 7408,
      "criteria": 7409,
      "''": 7410,
      "<&": 7411,
      "##bmk": 7412,
      ";-": 7413,
      "stra": 7414,
      "assumed": 7415,
      "critical": 7416,
      "##(\"`@(\"`@(\"`@(\"`@": 7417,
      "contains": 7418,
      "\"(": 7419,
      "ln": 7420,
      "##ivity": 7421,
      "nearly": 7422,
      "##iency": 7423,
      "fax": 7424,
      "announce": 7425,
      "np": 7426,
      ";:": 7427,
      "smaller": 7428,
      "attached": 7429,
      "nyse": 7430,
      "]>": 7431,
      "example": 7432,
      "pacific": 7433,
      "swiss": 7434,
      "[=": 7435,
      "drilling": 7436,
      "gh": 7437,
      "tc": 7438,
      "agricult": 7439,
      "],": 7440,
      "green": 7441,
      "eg": 7442,
      "innov": 7443,
      "^(": 7444,
      "ak": 7445,
      "propri": 7446,
      "])": 7447,
      "impl": 7448,
      "cf": 7449,
      "gp": 7450,
      "##att": 7451,
      "serve": 7452,
      "efx": 7453,
      "alternative": 7454,
      "petro": 7455,
      "=/": 7456,
      "james": 7457,
      "##@,": 7458,
      "premiums": 7459,
      "collabor": 7460,
      "vesting": 7461,
      "mis": 7462,
      "_o": 7463,
      "##rs": 7464,
      "##ols": 7465,
      "nj": 7466,
      "successfully": 7467,
      "cam": 7468,
      "`****`\"": 7469,
      ")-": 7470,
      "recl": 7471,
      "heav": 7472,
      "exploration": 7473,
      "##aster": 7474,
      "##aur": 7475,
      "editor": 7476,
      "/#": 7477,
      "practices": 7478,
      "fig": 7479,
      "proble": 7480,
      "statut": 7481,
      "side": 7482,
      "subord": 7483,
      "proprietary": 7484,
      "reb": 7485,
      "franch": 7486,
      "nfx": 7487,
      "remains": 7488,
      "optim": 7489,
      "][": 7490,
      "contingent": 7491,
      "latin": 7492,
      "suppliers": 7493,
      "along": 7494,
      "condensed": 7495,
      "response": 7496,
      "ko": 7497,
      "relevant": 7498,
      "conclud": 7499,
      "nc": 7500,
      "##...": 7501,
      "house": 7502,
      "comes": 7503,
      "timely": 7504,
      "./": 7505,
      "legis": 7506,
      "relative": 7507,
      "##apore": 7508,
      "safe": 7509,
      "temporary": 7510,
      "pi": 7511,
      "_k": 7512,
      "=\"": 7513,
      "advant": 7514,
      "declined": 7515,
      "`$`!``": 7516,
      "::": 7517,
      "distr": 7518,
      "##log": 7519,
      "stage": 7520,
      "usbmk": 7521,
      "responsible": 7522,
      "posted": 7523,
      "_v": 7524,
      "intro": 7525,
      "shipp": 7526,
      "##action": 7527,
      "sun": 7528,
      "singapore": 7529,
      "concerns": 7530,
      "s_": 7531,
      "##mb": 7532,
      "##ma": 7533,
      "##````````": 7534,
      "replace": 7535,
      "british": 7536,
      "##yle": 7537,
      "seeing": 7538,
      "dise": 7539,
      "-'": 7540,
      "ask": 7541,
      "chain": 7542,
      "separate": 7543,
      "##ole": 7544,
      "mention": 7545,
      "deficit": 7546,
      "##pay": 7547,
      "park": 7548,
      "vl": 7549,
      "\\+": 7550,
      "phil": 7551,
      "))))": 7552,
      "sz": 7553,
      "holder": 7554,
      "jg": 7555,
      "]^": 7556,
      "inventories": 7557,
      "##(`\"``@`": 7558,
      "'^": 7559,
      "size": 7560,
      "u_": 7561,
      "hosp": 7562,
      "##agen": 7563,
      "sv": 7564,
      "##ism": 7565,
      "ov": 7566,
      "^[": 7567,
      "twel": 7568,
      "sar": 7569,
      "zh": 7570,
      "-,": 7571,
      "certificate": 7572,
      "bx": 7573,
      "##px": 7574,
      "pv": 7575,
      "##agn": 7576,
      "^\\": 7577,
      "eqe": 7578,
      "contributions": 7579,
      "field": 7580,
      "deg": 7581,
      "region": 7582,
      "##ene": 7583,
      "##sw": 7584,
      "*\"": 7585,
      "rob": 7586,
      "feat": 7587,
      "=?": 7588,
      "paper": 7589,
      "mrg": 7590,
      "wy": 7591,
      "selected": 7592,
      "##hous": 7593,
      ")*": 7594,
      "reins": 7595,
      "gy": 7596,
      "authority": 7597,
      "[:": 7598,
      "##elines": 7599,
      "matter": 7600,
      "oz": 7601,
      "##oper": 7602,
      "##ny": 7603,
      "cg": 7604,
      "ye": 7605,
      "terr": 7606,
      "status": 7607,
      "consent": 7608,
      "%!": 7609,
      "straight": 7610,
      "covered": 7611,
      "##aced": 7612,
      ";'": 7613,
      "db": 7614,
      "restaur": 7615,
      "hop": 7616,
      "viol": 7617,
      "twelve": 7618,
      "political": 7619,
      "##eas": 7620,
      "brid": 7621,
      "maybe": 7622,
      "+'": 7623,
      "]+": 7624,
      "##arks": 7625,
      "mal": 7626,
      "-----------------": 7627,
      "\\>": 7628,
      "sent": 7629,
      "highlights": 7630,
      "!!": 7631,
      "questions": 7632,
      "@!": 7633,
      "]#": 7634,
      "??": 7635,
      ":?": 7636,
      "flat": 7637,
      "fluctuations": 7638,
      "rh": 7639,
      "miss": 7640,
      "^^": 7641,
      "measured": 7642,
      "ku": 7643,
      "?:": 7644,
      "wal": 7645,
      "association": 7646,
      "dn": 7647,
      "community": 7648,
      "buying": 7649,
      "geograp": 7650,
      "slightly": 7651,
      "vn": 7652,
      "eligible": 7653,
      "z_": 7654,
      ":@": 7655,
      "q_": 7656,
      "worldwide": 7657,
      "]]": 7658,
      ">/": 7659,
      "views": 7660,
      ";^": 7661,
      "accr": 7662,
      "/'": 7663,
      "gn": 7664,
      "secret": 7665,
      "nk": 7666,
      "tur": 7667,
      "traders": 7668,
      "xx": 7669,
      "managed": 7670,
      "wire": 7671,
      "$$": 7672,
      "ju": 7673,
      "^*": 7674,
      "dealers": 7675,
      "##centr": 7676,
      "tech": 7677,
      "##ii": 7678,
      "/$": 7679,
      "km": 7680,
      "experienced": 7681,
      "franc": 7682,
      "wo": 7683,
      "?#": 7684,
      "summar": 7685,
      "^%": 7686,
      "consumers": 7687,
      "##lim": 7688,
      "evaluate": 7689,
      "performing": 7690,
      "registrants": 7691,
      "\"\"": 7692,
      "merch": 7693,
      "uses": 7694,
      ":&": 7695,
      "manner": 7696,
      ")\"": 7697,
      "fa": 7698,
      "fn": 7699,
      "##uck": 7700,
      "enforce": 7701,
      ".[": 7702,
      "korea": 7703,
      "seven": 7704,
      ">&": 7705,
      "talks": 7706,
      "vw": 7707,
      "compos": 7708,
      "lg": 7709,
      "##zz": 7710,
      "actually": 7711,
      "[[": 7712,
      "tp": 7713,
      "complex": 7714,
      "whole": 7715,
      ")'": 7716,
      "_m": 7717,
      "showed": 7718,
      "oc": 7719,
      "zip": 7720,
      "budg": 7721,
      "##aland": 7722,
      "];": 7723,
      "fm": 7724,
      "]-": 7725,
      "commitment": 7726,
      "_g": 7727,
      ":\"": 7728,
      "sq": 7729,
      "irs": 7730,
      "/[": 7731,
      "equivalent": 7732,
      "dt": 7733,
      "##iture": 7734,
      "##ett": 7735,
      "constitut": 7736,
      "\"#": 7737,
      "\\^": 7738,
      "@\"": 7739,
      "differences": 7740,
      "providers": 7741,
      "eqa": 7742,
      "%;": 7743,
      ".*": 7744,
      "inher": 7745,
      "`%%%%": 7746,
      "totaled": 7747,
      "scheduled": 7748,
      "purpose": 7749,
      "consulting": 7750,
      "x_": 7751,
      "##oy": 7752,
      "solic": 7753,
      "^&": 7754,
      "tt": 7755,
      ">|": 7756,
      "rising": 7757,
      "advance": 7758,
      "bg": 7759,
      "engineering": 7760,
      "'\\": 7761,
      "##roll": 7762,
      "##ways": 7763,
      "publicly": 7764,
      "worth": 7765,
      "judgment": 7766,
      "developing": 7767,
      "##views": 7768,
      "dbt": 7769,
      "sug": 7770,
      "indirect": 7771,
      "owners": 7772,
      ";?": 7773,
      "t_": 7774,
      "harm": 7775,
      "dro": 7776,
      "##ense": 7777,
      "wind": 7778,
      "<'": 7779,
      "permitted": 7780,
      "\\,": 7781,
      "gc": 7782,
      "ky": 7783,
      "occup": 7784,
      "nr": 7785,
      "//": 7786,
      "##iously": 7787,
      ":]": 7788,
      "confir": 7789,
      "hp": 7790,
      "owner": 7791,
      "pb": 7792,
      "##des": 7793,
      "hospital": 7794,
      "kb": 7795,
      "tz": 7796,
      "']": 7797,
      "_q": 7798,
      "vy": 7799,
      "##gress": 7800,
      "macro": 7801,
      "mut": 7802,
      "discretion": 7803,
      "##enn": 7804,
      "delivered": 7805,
      "pand": 7806,
      "adequate": 7807,
      "ix": 7808,
      "gz": 7809,
      "tl": 7810,
      "\\.": 7811,
      "['": 7812,
      "remed": 7813,
      "\\-": 7814,
      "raised": 7815,
      "rad": 7816,
      "enterprise": 7817,
      "university": 7818,
      "i_": 7819,
      "vk": 7820,
      "##rolling": 7821,
      ";;": 7822,
      "y_": 7823,
      "quoted": 7824,
      "##anged": 7825,
      "ds": 7826,
      "ug": 7827,
      ">(": 7828,
      "gw": 7829,
      "&!": 7830,
      "kg": 7831,
      ":[": 7832,
      ";>": 7833,
      ":=": 7834,
      "_t": 7835,
      "tg": 7836,
      "dates": 7837,
      "sd": 7838,
      "->": 7839,
      "##ently": 7840,
      "]=": 7841,
      "rl": 7842,
      "filer": 7843,
      "##ck": 7844,
      "housing": 7845,
      "kk": 7846,
      ";=": 7847,
      "kz": 7848,
      ";]": 7849,
      "##ban": 7850,
      "!'": 7851,
      "zealand": 7852,
      "variety": 7853,
      "^\"": 7854,
      "##empt": 7855,
      "strategies": 7856,
      "compete": 7857,
      "paul": 7858,
      "dh": 7859,
      "[;": 7860,
      "reach": 7861,
      "tu": 7862,
      "borrowing": 7863,
      "%%%": 7864,
      "manufacturers": 7865,
      "vac": 7866,
      "dg": 7867,
      "reclass": 7868,
      "pending": 7869,
      "##ervices": 7870,
      "highest": 7871,
      "vt": 7872,
      "dv": 7873,
      ")!": 7874,
      "advanced": 7875,
      "\\\\": 7876,
      "allocated": 7877,
      "kp": 7878,
      "definitive": 7879,
      "backed": 7880,
      "gv": 7881,
      "soliciting": 7882,
      "sx": 7883,
      "iz": 7884,
      "zl": 7885,
      "_n": 7886,
      "wt": 7887,
      "tq": 7888,
      "dm": 7889,
      "contribution": 7890,
      "##vey": 7891,
      "vq": 7892,
      "integrated": 7893,
      "?>": 7894,
      ":;": 7895,
      "hour": 7896,
      "?$": 7897,
      "gt": 7898,
      "breakingviews": 7899,
      "export": 7900,
      ">?": 7901,
      "concentr": 7902,
      "^+": 7903,
      "connect": 7904,
      "^;": 7905,
      "`\"": 7906,
      "kv": 7907,
      "^)": 7908,
      "zg": 7909,
      "consolidation": 7910,
      "once": 7911,
      "##abilities": 7912,
      "hv": 7913,
      "kh": 7914,
      "au": 7915,
      "<$": 7916,
      "qq": 7917,
      "developments": 7918,
      "?+": 7919,
      "accur": 7920,
      "multi": 7921,
      "copper": 7922,
      "wholes": 7923,
      "quick": 7924,
      "[\\": 7925,
      "##ka": 7926,
      "pounds": 7927,
      "[/": 7928,
      "';": 7929,
      "subordinated": 7930,
      "salary": 7931,
      "weather": 7932,
      "saw": 7933,
      "stories": 7934,
      "&]": 7935,
      "cw": 7936,
      ":-": 7937,
      "pop": 7938,
      "##@@": 7939,
      "neut": 7940,
      "enhance": 7941,
      "bs": 7942,
      "##eg": 7943,
      "governance": 7944,
      "allocation": 7945,
      "indenture": 7946,
      "bring": 7947,
      "ff": 7948,
      "kj": 7949,
      "_b": 7950,
      "rt": 7951,
      ":'": 7952,
      "germany": 7953,
      "##com": 7954,
      "eth": 7955,
      "##oph": 7956,
      ",$": 7957,
      "!$": 7958,
      "disclosed": 7959,
      ">>": 7960,
      "cris": 7961,
      "obtained": 7962,
      "dw": 7963,
      "##ada": 7964,
      "chemical": 7965,
      "=$": 7966,
      "micro": 7967,
      "iq": 7968,
      "/;": 7969,
      "]!": 7970,
      "currencies": 7971,
      "('": 7972,
      "vested": 7973,
      "bearing": 7974,
      "v_": 7975,
      "vd": 7976,
      ";[": 7977,
      "#\"": 7978,
      "=+": 7979,
      "##part": 7980,
      "recognize": 7981,
      "undert": 7982,
      "speed": 7983,
      ")+": 7984,
      "identify": 7985,
      "%-": 7986,
      "##": 7987,
      "unf": 7988,
      "tj": 7989,
      "xc": 7990,
      "-+": 7991,
      "force": 7992,
      "ni": 7993,
      "breach": 7994,
      "-;": 7995,
      "<>": 7996,
      "%%": 7997,
      "drop": 7998,
      "=;": 7999,
      "offered": 8000,
      "##ancy": 8001,
      "?;": 8002,
      "##ears": 8003,
      "xp": 8004,
      "advisory": 8005,
      "expir": 8006,
      "thereto": 8007,
      "##urg": 8008,
      "provider": 8009,
      "mentioned": 8010,
      "ire": 8011,
      "$&": 8012,
      "ig": 8013,
      "[#": 8014,
      "=:": 8015,
      "yields": 8016,
      "text": 8017,
      "h_": 8018,
      "##ming": 8019,
      "]'": 8020,
      "^$": 8021,
      "p_": 8022,
      "pk": 8023,
      "`%%%%`!": 8024,
      "&/": 8025,
      "=-": 8026,
      "transm": 8027,
      "offerings": 8028,
      "released": 8029,
      "uz": 8030,
      "/+": 8031,
      "$=": 8032,
      "_l": 8033,
      "-)": 8034,
      "assist": 8035,
      "gj": 8036,
      "-.": 8037,
      "&$": 8038,
      "ru": 8039,
      "recomm": 8040,
      "'/": 8041,
      "(/": 8042,
      "%>": 8043,
      "n_": 8044,
      "'!": 8045,
      "willi": 8046,
      "hereto": 8047,
      "mill": 8048,
      "ensure": 8049,
      "(^": 8050,
      "geor": 8051,
      ":^": 8052,
      "dependent": 8053,
      "]\\": 8054,
      "potentially": 8055,
      "placement": 8056,
      "weakness": 8057,
      "ang": 8058,
      "uc": 8059,
      "rap": 8060,
      "[*": 8061,
      "bv": 8062,
      "?/": 8063,
      "win": 8064,
      "conducted": 8065,
      "determination": 8066,
      "_j": 8067,
      "#^": 8068,
      "prospects": 8069,
      "/\"": 8070,
      ".>": 8071,
      "_d": 8072,
      ":*": 8073,
      "$'": 8074,
      "qs": 8075,
      "uj": 8076,
      "agricultural": 8077,
      "fg": 8078,
      "##ontrolling": 8079,
      "jz": 8080,
      "ez": 8081,
      "<^": 8082,
      "')": 8083,
      "engage": 8084,
      "create": 8085,
      "##esh": 8086,
      "hj": 8087,
      "neutral": 8088,
      "##ida": 8089,
      "/!": 8090,
      "furnished": 8091,
      "\\*": 8092,
      "^=": 8093,
      "e_": 8094,
      "hr": 8095,
      "<=": 8096,
      "-&": 8097,
      "=^": 8098,
      ",'": 8099,
      "=)": 8100,
      "(.": 8101,
      "#\\": 8102,
      "^-": 8103,
      "effectively": 8104,
      "district": 8105,
      "##oo": 8106,
      "governmental": 8107,
      "penalties": 8108,
      "hedging": 8109,
      "cj": 8110,
      "wn": 8111,
      "yh": 8112,
      "?'": 8113,
      "cq": 8114,
      "&%": 8115,
      ")]": 8116,
      "retained": 8117,
      "^:": 8118,
      "#!": 8119,
      "-:": 8120,
      ")#": 8121,
      "calcul": 8122,
      ")&": 8123,
      "/-": 8124,
      "ih": 8125,
      "a_": 8126,
      ">*": 8127,
      "ireland": 8128,
      "xj": 8129,
      "wes": 8130,
      "bj": 8131,
      "ws": 8132,
      "+:": 8133,
      "maturities": 8134,
      "xn": 8135,
      "^>": 8136,
      "write": 8137,
      "%?": 8138,
      ".(": 8139,
      "station": 8140,
      "\\:": 8141,
      "cle": 8142,
      "$?": 8143,
      "happ": 8144,
      "deutsche": 8145,
      "<\\": 8146,
      "va": 8147,
      ",\\": 8148,
      "+;": 8149,
      "sj": 8150,
      "underwriting": 8151,
      "jk": 8152,
      "##junct": 8153,
      "##state": 8154,
      "consists": 8155,
      "makes": 8156,
      "specif": 8157,
      "jj": 8158,
      "\\]": 8159,
      "`-": 8160,
      "pj": 8161,
      ":#": 8162,
      "performed": 8163,
      "bln": 8164,
      "integration": 8165,
      "crisis": 8166,
      "exam": 8167,
      "##))))": 8168,
      "##ught": 8169,
      "&.": 8170,
      ")$": 8171,
      "##ri": 8172,
      "uq": 8173,
      ",?": 8174,
      "qv": 8175,
      "'[": 8176,
      "##bor": 8177,
      "ql": 8178,
      ".$": 8179,
      "wk": 8180,
      ":+": 8181,
      "consumm": 8182,
      "*/": 8183,
      "fte": 8184,
      "#'": 8185,
      "noncontrolling": 8186,
      ".?": 8187,
      "doing": 8188,
      "nuc": 8189,
      "##ift": 8190,
      "output": 8191,
      "patient": 8192,
      "ld": 8193,
      "=]": 8194,
      "rv": 8195,
      "train": 8196,
      "]&": 8197,
      "libor": 8198,
      "\\$": 8199,
      "/)": 8200,
      "oj": 8201,
      "?%": 8202,
      "rn": 8203,
      "!]": 8204,
      "+\"": 8205,
      "clo": 8206,
      "oy": 8207,
      "\\(": 8208,
      "##(`\"``@`(`\"``@`": 8209,
      "/%": 8210,
      "content": 8211,
      "pw": 8212,
      "##with": 8213,
      "_u": 8214,
      "charged": 8215,
      "!)": 8216,
      "cit": 8217,
      "##ago": 8218,
      "-=": 8219,
      "lk": 8220,
      "correct": 8221,
      "##emp": 8222,
      "([": 8223,
      "!^": 8224,
      "xy": 8225,
      "<]": 8226,
      "somet": 8227,
      "##elf": 8228,
      "spl": 8229,
      "/?": 8230,
      "j_": 8231,
      "##resp": 8232,
      "locations": 8233,
      "watch": 8234,
      "qw": 8235,
      "zm": 8236,
      "^#": 8237,
      "declared": 8238,
      "@\\": 8239,
      ">-": 8240,
      "^.": 8241,
      "*]": 8242,
      "jn": 8243,
      "':": 8244,
      "%(": 8245,
      "-?": 8246,
      "zn": 8247,
      "dx": 8248,
      "probably": 8249,
      "owns": 8250,
      "hz": 8251,
      "involved": 8252,
      "##aker": 8253,
      "ship": 8254,
      "feet": 8255,
      "amendments": 8256,
      "##urer": 8257,
      "?,": 8258,
      "expressed": 8259,
      "kq": 8260,
      "?\"": 8261,
      "outperform": 8262,
      "og": 8263,
      "##iwan": 8264,
      ".;": 8265,
      "_h": 8266,
      "targets": 8267,
      "mass": 8268,
      "disru": 8269,
      "+^": 8270,
      "$#": 8271,
      "ew": 8272,
      "##edd": 8273,
      ")^": 8274,
      "'.": 8275,
      "+>": 8276,
      "taiwan": 8277,
      "ik": 8278,
      "aj": 8279,
      "[+": 8280,
      "interp": 8281,
      "hw": 8282,
      "-%": 8283,
      "##pped": 8284,
      "doubt": 8285,
      "_s": 8286,
      "-]": 8287,
      "japanese": 8288,
      "\"$": 8289,
      ".....": 8290,
      "!%": 8291,
      "/:": 8292,
      "jw": 8293,
      "##respond": 8294,
      "=#": 8295,
      "%+": 8296,
      "-(": 8297,
      "\\=": 8298,
      "\"?": 8299,
      "...............................................................................": 8300,
      "vz": 8301,
      "robert": 8302,
      "##eut": 8303,
      "applied": 8304,
      "_c": 8305,
      "correspond": 8306,
      "<;": 8307,
      "arrangement": 8308,
      "jobs": 8309,
      "trend": 8310,
      "##ille": 8311,
      "auto": 8312,
      "ua": 8313,
      "yg": 8314,
      "rj": 8315,
      ":$": 8316,
      "log": 8317,
      "#]": 8318,
      "client": 8319,
      "(,": 8320,
      "##iations": 8321,
      "##ino": 8322,
      "apply": 8323,
      "preparation": 8324,
      "@+": 8325,
      "[\"": 8326,
      "!/": 8327,
      "zu": 8328,
      "parts": 8329,
      "evidence": 8330,
      "negatively": 8331,
      "!\"": 8332,
      "colum": 8333,
      "stan": 8334,
      "px": 8335,
      "ay": 8336,
      "/&": 8337,
      "xv": 8338,
      "spok": 8339,
      "vary": 8340,
      "`/": 8341,
      "solid": 8342,
      "[&": 8343,
      "terminated": 8344,
      "(]": 8345,
      "zw": 8346,
      "qt": 8347,
      "cur": 8348,
      "/@": 8349,
      "$-": 8350,
      "rg": 8351,
      "fw": 8352,
      "susp": 8353,
      "zc": 8354,
      "ka": 8355,
      "!(": 8356,
      "$]": 8357,
      "uh": 8358,
      "==": 8359,
      "(@": 8360,
      "wq": 8361,
      "!\\": 8362,
      "r_": 8363,
      "occurred": 8364,
      "vj": 8365,
      "lb": 8366,
      "`#": 8367,
      "zy": 8368,
      "pandemic": 8369,
      "cu": 8370,
      "<#": 8371,
      "ls": 8372,
      "]%": 8373,
      "py": 8374,
      ">]": 8375,
      "hm": 8376,
      "wz": 8377,
      "(\\": 8378,
      "d_": 8379,
      "hc": 8380,
      "wv": 8381,
      "\\;": 8382,
      "updates": 8383,
      "uv": 8384,
      "`'": 8385,
      "yy": 8386,
      "##ony": 8387,
      "#(": 8388,
      "&,": 8389,
      ",(": 8390,
      "travel": 8391,
      "conver": 8392,
      "$@": 8393,
      "-!": 8394,
      "nu": 8395,
      "wj": 8396,
      "##-----": 8397,
      "qz": 8398,
      "?-": 8399,
      "%=": 8400,
      "tf": 8401,
      "'?": 8402,
      "zt": 8403,
      "=%": 8404,
      "slide": 8405,
      "raw": 8406,
      "specifically": 8407,
      "types": 8408,
      ">;": 8409,
      ">)": 8410,
      "representing": 8411,
      "obv": 8412,
      "qx": 8413,
      "gg": 8414,
      "hd": 8415,
      "tb": 8416,
      "xk": 8417,
      "+?": 8418,
      "+$": 8419,
      "_a": 8420,
      "%'": 8421,
      "tradem": 8422,
      ";/": 8423,
      "&>": 8424,
      ":\\": 8425,
      "mom": 8426,
      ">%": 8427,
      ";+": 8428,
      "iw": 8429,
      "++": 8430,
      ";\"": 8431,
      "vv": 8432,
      "*,": 8433,
      "dealer": 8434,
      "$\\": 8435,
      "gf": 8436,
      "vg": 8437,
      "uw": 8438,
      "entr": 8439,
      "gx": 8440,
      "&?": 8441,
      "&\"": 8442,
      ";#": 8443,
      "alm": 8444,
      "#;": 8445,
      "pq": 8446,
      "*\\": 8447,
      "nx": 8448,
      ";\\": 8449,
      ",=": 8450,
      "fv": 8451,
      "emrg": 8452,
      "#?": 8453,
      "!;": 8454,
      "rw": 8455,
      "+=": 8456,
      "statutory": 8457,
      "\\)": 8458,
      "ue": 8459,
      ">^": 8460,
      "+&": 8461,
      "secretary": 8462,
      "^@": 8463,
      "fj": 8464,
      "?=": 8465,
      "+/": 8466,
      "\"/": 8467,
      ",)": 8468,
      "##ervable": 8469,
      "'%": 8470,
      "+*": 8471,
      "wu": 8472,
      "+]": 8473,
      "planning": 8474,
      "()": 8475,
      "email": 8476,
      "cho": 8477,
      "thereof": 8478,
      "=*": 8479,
      "ie": 8480,
      "flor": 8481,
      "##ulf": 8482,
      "<[": 8483,
      "##hern": 8484,
      "%/": 8485,
      ">+": 8486,
      "\">": 8487,
      "%:": 8488,
      "##ancing": 8489,
      "human": 8490,
      "ij": 8491,
      "sharp": 8492,
      "\":": 8493,
      "gq": 8494,
      ">$": 8495,
      "#@": 8496,
      "#/": 8497,
      "audits": 8498,
      "'(": 8499,
      "kt": 8500,
      "jump": 8501,
      "reli": 8502,
      "ck": 8503,
      "mineral": 8504,
      "bf": 8505,
      ":)": 8506,
      ",>": 8507,
      "yk": 8508,
      "moving": 8509,
      "(!": 8510,
      "trustee": 8511,
      ")\\": 8512,
      "\"*": 8513,
      "od": 8514,
      "frame": 8515,
      "impaired": 8516,
      "zk": 8517,
      "=!": 8518,
      "mail": 8519,
      ".]": 8520,
      "devices": 8521,
      "advances": 8522,
      "+#": 8523,
      "decisions": 8524,
      ":.": 8525,
      ")?": 8526,
      "eh": 8527,
      "=,": 8528,
      ",;": 8529,
      "computer": 8530,
      "gam": 8531,
      "lost": 8532,
      "rk": 8533,
      "blue": 8534,
      "networks": 8535,
      "',": 8536,
      "_r": 8537,
      "@?": 8538,
      ">[": 8539,
      "jd": 8540,
      "`(": 8541,
      "/>": 8542,
      "yq": 8543,
      "=========": 8544,
      ",/": 8545,
      "southern": 8546,
      "rx": 8547,
      "=[": 8548,
      "'&": 8549,
      "studies": 8550,
      "df": 8551,
      "ux": 8552,
      "-^": 8553,
      "guarantee": 8554,
      "qn": 8555,
      "budget": 8556,
      "tier": 8557,
      ")=": 8558,
      "rq": 8559,
      "\\'": 8560,
      "jm": 8561,
      "uf": 8562,
      "\\%": 8563,
      "block": 8564,
      "+\\": 8565,
      "designated": 8566,
      "`.": 8567,
      "anti": 8568,
      "\\#": 8569,
      "](": 8570,
      "lh": 8571,
      "oq": 8572,
      "artic": 8573,
      "xm": 8574,
      "dz": 8575,
      "*+": 8576,
      "road": 8577,
      "degree": 8578,
      "uy": 8579,
      "pz": 8580,
      "cross": 8581,
      "@^": 8582,
      "too": 8583,
      "<-": 8584,
      "&:": 8585,
      "accrual": 8586,
      "/,": 8587,
      "richard": 8588,
      ".&": 8589,
      "yuan": 8590,
      "lj": 8591,
      "##ubl": 8592,
      "bw": 8593,
      "#:": 8594,
      "vc": 8595,
      "@]": 8596,
      "poor": 8597,
      "referred": 8598,
      "*#": 8599,
      "![": 8600,
      "yj": 8601,
      "@'": 8602,
      "jt": 8603,
      "%]": 8604,
      "yx": 8605,
      "hn": 8606,
      "began": 8607,
      "spot": 8608,
      "russia": 8609,
      "'#": 8610,
      "struct": 8611,
      "xz": 8612,
      "wc": 8613,
      "##gen": 8614,
      "[(": 8615,
      "[,": 8616,
      "rb": 8617,
      "goldman": 8618,
      "<:": 8619,
      "rp": 8620,
      ",]": 8621,
      "kc": 8622,
      "leased": 8623,
      "##ater": 8624,
      "counterpart": 8625,
      "f_": 8626,
      ",@": 8627,
      "##^^^^^^^^^^^^^^^^^^^^^^^^^^^^^^^^": 8628,
      "rf": 8629,
      "%%%%": 8630,
      "llp": 8631,
      "reimbursement": 8632,
      "$>": 8633,
      "hq": 8634,
      "minister": 8635,
      "@$": 8636,
      "]\"": 8637,
      "called": 8638,
      "!@": 8639,
      "determining": 8640,
      "zo": 8641,
      "wd": 8642,
      "rc": 8643,
      "##ici": 8644,
      "zz": 8645,
      "&*": 8646,
      "flex": 8647,
      "yn": 8648,
      "dk": 8649,
      "responsibility": 8650,
      "kf": 8651,
      "fz": 8652,
      "*'": 8653,
      "purchas": 8654,
      "vp": 8655,
      "industrials": 8656,
      "@>": 8657,
      "xh": 8658,
      "lawsu": 8659,
      "cancer": 8660,
      "larger": 8661,
      "numbers": 8662,
      "wp": 8663,
      "aq": 8664,
      "l_": 8665,
      ")>": 8666,
      "xb": 8667,
      "*^": 8668,
      "tender": 8669,
      "ek": 8670,
      "@-": 8671,
      "fitch": 8672,
      "severance": 8673,
      "##ats": 8674,
      "bz": 8675,
      "delays": 8676,
      "*[": 8677,
      "hotel": 8678,
      "words": 8679,
      "*$": 8680,
      "wx": 8681,
      "\"+": 8682,
      "offers": 8683,
      "lm": 8684,
      "bancorp": 8685,
      "$,": 8686,
      "advantage": 8687,
      "esp": 8688,
      "christ": 8689,
      "mine": 8690,
      "shipping": 8691,
      "_f": 8692,
      "cyc": 8693,
      "objectives": 8694,
      "xq": 8695,
      "##craft": 8696,
      ">\"": 8697,
      "vide": 8698,
      "organizations": 8699,
      "wholesale": 8700,
      "rapid": 8701,
      "&[": 8702,
      "$\"": 8703,
      "-*": 8704,
      "qy": 8705,
      "entergy": 8706,
      "xt": 8707,
      "therapeut": 8708,
      "vf": 8709,
      "##iana": 8710,
      "credits": 8711,
      "counsel": 8712,
      "prepaid": 8713,
      "'\"": 8714,
      "^,": 8715,
      ".@": 8716,
      "ci": 8717,
      ".+": 8718,
      "##aq": 8719,
      "vehicles": 8720,
      "-\\": 8721,
      "##point": 8722,
      ",^": 8723,
      "reinsurance": 8724,
      ">=": 8725,
      "impos": 8726,
      "iy": 8727,
      "prime": 8728,
      "%*": 8729,
      "executives": 8730,
      "commer": 8731,
      "@=": 8732,
      "##grad": 8733,
      "$:": 8734,
      ";.": 8735,
      "noted": 8736,
      "&-": 8737,
      "##ream": 8738,
      ")[": 8739,
      "##no": 8740,
      "ej": 8741,
      "threat": 8742,
      "&@": 8743,
      "$/": 8744,
      ",,": 8745,
      "sets": 8746,
      "##eding": 8747,
      "nuclear": 8748,
      "qg": 8749,
      "zd": 8750,
      "'=": 8751,
      "*.": 8752,
      "'$": 8753,
      "?!": 8754,
      "scale": 8755,
      "qk": 8756,
      "uu": 8757,
      "confidence": 8758,
      ">#": 8759,
      "xd": 8760,
      "branch": 8761,
      "reorgan": 8762,
      "##interest": 8763,
      "yz": 8764,
      "prelim": 8765,
      "wl": 8766,
      "ple": 8767,
      "##vals": 8768,
      "#)": 8769,
      "<,": 8770,
      "audited": 8771,
      "dur": 8772,
      "reduc": 8773,
      "vend": 8774,
      "ys": 8775,
      "##con": 8776,
      "`,": 8777,
      "spr": 8778,
      "ubs": 8779,
      "rein": 8780,
      "suite": 8781,
      "/*": 8782,
      "[)": 8783,
      "#[": 8784,
      ":,": 8785,
      "##ifications": 8786,
      "boe": 8787,
      "rz": 8788,
      "eight": 8789,
      "+[": 8790,
      "#=": 8791,
      "zj": 8792,
      "ventures": 8793,
      ":!": 8794,
      "(*": 8795,
      "specialty": 8796,
      "lw": 8797,
      "damages": 8798,
      "@.": 8799,
      "lou": 8800,
      ".!": 8801,
      "=\\": 8802,
      "+%": 8803,
      "?*": 8804,
      "##ledge": 8805,
      "*>": 8806,
      "monetary": 8807,
      "expiration": 8808,
      "\\[": 8809,
      "processes": 8810,
      "qj": 8811,
      "stable": 8812,
      "\"-": 8813,
      "qm": 8814,
      "qr": 8815,
      "xl": 8816,
      "##acter": 8817,
      "vehicle": 8818,
      "##irst": 8819,
      "*?": 8820,
      "vu": 8821,
      "'>": 8822,
      "xr": 8823,
      "zv": 8824,
      "adding": 8825,
      "[!": 8826,
      "jl": 8827,
      "reut": 8828,
      "forex": 8829,
      "-[": 8830,
      "expire": 8831,
      "extension": 8832,
      "$%": 8833,
      ";*": 8834,
      "%^": 8835,
      "@;": 8836,
      "yw": 8837,
      "%#": 8838,
      ":%": 8839,
      "xs": 8840,
      ".^": 8841,
      "jq": 8842,
      "difference": 8843,
      "vr": 8844,
      "`)": 8845,
      "#$": 8846,
      "arising": 8847,
      "obviously": 8848,
      "category": 8849,
      "color": 8850,
      "/.": 8851,
      "wide": 8852,
      "+,": 8853,
      "calculation": 8854,
      "##iy": 8855,
      "qd": 8856,
      "##ception": 8857,
      "capabilities": 8858,
      "##oles": 8859,
      "]$": 8860,
      "$;": 8861,
      ",:": 8862,
      "##dict": 8863,
      "hg": 8864,
      "mun": 8865,
      "zq": 8866,
      ";)": 8867,
      "portug": 8868,
      "(;": 8869,
      "##ero": 8870,
      "@:": 8871,
      "regular": 8872,
      "funded": 8873,
      "[@": 8874,
      "?(": 8875,
      "#+": 8876,
      "+)": 8877,
      "sole": 8878,
      "fb": 8879,
      "#*": 8880,
      "##itional": 8881,
      "##ica": 8882,
      "*=": 8883,
      "invested": 8884,
      "+(": 8885,
      "settle": 8886,
      "gk": 8887,
      "version": 8888,
      "sports": 8889,
      "##ience": 8890,
      "kx": 8891,
      "esc": 8892,
      "##isable": 8893,
      "/=": 8894,
      "mach": 8895,
      "analy": 8896,
      "centers": 8897,
      ",!": 8898,
      "\"]": 8899,
      "tor": 8900,
      "^!": 8901,
      "billions": 8902,
      ",+": 8903,
      "efficiency": 8904,
      "#&": 8905,
      "yv": 8906,
      "sees": 8907,
      "royalty": 8908,
      ",%": 8909,
      "%\"": 8910,
      "=(": 8911,
      "disposal": 8912,
      "*%": 8913,
      "extern": 8914,
      "##ana": 8915,
      "##emember": 8916,
      "yc": 8917,
      "@/": 8918,
      "chic": 8919,
      "`&": 8920,
      "##oxx": 8921,
      "concer": 8922,
      "!&": 8923,
      "host": 8924,
      "$^": 8925,
      "xg": 8926,
      "dq": 8927,
      "!=": 8928,
      "dp": 8929,
      "almost": 8930,
      "demon": 8931,
      "@*": 8932,
      "##ha": 8933,
      "\";": 8934,
      "@(": 8935,
      "aircraft": 8936,
      "sport": 8937,
      "projections": 8938,
      "exercised": 8939,
      "bq": 8940,
      "chip": 8941,
      "<*": 8942,
      "##ho": 8943,
      "conform": 8944,
      "*:": 8945,
      "\\@": 8946,
      "%&": 8947,
      "lives": 8948,
      "!:": 8949,
      "periodic": 8950,
      "&&": 8951,
      "wg": 8952,
      "numer": 8953,
      "fif": 8954,
      "<+": 8955,
      "yl": 8956,
      "\"%": 8957,
      "<@": 8958,
      "xw": 8959,
      "clar": 8960,
      "*!": 8961,
      "'*": 8962,
      "demonstr": 8963,
      "*;": 8964,
      "!?": 8965,
      "topic": 8966,
      "##west": 8967,
      "##after": 8968,
      "##ides": 8969,
      "qc": 8970,
      "##________________________________": 8971,
      "moment": 8972,
      "partnerships": 8973,
      "%[": 8974,
      "hl": 8975,
      "##endar": 8976,
      "#,": 8977,
      ">@": 8978,
      "#%": 8979,
      "b_": 8980,
      "&^": 8981,
      "*@": 8982,
      "affiliate": 8983,
      "?.": 8984,
      "ym": 8985,
      "needed": 8986,
      "##ike": 8987,
      "$)": 8988,
      "remained": 8989,
      "sum": 8990,
      "participation": 8991,
      "&'": 8992,
      "+-": 8993,
      "hx": 8994,
      "franchise": 8995,
      ";,": 8996,
      "foregoing": 8997,
      "annually": 8998,
      ",*": 8999,
      "lifest": 9000,
      "relatively": 9001,
      "calendar": 9002,
      ".\\": 9003,
      "##cast": 9004,
      "?&": 9005,
      "qp": 9006,
      "[$": 9007,
      "metric": 9008,
      "often": 9009,
      "helped": 9010,
      ";!": 9011,
      "##under": 9012,
      "caution": 9013,
      "fteu": 9014,
      "?)": 9015,
      ";(": 9016,
      "character": 9017,
      "\"&": 9018,
      "collectively": 9019,
      ".%": 9020,
      ">\\": 9021,
      "produce": 9022,
      "bad": 9023,
      "fle": 9024,
      "lack": 9025,
      "ub": 9026,
      "jy": 9027,
      "prepay": 9028,
      "hb": 9029,
      "'+": 9030,
      "whose": 9031,
      "&(": 9032,
      "situ": 9033,
      "mart": 9034,
      "\"\\": 9035,
      "wb": 9036,
      ",[": 9037,
      "\\!": 9038,
      "rservices": 9039,
      "\"^": 9040,
      "vh": 9041,
      "xi": 9042,
      "yo": 9043,
      "%\\": 9044,
      "ae": 9045,
      "atl": 9046,
      "ffo": 9047,
      ",-": 9048,
      "sure": 9049,
      "electronic": 9050,
      "&\\": 9051,
      "\"[": 9052,
      "##junction": 9053,
      "florida": 9054,
      "tmt": 9055,
      "?@": 9056,
      "discover": 9057,
      "unl": 9058,
      ".=": 9059,
      "##ffer": 9060,
      "listing": 9061,
      "ud": 9062,
      "pretty": 9063,
      "zs": 9064,
      "\\\"": 9065,
      "outcome": 9066,
      "ai": 9067,
      "minor": 9068,
      "vb": 9069,
      "##ications": 9070,
      "@[": 9071,
      "grants": 9072,
      ">!": 9073,
      "concerning": 9074,
      "exercisable": 9075,
      "jc": 9076,
      "*&": 9077,
      "lz": 9078,
      "swaps": 9079,
      "lifestyle": 9080,
      "zf": 9081,
      "'@": 9082,
      "rather": 9083,
      "##ville": 9084,
      "tangible": 9085,
      "assign": 9086,
      "wf": 9087,
      "+.": 9088,
      "(:": 9089,
      "grew": 9090,
      ",.": 9091,
      "##iff": 9092,
      "meast": 9093,
      "zx": 9094,
      "---------------------------------------------------------------------------": 9095,
      "hf": 9096,
      "supplies": 9097,
      "xu": 9098,
      "extend": 9099,
      "sort": 9100,
      "!#": 9101,
      "farm": 9102,
      "proposal": 9103,
      "wireless": 9104,
      "sho": 9105,
      "spokes": 9106,
      "+!": 9107,
      "##onsolid": 9108,
      "lq": 9109,
      "disease": 9110,
      "licenses": 9111,
      "#-": 9112,
      "\"=": 9113,
      "#>": 9114,
      "underst": 9115,
      "educ": 9116,
      "maintaining": 9117,
      "speak": 9118,
      "rup": 9119,
      "implementation": 9120,
      "<%": 9121,
      "engaged": 9122,
      "prohib": 9123,
      ":(": 9124,
      "\\&": 9125,
      "mtl": 9126,
      "&)": 9127,
      "lx": 9128,
      "js": 9129,
      "saying": 9130,
      "##mun": 9131,
      "preliminary": 9132,
      "represented": 9133,
      "factor": 9134,
      "!.": 9135,
      "yf": 9136,
      "(?": 9137,
      "explorer": 9138,
      "arg": 9139,
      "emb": 9140,
      "master": 9141,
      "@)": 9142,
      "motor": 9143,
      "&=": 9144,
      "!>": 9145,
      "jx": 9146,
      "$[": 9147,
      "##han": 9148,
      "expert": 9149,
      "sectors": 9150,
      "operates": 9151,
      ";@": 9152,
      "*-": 9153,
      "##ique": 9154,
      ",&": 9155,
      "!-": 9156,
      "-------------------------------------------------": 9157,
      "chicago": 9158,
      "$+": 9159,
      "ee": 9160,
      "!+": 9161,
      "video": 9162,
      "##aid": 9163,
      "tab": 9164,
      "comprised": 9165,
      "bkl": 9166,
      "stead": 9167,
      "inherent": 9168,
      "&;": 9169,
      "workers": 9170,
      "ei": 9171,
      "(=": 9172,
      "##iffs": 9173,
      "overview": 9174,
      "zb": 9175,
      "organic": 9176,
      "controlling": 9177,
      "expanded": 9178,
      "ground": 9179,
      "##itz": 9180,
      "##berg": 9181,
      "external": 9182,
      "##unt": 9183,
      "remo": 9184,
      "appe": 9185,
      "largely": 9186,
      "incremental": 9187,
      "##rain": 9188,
      "<)": 9189,
      "reductions": 9190,
      "!,": 9191,
      "kd": 9192,
      "search": 9193,
      "achieved": 9194,
      "jf": 9195,
      "rig": 9196,
      "xf": 9197,
      "australian": 9198,
      "##ibles": 9199,
      "done": 9200,
      "ber": 9201,
      ";$": 9202,
      "stanley": 9203,
      "##active": 9204,
      "bur": 9205,
      "defend": 9206,
      "!*": 9207,
      "]@": 9208,
      "<(": 9209,
      "rand": 9210,
      "roll": 9211,
      "servicing": 9212,
      "holds": 9213,
      "##eed": 9214,
      "##iced": 9215,
      "derived": 9216,
      "qh": 9217,
      "><": 9218,
      "=@": 9219,
      "yp": 9220,
      "fp": 9221,
      "$*": 9222,
      "##dictions": 9223,
      "plants": 9224,
      "jurisdictions": 9225,
      "history": 9226,
      "soon": 9227,
      "##dddd": 9228,
      "allows": 9229,
      "interpret": 9230,
      "oo": 9231,
      "milest": 9232,
      "!`": 9233,
      "latam": 9234,
      "became": 9235,
      "execution": 9236,
      "directory": 9237,
      "liquidation": 9238,
      "transmission": 9239,
      "user": 9240,
      "\"'": 9241,
      "pharmaceuticals": 9242,
      "rail": 9243,
      "seeking": 9244,
      "##argo": 9245,
      "submitted": 9246,
      "individuals": 9247,
      "iu": 9248,
      "limitation": 9249,
      "crown": 9250,
      "king": 9251,
      "western": 9252,
      "zone": 9253,
      "shown": 9254,
      "framework": 9255,
      "<\"": 9256,
      "aspx": 9257,
      "##izon": 9258,
      "opp": 9259,
      "_e": 9260,
      "schedules": 9261,
      "tenant": 9262,
      "*)": 9263,
      "arm": 9264,
      "##house": 9265,
      "--------": 9266,
      "brokerage": 9267,
      "(>": 9268,
      "rang": 9269,
      "%$": 9270,
      "fk": 9271,
      "##istic": 9272,
      "##field": 9273,
      "legislation": 9274,
      "forfe": 9275,
      "uo": 9276,
      "valued": 9277,
      "##atic": 9278,
      "knowledge": 9279,
      "-@": 9280,
      "gained": 9281,
      "wi": 9282,
      "jh": 9283,
      "appointed": 9284,
      "lr": 9285,
      "push": 9286,
      "##ama": 9287,
      "##ground": 9288,
      "+@": 9289,
      "converted": 9290,
      "damage": 9291,
      "anz": 9292,
      "bull": 9293,
      "influ": 9294,
      "&+": 9295,
      "official": 9296,
      "##opnews": 9297,
      "depending": 9298,
      "jb": 9299,
      "approvals": 9300,
      "tar": 9301,
      "excludes": 9302,
      "##la": 9303,
      "sp_p": 9304,
      "##wood": 9305,
      "reliance": 9306,
      "##ze": 9307,
      "clean": 9308,
      "%@": 9309,
      "##age_": 9310,
      "##_group": 9311,
      "lowest": 9312,
      "commissions": 9313,
      "ou": 9314,
      "##_group_": 9315,
      "##********": 9316,
      "disposition": 9317,
      "sp_page_": 9318,
      "sp_group_": 9319,
      "##stream": 9320,
      "thereafter": 9321,
      "attack": 9322,
      "frequ": 9323,
      "fraud": 9324,
      "discl": 9325,
      "##ki": 9326,
      "pagen": 9327,
      "problems": 9328,
      "##vent": 9329,
      "managers": 9330,
      "*(": 9331,
      "pagename": 9332,
      "newsxt": 9333,
      "newsxtopnews": 9334,
      "committed": 9335,
      "location": 9336,
      "sites": 9337,
      "prospectus": 9338,
      "signature": 9339,
      "##ta": 9340,
      "##chs": 9341,
      "nav": 9342,
      "`@": 9343,
      "##onduct": 9344,
      "symb": 9345,
      "intends": 9346,
      "`+": 9347,
      "ratios": 9348,
      "dist": 9349,
      "deter": 9350,
      "solicit": 9351,
      "rely": 9352,
      "controlled": 9353,
      "channel": 9354,
      "reached": 9355,
      "mand": 9356,
      "petrole": 9357,
      "##burg": 9358,
      "electronics": 9359,
      "heavy": 9360,
      "scre": 9361,
      "yb": 9362,
      "guarantees": 9363,
      "##hai": 9364,
      "repayment": 9365,
      "stay": 9366,
      "##ars": 9367,
      "@%": 9368,
      "electricity": 9369,
      "jeff": 9370,
      "@&": 9371,
      "county": 9372,
      "came": 9373,
      "age": 9374,
      "##`\"@`": 9375,
      "figures": 9376,
      "operated": 9377,
      "qf": 9378,
      "##ems": 9379,
      "pick": 9380,
      "records": 9381,
      "##ofirst": 9382,
      "totaling": 9383,
      "gulf": 9384,
      "terminate": 9385,
      "##onsolidated": 9386,
      "##ota": 9387,
      "exist": 9388,
      "##aps": 9389,
      "##di": 9390,
      "rock": 9391,
      "divest": 9392,
      "nev": 9393,
      "drugs": 9394,
      "##pective": 9395,
      "##uch": 9396,
      "##urrence": 9397,
      "historically": 9398,
      "allowed": 9399,
      "##ado": 9400,
      "goals": 9401,
      "peak": 9402,
      "petroleum": 9403,
      "lf": 9404,
      "##yo": 9405,
      "usa": 9406,
      "contingencies": 9407,
      "ifr": 9408,
      "manufacture": 9409,
      "telev": 9410,
      "contem": 9411,
      "carol": 9412,
      "suit": 9413,
      "commerce": 9414,
      "##ilt": 9415,
      "carryfor": 9416,
      "##place": 9417,
      "headqu": 9418,
      "thomas": 9419,
      "##encing": 9420,
      "_i": 9421,
      "tom": 9422,
      "##ime": 9423,
      "took": 9424,
      "concluded": 9425,
      "##illed": 9426,
      "cable": 9427,
      "encour": 9428,
      "translation": 9429,
      "intent": 9430,
      "ess": 9431,
      "introd": 9432,
      "modified": 9433,
      "##omb": 9434,
      "##================================": 9435,
      "ui": 9436,
      "stoxx": 9437,
      "espec": 9438,
      "louis": 9439,
      "split": 9440,
      "##itr": 9441,
      "##-------": 9442,
      "ti": 9443,
      "sequ": 9444,
      "especially": 9445,
      "valid": 9446,
      "##<>": 9447,
      "contributed": 9448,
      "##akes": 9449,
      "suffer": 9450,
      "old": 9451,
      ")@": 9452,
      "##let": 9453,
      "utilities": 9454,
      "tro": 9455,
      "##po": 9456,
      "affecting": 9457,
      "via": 9458,
      "##pro": 9459,
      "unrec": 9460,
      "redeemable": 9461,
      "shang": 9462,
      "##ania": 9463,
      "unch": 9464,
      "licensing": 9465,
      "##rew": 9466,
      "metal": 9467,
      "io": 9468,
      "participate": 9469,
      "versions": 9470,
      "eo": 9471,
      "superv": 9472,
      "groups": 9473,
      "stronger": 9474,
      "cancell": 9475,
      "##uese": 9476,
      "civ": 9477,
      "implied": 9478,
      "lien": 9479,
      "deduct": 9480,
      "##urofirst": 9481,
      "ftseurofirst": 9482,
      "couple": 9483,
      "starting": 9484,
      "scott": 9485,
      "geographic": 9486,
      "fra": 9487,
      "enable": 9488,
      "virgin": 9489,
      "##itting": 9490,
      "getting": 9491,
      "job": 9492,
      "requirement": 9493,
      "attractive": 9494,
      "permit": 9495,
      "portuguese": 9496,
      "collection": 9497,
      "towards": 9498,
      "scr": 9499,
      "declines": 9500,
      "numerous": 9501,
      "announcement": 9502,
      "##oming": 9503,
      "conjunction": 9504,
      "survey": 9505,
      "##abil": 9506,
      "producer": 9507,
      "limits": 9508,
      "leasing": 9509,
      "borrowers": 9510,
      "sachs": 9511,
      "shanghai": 9512,
      "reput": 9513,
      "##<=": 9514,
      "preceding": 9515,
      "challenges": 9516,
      "zp": 9517,
      "insider": 9518,
      "barcl": 9519,
      "eastern": 9520,
      "maintained": 9521,
      "changing": 9522,
      "fast": 9523,
      "grap": 9524,
      "device": 9525,
      "unpaid": 9526,
      "##<'": 9527,
      "respond": 9528,
      "##lb": 9529,
      "##ston": 9530,
      "tum": 9531,
      "xo": 9532,
      "##ognized": 9533,
      "##ave": 9534,
      "clc": 9535,
      "##asons": 9536,
      "noninterest": 9537,
      "##ros": 9538,
      "worr": 9539,
      "constant": 9540,
      "inception": 9541,
      "instrument": 9542,
      "backlog": 9543,
      "regulated": 9544,
      "guaranteed": 9545,
      "feel": 9546,
      "deutschland": 9547,
      "trump": 9548,
      "scope": 9549,
      "yi": 9550,
      "citig": 9551,
      "reflecting": 9552,
      "infring": 9553,
      "confl": 9554,
      "traditional": 9555,
      "zr": 9556,
      "something": 9557,
      "citigroup": 9558,
      "(`": 9559,
      "auction": 9560,
      "##iment": 9561,
      "generating": 9562,
      "##___": 9563,
      "prescr": 9564,
      "ji": 9565,
      "improving": 9566,
      "symbol": 9567,
      "ao": 9568,
      "\"`": 9569,
      "##isse": 9570,
      "letters": 9571,
      ".........": 9572,
      "err": 9573,
      "barclays": 9574,
      "amid": 9575,
      "wid": 9576,
      "enact": 9577,
      "understanding": 9578,
      "##<]": 9579,
      "mgmt": 9580,
      "unrecognized": 9581,
      "nevada": 9582,
      "answ": 9583,
      "qb": 9584,
      "opening": 9585,
      "##retirement": 9586,
      "##ourse": 9587,
      "##<\\": 9588,
      "managements": 9589,
      "constitute": 9590,
      "##eth": 9591,
      "qi": 9592,
      "`*`\"@`": 9593,
      "evaluated": 9594,
      "corresponding": 9595,
      "licensed": 9596,
      "cloud": 9597,
      "appointment": 9598,
      "tight": 9599,
      "unconsolidated": 9600,
      "##otive": 9601,
      "presents": 9602,
      "##<#": 9603,
      "##iders": 9604,
      "certification": 9605,
      "hyd": 9606,
      "regulators": 9607,
      "zi": 9608,
      "tonnes": 9609,
      "reuter": 9610,
      "##iary": 9611,
      "match": 9612,
      "judgments": 9613,
      "deep": 9614,
      "##angibles": 9615,
      "leader": 9616,
      "complying": 9617,
      "mainly": 9618,
      "goal": 9619,
      "smith": 9620,
      "paris": 9621,
      "contempl": 9622,
      "certainly": 9623,
      "intangibles": 9624,
      "pled": 9625,
      "confidential": 9626,
      "fairly": 9627,
      "##vested": 9628,
      "oe": 9629,
      "brv": 9630,
      "exports": 9631,
      "emea": 9632,
      "annualized": 9633,
      "institutional": 9634,
      "##pping": 9635,
      "social": 9636,
      "intr": 9637,
      "##ca": 9638,
      "##idge": 9639,
      "ya": 9640,
      "xe": 9641,
      "probable": 9642,
      "##loyment": 9643,
      "reducing": 9644,
      "##bu": 9645,
      "william": 9646,
      "ia": 9647,
      "solar": 9648,
      "##uish": 9649,
      "television": 9650,
      "mus": 9651,
      "nil": 9652,
      "immediate": 9653,
      "transferred": 9654,
      "ing": 9655,
      "produced": 9656,
      "grade": 9657,
      "leadership": 9658,
      "ri": 9659,
      "takeover": 9660,
      "entry": 9661,
      "paying": 9662,
      "##more": 9663,
      "##<^": 9664,
      "oi": 9665,
      "qe": 9666,
      "role": 9667,
      "denom": 9668,
      "telecommun": 9669,
      "secure": 9670,
      "brent": 9671,
      "bat": 9672,
      "methods": 9673,
      "unchanged": 9674,
      "oa": 9675,
      "automotive": 9676,
      "seasonal": 9677,
      "measurements": 9678,
      "discounted": 9679,
      "placed": 9680,
      "`>": 9681,
      "mutual": 9682,
      "solicitation": 9683,
      "announcing": 9684,
      "ea": 9685,
      "qo": 9686,
      "dyn": 9687,
      "guess": 9688,
      "ore": 9689,
      "shut": 9690,
      "started": 9691,
      "oversight": 9692,
      "repair": 9693,
      "##value": 9694,
      "##vin": 9695,
      "excluded": 9696,
      "guys": 9697,
      "##rill": 9698,
      "joining": 9699,
      "instruction": 9700,
      "inability": 9701,
      "fleet": 9702,
      "##bon": 9703,
      "italy": 9704,
      "##ompany": 9705,
      "=====": 9706,
      "deterior": 9707,
      "ecb": 9708,
      "homes": 9709,
      "pal": 9710,
      "facts": 9711,
      "agents": 9712,
      "depends": 9713,
      "##here": 9714,
      "##ster": 9715,
      "prompt": 9716,
      "##ll": 9717,
      "weaker": 9718,
      "ultimately": 9719,
      "models": 9720,
      "holid": 9721,
      "##ipped": 9722,
      "acceptance": 9723,
      "xa": 9724,
      "recommend": 9725,
      "oun": 9726,
      "suisse": 9727,
      "settled": 9728,
      "##<$": 9729,
      "earning": 9730,
      "ki": 9731,
      "carried": 9732,
      "detailed": 9733,
      "floor": 9734,
      "civil": 9735,
      "efficient": 9736,
      "cooper": 9737,
      "features": 9738,
      "hedges": 9739,
      "institution": 9740,
      "advisors": 9741,
      "pleased": 9742,
      "sand": 9743,
      "##ba": 9744,
      "meaningful": 9745,
      "executed": 9746,
      "room": 9747,
      "##ya": 9748,
      "##weight": 9749,
      "occupancy": 9750,
      "investigation": 9751,
      "brokers": 9752,
      "pace": 9753,
      "feed": 9754,
      "atlant": 9755,
      "giving": 9756,
      "##uel": 9757,
      "----------": 9758,
      "medicare": 9759,
      "##hore": 9760,
      "##oid": 9761,
      "consisted": 9762,
      "dilutive": 9763,
      "advisor": 9764,
      "self": 9765,
      "resolution": 9766,
      "##za": 9767,
      "airlines": 9768,
      "bridgest": 9769,
      "reverse": 9770,
      "##isco": 9771,
      "always": 9772,
      "profile": 9773,
      "reasons": 9774,
      "##ko": 9775,
      "semic": 9776,
      "debtors": 9777,
      "created": 9778,
      "securit": 9779,
      "##hi": 9780,
      "##aut": 9781,
      "##ste": 9782,
      "bott": 9783,
      "##oma": 9784,
      "---------------------------------------------------------": 9785,
      "##orney": 9786,
      "##cs": 9787,
      "allowances": 9788,
      "silver": 9789,
      "><.": 9790,
      "fer": 9791,
      "##aws": 9792,
      "distributors": 9793,
      "##va": 9794,
      "writing": 9795,
      "participant": 9796,
      "calls": 9797,
      "thousand": 9798,
      "manufacturer": 9799,
      "attorney": 9800,
      "indemnification": 9801,
      "glom": 9802,
      "##issory": 9803,
      "webc": 9804,
      "##<;": 9805,
      "trader": 9806,
      "##acc": 9807,
      "##onto": 9808,
      "pool": 9809,
      "-----------": 9810,
      "##inqu": 9811,
      "initially": 9812,
      "understand": 9813,
      "defense": 9814,
      "semiconduct": 9815,
      "communities": 9816,
      "mter": 9817,
      "peter": 9818,
      "bmat": 9819,
      "glomkt": 9820,
      "mterials": 9821,
      "qa": 9822,
      "marketable": 9823,
      "jon": 9824,
      "cycle": 9825,
      "promissory": 9826,
      "sep": 9827,
      "lyn": 9828,
      "srt": 9829,
      "gov": 9830,
      "##stock": 9831,
      "##inating": 9832,
      "impacts": 9833,
      "label": 9834,
      "insured": 9835,
      "exting": 9836,
      "ray": 9837,
      "ham": 9838,
      "receipt": 9839,
      "##mentmember": 9840,
      "`?": 9841,
      "els": 9842,
      "shows": 9843,
      "offshore": 9844,
      "hill": 9845,
      "ultimate": 9846,
      "##<:": 9847,
      "proved": 9848,
      "considering": 9849,
      "producing": 9850,
      "(#`@": 9851,
      "minority": 9852,
      "##thern": 9853,
      "bridgestation": 9854,
      "relate": 9855,
      "defer": 9856,
      "launched": 9857,
      "principally": 9858,
      "why": 9859,
      "falls": 9860,
      "toronto": 9861,
      "jud": 9862,
      "payroll": 9863,
      "officials": 9864,
      "cfo": 9865,
      "hours": 9866,
      "votes": 9867,
      "aim": 9868,
      "##erson": 9869,
      "##isation": 9870,
      "obtaining": 9871,
      "bay": 9872,
      "##grade": 9873,
      "everyone": 9874,
      "training": 9875,
      "`^": 9876,
      "categories": 9877,
      "extensive": 9878,
      "men": 9879,
      "##ald": 9880,
      "extra": 9881,
      "aer": 9882,
      "hotels": 9883,
      "implemented": 9884,
      "##<@": 9885,
      "him": 9886,
      "##ham": 9887,
      "##cap": 9888,
      "fire": 9889,
      "steady": 9890,
      "##<[": 9891,
      "qualify": 9892,
      "##enue": 9893,
      "jpm": 9894,
      "attention": 9895,
      "##ugg": 9896,
      "merchand": 9897,
      "tests": 9898,
      "##<,": 9899,
      "##ei": 9900,
      "monitoring": 9901,
      "##rought": 9902,
      "operators": 9903,
      "commercialization": 9904,
      "guidelines": 9905,
      "##`'": 9906,
      "affiliated": 9907,
      "`\\": 9908,
      "sentiment": 9909,
      "permits": 9910,
      "blo": 9911,
      "##na": 9912,
      "wel": 9913,
[...]
